， 162151
之 72699
。 43811
原告 35696
、 34862
爲 25966
被告 25038
條 22256
有 21818
不 20779
於 19272
元 18318
給 18149
勞工 17897
應 16602
勞動 16162
（ 15614
） 15588
規定 14459
, 14196
契約 13927
其 13388
工作 12808
公司 12669
所 12443
月 12307
及 12126
上訴人 12053
未 11393
： 11384
付 11333
年 11280
工資 11180
以 10850
請求 10270
項 9926
終止 9804
或 9729
自 9312
是 9260
僱主 9200
並 9129
一 9103
得 8942
至 8743
1 8547
而 8536
無 8274
依 8254
即 7947
則 7920
系 7618
」 7615
上 7603
按 7536
與 7454
等 7315
( 7236
) 7233
已 6665
起 6562
的 6437
「 6420
退休金 6413
. 6356
第1 6310
時 6309
兩 6272
在 6149
2 5960
造 5914
被 5749
主張 5725
薪資 5663
部分 5573
款 5542
此 5438
經 5377
理由 5352
亦 5289
由 5243
3 4847
基準法 4845
期間 4815
後 4788
就 4724
日 4669
前 4543
間 4447
； 4414
因 4412
5 4358
本件 4340
計算 4314
頁 4231
予 4229
如 4226
資遣費 4209
受 4122
可 4090
條例 4004
判決 3984
二 3961
否 3872
個 3843
又 3805
該 3782
關係 3715
提出 3688
離職 3647
且 3638
均 3586
我 3583
三 3519
本院 3511
本 3461
人 3444
6 3434
屬 3355
預告 3311
開 3303
非 3281
被上訴人 3221
事 3220
金額 3178
休假 3164
4 3154
見 3143
？ 3040
平均 2941
者 2929
再 2882
號 2864
獎金 2854
滿 2804
卷 2800
特別 2788
請 2787
勞基法 2777
故 2761
明文 2761
爭 2751
發 2750
對 2706
原 2703
違反 2677
小時 2670
適用 2659
據 2648
提繳 2635
僱 2622
將 2618
時間 2603
000 2595
僅 2541
第2 2523
認 2477
向 2476
但 2454
解僱 2405
內 2383
每月 2360
事實 2351
年度 2345
查 2344
年資 2343
員工 2332
執行 2311
表示 2301
98年 2283
定 2269
情 2258
要 2248
約定 2244
仍 2234
情形 2221
勞務 2195
既 2175
四 2174
惟 2172
損害 2167
8 2163
7 2151
五 2098
第14 2095
依據 2078
繼續 2063
假 2058
12月 2041
六 2038
駁回 2036
同意 2035
證 1997
其他 1966
雖 1960
業務 1957
以上 1949
第12 1941
法院 1905
另 1873
准許 1872
第一 1861
字 1858
語 1851
第11 1809
次 1805
能 1787
計 1787
保險 1781
來 1767
尚 1767
規 1767
證人 1758
稱 1745
投保 1725
中 1717
爭執 1708
分別 1660
內容 1644
10月 1633
11月 1625
任職 1615
休 1615
無法 1615
行爲 1614
9 1612
雙方 1602
到 1600
證明 1580
法律 1578
訴訟法 1574
認定 1546
逾 1538
止 1537
＝ 1532
+ 1524
/ 1518
意思 1502
＋ 1499
抗辯 1487
會 1477
單位 1476
× 1470
「@@ 1464
合法 1464
對於 1463
每 1460
利息 1458
沒有 1454
上班 1453
1日 1450
云云 1441
發生 1438
最高 1422
101年 1420
基法 1413
他 1411
新 1408
致 1408
同 1405
勞資 1399
天 1376
日止 1370
30日 1369
105 1362
計算式 1362
第3 1360
加班費 1355
也 1354
- 1343
職業 1340
賠償 1338
人員 1324
書 1319
件 1316
僱傭 1315
第6 1304
退休 1284
一個 1279
依勞 1275
從而 1271
參照 1268
主管 1267
30 1265
前述 1263
結果 1255
專戶 1252
日數 1242
責任 1240
義務 1237
通知 1234
說 1228
104年 1226
6月 1217
第4 1217
辦理 1216
請假 1205
存在 1204
擔任 1202
第5 1192
1月 1183
103年 1174
送達 1172
7月 1171
影響 1166
舉證 1163
3月 1159
訴訟 1156
足 1155
除 1155
12 1148
10 1147
提供 1142
薪 1140
各 1139
相當 1139
97年 1138
指 1138
調解 1135
要求 1133
第17 1130
方式 1127
個人 1112
民事 1111
職務 1110
8月 1108
記載 1104
七 1100
爭議 1100
宣告 1099
須 1093
9月 1092
其餘 1085
工時 1082
報酬 1081
難 1081
領 1081
事業 1080
100年 1078
5月 1075
比例 1075
當事人 1065
= 1057
資遣 1055
就業 1053
延長 1053
服務 1051
自願 1051
說明 1049
上訴 1044
清償 1042
權利 1036
證明書 1032
部 1025
施行 1024
問 1022
4月 1020
證據 1018
了 1017
當 1017
意旨 1016
從 1006
共 1004
31日 1002
法定 1002
價 987
拒絕 979
重大 976
受領 975
始 974
標準 973
費用 973
外 972
下 971
資料 971
採 970
符合 959
100 956
102年 949
乃 941
法 940
訴 934
原因 929
依法 926
權益 922
災害 922
99年 921
民法 919
遲延 912
2月 909
合計 903
敘明 903
業績 903
依民 902
關於 902
必要 899
管理 899
爲由 890
紀錄 883
原審 881
達 878
104 869
因此 867
生 867
契約者 865
程序 864
年息 856
左列 855
方法 853
翌日 853
過 853
都 852
情節 840
主文 839
萬 838
遭 836
代理人 832
並非 828
信函 828
申請 827
性質 826
確 825
勞僱 816
負擔 816
同一 815
分 809
範圍 808
八 806
加 806
效力 803
節 802
你 800
101 791
第二 791
供 787
曾 787
: 785
爰 785
102 784
% 782
確定 781
傭 780
確認 780
扣 778
任何 776
條件 775
函 773
存證 770
94年 769
制度 769
津貼 769
跟 767
予以 761
法令 761
所謂 760
事項 756
超過 752
家 749
96年 747
需 741
變更 740
領取 740
訴狀 734
院卷 732
處理 731
擔保 730
成立 729
實際 727
提 726
上述 723
繕本 722
0 720
10日 717
判斷 717
低於 716
失業 710
明確 710
績效 709
會議 705
用 705
若 704
… 703
基本 702
因爲 700
多 700
去 697
連 696
伊 695
5日 694
第24 694
每日 693
105年 692
106年 691
當時 689
相關 688
敗訴 687
有關 687
辯 684
加班 683
15日 678
使 678
扣除 676
客戶 673
認爲 672
第13 671
細 670
調動 668
不能勝任 667
臺 667
103 665
提撥 664
辦法 662
限 660
共計 658
做 654
總額 654
具有 653
月份 653
合 651
我們 651
正當 648
而言 647
入 646
自行 646
被保險人 645
委員會 644
同年 636
從事 632
載 632
106 631
至於 623
支付 622
臺上 621
情事 618
核 617
÷ 610
假日 610
開@@ 609
500 608
聲 607
客觀 605
攻擊 605
調整 605
然 604
僱用 600
辯論 599
基於 597
遣費 594
25日 593
20 592
強制 590
完成 586
保障 585
第16 584
約 583
差額 577
能力 576
負 576
顯 576
防禦 575
合意 574
表 574
勞 573
之前 572
行使 572
補償 571
復 570
一@@ 569
才 567
點 567
20日 566
審酌 563
綜上所述 563
28日 561
16日 560
作爲 560
基數 560
經營 558
以下 556
先 556
回 556
車 555
方 553
企業 549
醫療 547
利益 544
已經 544
可以 543
之一 542
債權人 542
總 542
一定 541
示 539
7日 538
行政院 536
負責 535
數 532
屬於 530
筆錄 528
準 526
他人 525
15 522
【 521
數額 521
臺灣 521
所得 519
經理 518
份 517
明 517
自屬 517
】 516
廢棄 515
日前 515
月薪 515
* 511
12日 507
11 506
大 506
年終 506
影本 505
損失 505
自@@ 504
陳@@ 504
知悉 501
14日 500
市政府 500
最後 499
林@@ 499
17日 497
使用 495
未經 495
臻 494
800 493
固 493
暨 492
11日 488
21日 488
一一 488
調職 488
13日 487
定期 487
機關 487
出 485
可能 485
九 484
完 483
催告 482
改善 482
處 482
營業 480
公告 479
經常性 479
保險法 478
謂 478
債務人 477
爲何 476
調 476
出勤 475
更 472
曠職 471
27日 470
所以 469
人事 468
告知 468
依@@ 467
言詞 467
達成 466
26日 465
平日 465
分鐘 464
般 464
22日 463
審 463
電子 463
6@@ 462
起訴 462
目 460
作 459
保險局 459
前段 459
履行 459
23日 457
自己 457
利率 456
曠工 456
憑 455
甲○○ 453
百分之五 452
之後 450
決定 450
造成 450
附表 450
5@@ 449
同法 449
日@@ 449
發放 449
程度 448
休息 445
這 445
卻 444
日期 444
當日 442
證述 441
24日 440
第十一 439
第23 438
醫院 438
業 437
25 436
未能 436
4@@ 435
其中 435
第38 434
實 433
狀況 433
第三 433
行 433
歸責 432
0@@ 431
正常 431
直接 431
減少 429
項定 425
部門 424
足額 423
免 422
期限 421
17 420
3日 420
可知 419
14 418
郵件 418
何 417
包括 417
聲明 416
論述 416
200 415
算 415
真實 414
積欠 414
各款 412
第79 412
諸 412
6日 411
金@@ 411
附 411
可稽 409
命令 407
負責人 407
問題 406
臺北 406
必須 405
設立 405
18日 404
7@@ 403
處分 403
以前 402
3萬 401
登記 401
時數 400
老闆 399
考覈 399
19 398
債務 398
傷害 398
2日 397
」@@ 397
命 397
21 396
勝訴 396
3@@ 395
」「 394
具體 394
復職 394
審卷 393
29日 391
第31 391
取得 390
依職權 388
31 387
職 387
陳述 387
勞保局 386
固定 386
依照 385
資 385
意 384
休假日 383
明定 383
總經理 383
特休 382
符 382
續 382
失 381
委任 381
黃@@ 381
張@@ 380
明細 378
真正 378
600 377
採信 377
權 377
第四 376
合理 375
如下 375
書面 375
選擇 375
進行 374
違法 374
16 373
收 373
8@@ 372
9@@ 371
站 371
責 371
十 370
終結 370
懲戒 369
業據 369
法官 367
王@@ 364
顯然 364
參 363
於99年 363
第20 363
2萬 362
第78 362
知道 360
2@@ 359
勞保 359
懲處 359
故意 359
結論 359
28 358
三十 357
任 357
實施 357
8日 354
函釋 354
有限公司 353
準備 353
無@@ 353
事故 352
保護法 352
接受 352
倘 351
簽名 351
工 350
所屬 350
百分之5 350
95年 349
主觀 349
手段 349
提起 349
訓練 349
二@@ 348
緊縮 348
19日 347
下午 347
觀 347
調查 347
13 346
舍 346
4日 345
李@@ 345
解釋 345
33 343
社會 343
18 342
性 342
等語 342
43 341
應發 341
繳 341
辯稱 341
非@@ 341
事務 337
審理 337
需要 337
年度臺 336
論結 336
虧損 335
1萬 334
之一者 334
24 333
作業 333
協商 333
依同法 332
98 331
原證 331
開立 330
經濟 329
開始 329
22 328
服 328
只 327
單 327
堪認 326
位 325
應休 323
較 323
禁止 322
安全 321
底 320
第19 319
29 318
屬性 318
項目 318
期 317
60 316
和 316
股東 316
乙○○ 315
得以 315
本人 315
班 314
無從 313
一月 312
退保 312
27 311
協調 310
如何 310
條定 310
第389 310
依前 309
相同 309
立法 309
簽署 309
消滅 308
減 308
繳納 308
違規 308
具 307
款定 307
訂 307
4萬 306
有利於 306
電腦 306
麼 306
惟查 305
拘束 305
申報 305
組織 305
吳@@ 304
欲 304
事情 303
例 303
少 303
揭 303
求予 303
9日 301
文件 301
機構 301
股份 301
45 300
時候 300
駕駛員 300
下列 299
名 299
北 298
確實 297
片面 296
費 296
尚未 295
工會 295
限制 295
一日 294
記錄 294
銀行 294
32 293
寄 293
足以 293
電話 293
額 293
50 292
手續 292
院 292
事件 291
讓 291
預告之 291
勞方 290
參加 289
如果 289
每年 289
300 288
反訴 288
車輛 288
『 287
八@@ 287
獲得 287
40 286
』 286
己 286
最低 286
月者 286
診斷 286
侵害 285
保護 285
加計 284
及其 284
屆滿 284
屬實 284
協議 283
佳 282
全勤 281
再者 281
有效 281
職權 281
26 280
36 280
修正 280
卡 280
相符 280
打 279
治療 279
本案 278
地點 277
籤 277
代 276
合約 276
構成 276
保險費 275
債權 275
依民法 274
另外 274
所有 274
劉@@ 273
嚴重 273
第@@ 273
丙○○ 272
新北 272
期限者 272
然查 272
被告@@ 272
違背 272
期待 271
縱 271
返還 271
剩 270
技術 270
案 269
實其說 268
帳戶 268
爰依 268
表現 268
分級 267
包含 267
指揮 267
監督 267
第59 267
計劃 267
適當 267
零@@ 267
1@@ 266
區 266
揆 266
狀態 266
三@@ 265
名義 265
看 265
97 264
過失 264
勞工局 263
基礎 263
斟酌 263
主依 262
補 262
他方 261
保留 261
列 260
維持 260
延 259
意見 259
理 259
自請 259
金 259
第10 258
第436 258
令 257
十二月 257
報 257
第7 257
帶 256
至少 256
大@@ 255
附卷 255
當月 254
級 254
? 253
最 253
回覆 252
99 251
告訴 251
找 251
財產 251
交 250
以外 250
傷病 250
400 249
加以 249
她 249
指摘 249
據此 249
34 248
以後 248
現金 248
要件 248
之@@ 247
第五 247
「僱 246
二分之一 246
二十@@ 246
產品 246
詳 246
庭 245
抵 245
歲 245
短少 245
第十四 245
證詞 245
余月數 244
列入 244
場所 244
訴人 244
高 244
健康 243
排定 243
無效 243
第六 243
著 243
10@@ 242
二月 241
反面 241
很 241
當天 241
37 240
抵銷 240
23 239
中@@ 239
人力 239
會計 239
5萬 238
洵屬 238
基準 237
清楚 237
負遲 237
情況 236
改 236
00 235
加倍 235
同事 235
第十三 235
規範 235
詞 235
陳明願 235
難謂 235
聲請 234
視 233
駕駛 233
勝任 232
工作者 232
提繳率 232
42 231
人格 231
副 231
況 231
生產 231
錯誤 231
長 231
－@@ 231
83 230
安排 230
小 230
廠 229
往 229
欠 229
綜 229
立 228
第十二 228
下班 227
半 227
好 227
然@@ 227
申請書 227
交付 226
制 226
協助 226
求職 226
簽訂 226
重大者 226
勞退 225
大陸 225
拿 225
知 225
自認 225
改判 224
稱「 224
第3@@ 224
自由 224
權限 223
滿者 223
自99年 223
舊制 223
蔡@@ 223
補服 223
認@@ 223
900 222
審@@ 222
導致 222
生活 222
董事長 221
銷售 221
35 220
准此 220
十@@ 220
寫 220
故@@ 220
無故 219
留職 219
發@@ 219
決議 218
虞者 218
請求權 218
證稱 218
鄭@@ 218
前揭 217
四月 217
競業 217
行爲者 217
趟 217
週年 217
以及 216
可見 216
第392 216
簡易 216
評 216
進 216
一○○年 214
內部 214
國@@ 214
試用 214
x 213
判例 213
口頭 213
含 213
無據 213
營運 213
目標 213
考量 213
茲 213
薪水 213
但是 212
到職 212
行政 212
還 212
八月 211
單@@ 211
成 211
法人 211
事後 210
手段性 210
文@@ 210
六@@ 209
利 209
明@@ 208
13@@ 207
保 207
同時 207
指定 207
全部 206
國定 206
累積 206
願 206
停薪 205
甲○○@@ 205
舊 205
報告 204
指示 204
第2@@ 204
遲到 204
50萬 203
清潔 203
病假 203
種 203
38 202
74 202
上@@ 202
主動 202
時效 202
核發 202
沒 202
表明 202
侮辱 201
楊@@ 201
獎懲 201
當然 201
發現 201
皆 201
製作 201
餘 201
依本 200
再審 200
專業 200
爭點 200
親自 200
共同 199
應@@ 199
正@@ 199
自得 199
解 199
以內者 198
精神 198
起訴狀 198
事證 197
原有 197
收益 197
竟 197
表@@ 197
記 197
A@@ 196
五月 196
堪信 196
次月 196
短 196
轉 196
高等 196
叫 195
態度 195
檢查 195
資@@ 195
任意 194
侵權 194
支出 194
資方 194
12@@ 193
事由 193
月@@ 193
第15 193
達到 193
三十日 192
上午 192
年@@ 192
把 192
明細表 192
開會 192
44 191
92 191
儲存 191
酌定 191
人@@ 190
倍 190
斷 190
講 190
七月 189
之上 189
依同 189
分@@ 189
地 189
始@@ 189
足認 189
迄 189
丁○○ 188
第9 188
19@@ 187
乙節 187
各項 187
期日 187
本@@ 187
無須 187
第39 187
股 187
錢 187
41 186
以內 186
員 186
報表 186
第十七 186
補習班 186
那 186
16@@ 185
九十七年 185
六十@@ 185
十一月 185
協議書 185
店 185
標 185
第277 185
47 184
司機 184
無涉 184
配合 184
除斥 184
95 183
交接 183
必 183
條款 183
款項 183
現場 183
短付 183
嗎 182
系統 182
診所 182
三月 181
乙方 181
求 181
裁判 181
非法 181
九十八年 180
否則 180
學校 180
應付 180
歇業 180
甲方 180
維護 180
辦公室 180
難以 180
18@@ 179
他們 179
匯款 179
有@@ 179
第30 179
保全 178
值 178
年月 178
被告系 178
離開 178
公立 177
存 177
承攬 177
機 177
段定 177
法@@ 177
職@@ 177
信 176
六月 176
十月 176
因而 176
工資額 176
96 175
一百@@ 175
主要 175
九十六 175
內政部 175
出@@ 175
告@@ 175
周@@ 175
國 175
覈准 175
論旨 175
顯見 175
15@@ 174
一○@@ 174
名譽 174
簡@@ 174
謝@@ 174
需求 174
交通 173
四@@ 173
本息 173
第二十 173
解散 173
附麗 173
張 172
七@@ 171
停止 171
存摺 171
55 170
告 170
因素 170
徵 170
戊○○ 170
綜合 170
送 170
中央 169
第487 169
金月 169
事實者 168
前往 168
前後 168
生效 168
48 167
九月 167
例假 167
初 167
完全 167
收受 167
第18 167
華 167
行@@ 167
覈定 167
轉@@ 167
調@@ 166
銷 166
類 166
×0 165
書@@ 165
正 165
紙 165
被告間 165
視爲 165
進入 165
46 164
單方 164
實@@ 164
活動 164
路 164
750 163
80 163
公里 163
文書 163
查@@ 163
計算事 163
財務 163
分配 162
正式 162
爲止 162
先生 161
公@@ 161
指@@ 161
本金 161
負舉證 161
」等語 160
三十@@ 160
忠誠 160
應有 160
欄 160
百分之@@ 160
負有 160
電@@ 160
65 159
乙○○@@ 159
保費 159
受傷 159
終 159
逐一 159
逕 159
具備 158
天數 158
就此 158
折 158
採取 158
採用 158
派 158
遲 158
郵局 158
全 157
受僱 157
論 157
領@@ 157
333 156
五@@ 156
否認 156
失所 156
工程 156
意願 156
收@@ 156
清@@ 156
董事 156
言 156
107年 155
39 155
6萬 155
九十七 155
休者 155
對話 155
復@@ 155
收入 155
書狀 155
保險人 154
承諾 154
社區 154
究 154
重 154
0000 153
120 153
安 153
工@@ 153
汽車 153
清 153
照 153
獲 153
貨 153
① 152
各種 152
宜 152
百分之六 152
薪假 152
該@@ 152
退 152
遵守 152
700 151
何時 151
在內 151
接 151
月2 151
破產 151
票 151
合@@ 150
在於 150
案件 150
毋庸 150
設 150
身體 150
車@@ 150
5000 149
久 149
全@@ 149
填寫 149
子 149
第1@@ 149
許 149
訴外人 149
詞置 149
17@@ 148
79 148
93年 148
九十@@ 148
前@@ 148
升 148
參酌 148
安置 148
定義 148
幾 148
第8 148
線 148
臺幣 148
莊@@ 148
薪@@ 148
虞 148
主@@ 147
保@@ 147
增加 147
持續 147
段 147
比較 147
第26 147
組 147
自承 147
臺@@ 147
進@@ 147
違約金 147
重要 147
力羽 146
周 146
團體 146
專案 146
無疑 146
過程 146
54 145
形 145
志@@ 145
憑單 145
提前 145
第21 145
紅利 145
老年 145
許@@ 145
調字 145
願意 145
20@@ 144
七十@@ 144
三日 144
其@@ 144
採@@ 144
業務員 144
真 144
聘 144
追加 144
九@@ 143
予@@ 143
佐 143
多次 143
打電話 143
文 143
有所 143
溝通 143
發展 143
第53 143
縣政府 143
談 143
車禍 143
通知書 143
關廠 143
八十@@ 142
前開 142
委託 142
市 142
打卡 142
終止權 142
行車 142
賦予 142
走 142
勤 141
四十@@ 141
普通 141
機會 141
相對 141
處理法 141
75 140
公司法 140
希望 140
手 140
於法 140
業經 140
甚明 140
舉 140
葉@@ 140
訂定 140
錄音 140
14@@ 139
84 139
人間 139
勞字 139
危險 139
專員 139
應該 139
期間者 139
生@@ 139
遊@@ 139
離 139
丙○○@@ 138
參見 138
嗣 138
新@@ 138
核屬 138
營 138
章 138
總@@ 138
該法 138
郭@@ 138
○@@ 137
兼 137
到達 137
十一 137
只有 137
喪失 137
此外 137
看到 137
秩序 137
蓋 137
記大過 137
轉讓 137
這樣 137
陳稱 137
預備 137
66 136
67 136
五十@@ 136
付@@ 136
備 136
到場 136
審查 136
撤銷 136
教育 136
暴行 136
永@@ 136
衡量 136
詢問 136
86 135
在職 135
核@@ 135
殘廢 135
立即 135
第229 135
筆 135
考績 135
董事會 135
賴@@ 135
身分 135
附@@ 135
七日 134
就是 134
於@@ 134
時@@ 134
未休 134
末 134
準用 134
狀 134
獨立 134
第二十三 134
綜上 134
預@@ 134
51 133
「本法 133
什 133
力 133
勞動部 133
小姐 133
第390 133
第二十四 133
管 133
補助 133
90 132
② 132
利之 132
因果 132
月止 132
準備金 132
疾病 132
結清 132
職災 132
避免 132
高@@ 132
默示 132
二十 131
先位 131
太 131
待 131
物 131
美@@ 131
誠信 131
負舉 131
遷廠 131
邱@@ 131
250 130
丁○○@@ 130
伊@@ 130
宜@@ 130
工作權 130
效果 130
移送 130
第22 130
第37 130
詳本院 130
94 129
交易 129
健保 129
想 129
注意 129
聯@@ 129
萬@@ 129
53 128
主任 128
助理 128
地位 128
惟@@ 128
此@@ 128
洪@@ 128
盡 128
見解 128
討論 128
附此 128
52 127
56 127
77 127
二百@@ 127
依序 127
同@@ 127
屆 127
德 127
百 127
設備 127
82 126
千 126
名@@ 126
委 126
安@@ 126
春@@ 126
比 126
洪志德 126
組長 126
詳@@ 126
課 126
辦 126
667 125
九十八 125
休業 125
公佈 125
遠 125
91 124
匯 124
呂@@ 124
實際上 124
戊○○@@ 124
特 124
籤立 124
64 123
定@@ 123
實領 123
成本 123
本法 123
林 123
由於 123
議定 123
代表 122
加強 122
受到 122
合併 122
呈 122
工程師 122
所示 122
淑@@ 122
特@@ 122
甚 122
經過 122
證@@ 122
開發 122
89 121
三百@@ 121
不@@ 121
中心 121
主 121
二日 121
公休 121
勞健 121
從未 121
東@@ 121
自非 121
臺內 121
該日 121
資料表 121
透過 121
遂 121
出具 120
法規 120
結 120
被告自 120
訂立 120
乙份 119
九十 119
事宜 119
差 119
庭證 119
承認 119
第32 119
訂單 119
違 119
78 118
7萬 118
保管 118
加保 118
受@@ 118
背面 118
計酬 118
認系 118
資訊 118
1000 117
83年 117
促 117
執 117
形式 117
業已 117
金錢 117
高於 117
亦定 116
公平 116
出車 116
勞@@ 116
地方 116
日薪 116
服從 116
第36 116
經常 116
九十五年 115
二萬@@ 115
休養 115
修 115
借 115
假規 115
召開 115
合於 115
季 115
工廠 115
幫 115
無庸 115
簡訊 115
論列 115
這個 115
一千@@ 114
光 114
公傷 114
十五 114
原@@ 114
參@@ 114
反應 114
合先 114
度 114
拋棄 114
新制 114
早 114
時期 114
機器 114
物品 114
特定 114
發佈 114
第184 114
話 114
辭職 114
通 114
限於 114
隨時 114
面 114
乘 113
只要 113
地區 113
基上 113
晚上 113
水@@ 113
率 113
結算 113
薪資單 113
開除 113
預示 113
92年 112
93 112
D@@ 112
P@@ 112
e@@ 112
以爲 112
制定 112
十日 112
另行 112
可取 112
品行 112
操作 112
格 112
聯絡 112
補足 112
I@@ 111
加@@ 111
十一日 111
即可 111
同日 111
相@@ 111
相類 111
第七 111
經驗 111
譯文 111
轉帳 111
180 110
61 110
87 110
「本 110
仁 110
代@@ 110
全民 110
公開 110
北@@ 110
十四日 110
慶@@ 110
第203 110
第4@@ 110
若干 110
證書 110
起@@ 110
預供 110
10月份 109
58 109
70 109
X 109
九十四年 109
依督 109
元@@ 109
同仁 109
學識 109
措施 109
早上 109
異議 109
第55 109
蘇@@ 109
週@@ 109
還是 109
針對 109
107 108
23@@ 108
57 108
下@@ 108
備位 108
出於 108
可據者 108
己○○ 108
手機 108
目前 108
真意 108
第29 108
解除 108
訴請 108
返回 108
88 107
≒ 107
休@@ 107
全額 107
前項 107
名稱 107
四百@@ 107
威 107
指派 107
晚班 107
本條 107
申誡 107
私立 107
章程 107
課長 107
道 107
2000 106
③ 106
上字 106
事@@ 106
享有 106
六日 106
商業 106
摘原 106
會務 106
本旨 106
死亡 106
罰 106
而已 106
路線 106
雲 106
顧問 106
81 105
人數 105
何@@ 105
偉 105
傳@@ 105
存續 105
對象 105
招攬 105
第四百七十八 105
編號 105
縱使 105
總公司 105
總計 105
臺端 105
輔導 105
適任 105
韓思徑 105
62 104
一直 104
一萬@@ 104
分紅 104
取 104
報請 104
授權 104
積極 104
經@@ 104
繼續性 104
股票 104
英 104
請領 104
論駁 104
身心 104
通常 104
通過 104
部份 104
點@@ 104
〕 103
以@@ 103
假單 103
停工 103
勞動力 103
原領 103
小@@ 103
底薪 103
推@@ 103
文字 103
洵 103
第 103
第四百七十七 103
訴爲 103
買 103
超時 103
違誤 103
量 103
 103
九十五 102
二者 102
例如 102
保證 102
勞務所 102
回@@ 102
大樓 102
實質 102
撥 102
研究 102
而且 102
詳原 102
退@@ 102
過@@ 102
59 101
一切 101
七千@@ 101
三萬@@ 101
之間 101
光@@ 101
工作日 101
援用 101
次查 101
祕密 101
結構 101
育嬰 101
行駛 101
足取 101
述 101
內@@ 100
六百@@ 100
出席 100
區域 100
建議 100
我國 100
承@@ 100
揭@@ 100
擅自 100
新北市 100
核原告 100
畸零 100
縱@@ 100
解@@ 100
評估 100
證2 100
變動 100
遲延者 100
關@@ 100
降 100
除以 100
顯示 100
黃 100
22@@ 99
似 99
信@@ 99
存入 99
提@@ 99
換 99
支 99
減損 99
瑞@@ 99
異常 99
當場 99
規定者 99
計入 99
距 99
路@@ 99
還有 99
門 99
〔 98
九千@@ 98
五萬@@ 98
信用 98
八百@@ 98
十四 98
參與 98
學@@ 98
學生 98
建@@ 98
得@@ 98
復健 98
書予 98
東西 98
特殊 98
薪資表 98
規章 98
載有 98
運用 98
配偶 98
36@@ 97
S@@ 97
」欄 97
一年 97
七百@@ 97
三十一日 97
中華民國 97
事假 97
互 97
勞退新制 97
可言 97
忠 97
放 97
未@@ 97
民 97
玉@@ 97
環境 97
甚至 97
產生 97
聘僱 97
聽 97
薪金 97
記過 97
設計 97
麗@@ 97
150 96
49 96
a@@ 96
八千@@ 96
半數 96
揭示 96
收取 96
收據 96
方面 96
業@@ 96
況@@ 96
涉 96
白@@ 96
蘇州 96
運作 96
適法 96
遭遇 96
A 95
○○@@ 95
「情節 95
九十九年 95
休日 95
卷可稽 95
和解 95
嗣後 95
填 95
得心證 95
必需 95
既然 95
業如 95
照片 95
班@@ 95
端 95
第10@@ 95
第27 95
約定書 95
聘用 95
遺屬 95
醫 95
重新 95
雄 95
26@@ 94
三年 94
九十九 94
亞@@ 94
內發 94
函@@ 94
外@@ 94
提示 94
時間者 94
爲@@ 94
第449 94
第72 94
蔣@@ 94
霖 94
240 93
60@@ 93
三千@@ 93
副理 93
印 93
單純 93
干擾 93
心證 93
推介 93
換言之 93
盈餘 93
紀律 93
詳予 93
誤 93
餘地 93
首 93
駐 93
乙 92
全體 92
分爲 92
刑事 92
另@@ 92
可證 92
告發 92
市場 92
探針 92
收到 92
明文規定 92
查詢 92
紀念日 92
臨時 92
補償費 92
長@@ 92
離職」 92
項@@ 92
3000 91
72 91
74年 91
i@@ 91
偵查 91
億 91
包 91
可@@ 91
執@@ 91
成爲 91
振@@ 91
整體 91
渠 91
病 91
第427 91
納入 91
維修 91
臺北縣 91
計時 91
68 90
71 90
8萬 90
侵佔 90
品 90
四千@@ 90
完畢 90
左右 90
巨@@ 90
恢復 90
欣@@ 90
現在 90
積 90
第25 90
系@@ 90
職業病 90
良 90
豪 90
79年 89
九百@@ 89
五千@@ 89
依系 89
入@@ 89
分述 89
別 89
品質 89
嘉@@ 89
圖 89
存款 89
廠商 89
按勞基法 89
明顯 89
期滿 89
未曾 89
機師 89
種類 89
稽 89
第七十八 89
第四@@ 89
罹於 89
職位 89
長期 89
10萬 88
何況 88
富@@ 88
慰撫金 88
揆諸 88
暫 88
機車 88
獎勵 88
留 88
簽約 88
補貼 88
調度 88
謀 88
近 88
附件 88
陳 88
M@@ 87
並未 87
堪 87
契約業 87
打@@ 87
排除 87
提及 87
支援 87
政@@ 87
昌 87
益 87
致使 87
蓮 87
證4 87
警告 87
進而 87
重@@ 87
錯 87
 87
25@@ 86
借款 86
分級表 86
區分 86
基金 86
容 86
實物 86
應徵 86
擴張 86
方@@ 86
機@@ 86
涉及 86
第0000000000 86
頭 86
780 85
91年 85
住院 85
十二 85
十五日 85
協力 85
工地 85
左 85
廖@@ 85
延後 85
支@@ 85
放棄 85
月底 85
稱之@@ 85
貨運 85
資單 85
資格 85
迄@@ 85
90年 84
一再 84
先後 84
六千@@ 84
凱@@ 84
分行 84
商品 84
州 84
帳 84
最近 84
核備 84
然爲 84
爭執點 84
當@@ 84
鑑定 84
＋@@ 84
98@@ 83
○ 83
上下班 83
九十六年 83
亞 83
促進 83
傷 83
公務員 83
只是 83
合同 83
外出 83
己○○@@ 83
後續 83
所得稅 83
支票 83
數量 83
每個 83
濫用 83
略 83
相 83
符@@ 83
經濟目 83
經理人 83
美 83
被害人 83
計件 83
面試 83
鴻@@ 83
63 82
e 82
○○ 82
五百@@ 82
停@@ 82
加入 82
取捨 82
大廈 82
客人 82
室 82
山 82
必要性 82
態樣 82
榮 82
無關 82
當年 82
第四百四十九 82
結束 82
聯 82
致@@ 82
芳 82
運@@ 82
24@@ 81
87年 81
E@@ 81
〈 81
二千@@ 81
五日 81
函文 81
利己 81
制資 81
十日前 81
報到 81
對@@ 81
局 81
平等 81
年間 81
心 81
懲戒性 81
晟 81
本身 81
櫃檯 81
清冊 81
科技 81
第84 81
縱認 81
職日 81
良@@ 81
薪資@@ 81
要旨 81
貨@@ 81
週六 81
醫師 81
隔 81
00000 80
280 80
45@@ 80
73 80
85 80
×@@ 80
」於 80
交@@ 80
假@@ 80
全班 80
公務 80
列爲 80
如前所述 80
應得 80
整 80
有利 80
民@@ 80
江@@ 80
稅 80
第四百八十一 80
計@@ 80
越 80
車站 80
違約 80
門診 80
陳美雀 80
高雄 80
28@@ 79
76 79
〉 79
一致 79
以此 79
保存 79
協調會 79
各@@ 79
固@@ 79
在案 79
徐@@ 79
應堪 79
數@@ 79
明示 79
權利者 79
流程 79
溢領 79
記得 79
誰 79
證7 79
購買 79
足證 79
000@@ 78
30@@ 78
C@@ 78
佳@@ 78
依證人 78
傑 78
免職 78
動 78
多少 78
審究 78
承諾書 78
排班 78
放假 78
料 78
景氣 78
月工資 78
檢@@ 78
每天 78
無論 78
現 78
證3 78
重勞 78
133 77
720 77
全年 77
利於 77
加發 77
回去 77
守 77
手冊 77
扣押 77
提案 77
方案 77
款事 77
理@@ 77
稱之「 77
站長 77
等於 77
置 77
考 77
被告依 77
詳原證 77
豈 77
27@@ 76
90@@ 76
O@@ 76
R@@ 76
一起 76
三○@@ 76
中間 76
例假日 76
廣@@ 76
日後 76
核於法 76
第十 76
美國 76
而是 76
計日 76
誠實 76
證言 76
4月份 75
二十一日 75
低報 75
卷可佐 75
司@@ 75
各自 75
四萬@@ 75
在場 75
增訂 75
宏@@ 75
往返 75
戶 75
累計 75
義 75
職缺 75
要點 75
計月 75
軟體 75
追蹤 75
速 75
逾期 75
遇 75
陳巧@@ 75
非屬 75
顯非 75
體能 75
鬆@@ 75
主發 74
事先 74
做到 74
勞委會 74
協約 74
因訴 74
國泰 74
嫌 74
後@@ 74
投資 74
掉 74
時」 74
月間 74
每週 74
泰 74
準用之 74
留用 74
短@@ 74
第28 74
訴訟@@ 74
調派 74
貼 74
農曆 74
顯@@ 74
％ 74
125 73
12月份 73
t 73
低 73
催告定 73
六萬@@ 73
利用 73
哪 73
失@@ 73
宏 73
廠長 73
強 73
形成 73
律師 73
或是 73
承前述 73
提到 73
改變 73
曾經 73
決@@ 73
私人 73
空@@ 73
等級 73
績 73
自堪信 73
覈算 73
設有 73
該次 73
辯@@ 73
達@@ 73
遽 73
預定 73
龍 73
11@@ 72
273 72
365 72
40@@ 72
F@@ 72
} 72
一樣 72
休假@@ 72
停 72
切結書 72
原本 72
天@@ 72
字卷 72
年者 72
推認 72
時薪 72
曾@@ 72
機械 72
秀@@ 72
脅迫 72
補@@ 72
觀念 72
逕行 72
12萬 71
86年 71
代班 71
其假 71
十二日 71
原先 71
反對 71
宙@@ 71
常情 71
施 71
會員 71
無非 71
福利 71
線@@ 71
藥 71
衛生 71
較爲 71
離職日 71
33@@ 70
840 70
9月份 70
u@@ 70
任@@ 70
值班 70
充分之工作者 70
公式 70
判命 70
卷附 70
娟 70
影 70
待命 70
憲法 70
手@@ 70
春節 70
更換 70
生效力 70
甲 70
申請人 70
畢 70
第85 70
第二十@@ 70
裏面 70
達成率 70
餘@@ 70
 70
06 69
2月份 69
C 69
以免 69
你們 69
備@@ 69
傳訊 69
公寓 69
六日者 69
十六日 69
口 69
合作 69
君 69
婷 69
學 69
實務 69
幫忙 69
庭@@ 69
投@@ 69
果 69
條@@ 69
減薪 69
管制 69
藥師 69
處於 69
袋 69
裁量 69
詳細 69
證1 69
輕 69
非自願 69
駛車 69
320 68
{ 68
仍然 68
伙食 68
住 68
便 68
係指 68
出差 68
十八日 68
即@@ 68
嗣於 68
回溯 68
困難 68
存儲 68
少於 68
徵詢 68
成@@ 68
手術 68
損 68
斯 68
水 68
瑕疵 68
用餐 68
留下 68
畢當 68
程式 68
第385 68
罹患 68
老師 68
自願性 68
虛僞 68
行銷 68
陽 68
00@@ 67
440 67
50@@ 67
520 67
9萬 67
B 67
④ 67
乃@@ 67
司法院 67
合夥 67
布@@ 67
所述 67
明知 67
更改 67
書」 67
模具 67
派遣 67
流@@ 67
當地 67
結證 67
繳@@ 67
缺 67
育@@ 67
自動 67
被上訴 67
調工 67
貨款 67
輝 67
逕予 67
008 66
69 66
l@@ 66
p@@ 66
「非 66
仁@@ 66
凡 66
型 66
對外 66
推 66
果@@ 66
核無 66
權@@ 66
當庭 66
疏失 66
競爭 66
緊密 66
表」 66
計算者 66
調降 66
間@@ 66
限期 66
階段 66
飛航 66
體系 66
d 65
s 65
下同 65
付者 65
休息日 65
依聲 65
再次 65
前一日 65
南@@ 65
告聲 65
失能 65
委員 65
屆期 65
年金 65
座談會 65
按照 65
效 65
查覈 65
條文 65
無從@@ 65
營收 65
申訴 65
異動 65
當初 65
百分之六十 65
第八 65
箱 65
豐 65
開法 65
1月份 64
360 64
38@@ 64
3月份 64
80@@ 64
89年 64
丙 64
乘客 64
九十三 64
付款 64
以期 64
任用 64
元＝ 64
先前 64
原狀 64
可議 64
單據 64
大概 64
子女 64
幹事 64
採購 64
政府 64
政策 64
本訴 64
樓 64
藥@@ 64
藥品 64
詹@@ 64
請@@ 64
資產 64
足徵 64
通訊 64
長榮 64
首@@ 64
34@@ 63
46@@ 63
680 63
T@@ 63
二年 63
俊@@ 63
再行 63
前提 63
取消 63
器 63
四日 63
實在 63
年發 63
廣告 63
怡 63
援引 63
整@@ 63
方屬 63
期@@ 63
板橋 63
概念 63
爭執者 63
福 63
第58 63
第70 63
罵 63
衝突 63
迄今 63
送@@ 63
100@@ 62
五原 62
何人 62
公假 62
動@@ 62
務 62
受損 62
合理性 62
完@@ 62
審認 62
峯 62
悉 62
所在 62
拜訪 62
持 62
提升 62
改進 62
本薪 62
板 62
桂@@ 62
然後 62
爰酌 62
發車 62
研@@ 62
第33 62
第48 62
範疇 62
結書 62
聯繫 62
興 62
處分者 62
西@@ 62
訴@@ 62
誠 62
載明 62
通@@ 62
違@@ 62
領遲 62
111 61
t@@ 61
七萬@@ 61
中午 61
僱人 61
充分 61
光碟 61
免除 61
勞退金 61
協理 61
團隊 61
外派 61
平 61
星期 61
有別 61
檢 61
民國 61
申請單 61
網路 61
職員 61
聽到 61
華航 61
裁 61
裝@@ 61
規@@ 61
雅@@ 61
驗 61
麗 61
10年 60
11月份 60
47@@ 60
850 60
D 60
d@@ 60
二十五日 60
人均 60
休畢 60
充 60
初次 60
利@@ 60
到期 60
品@@ 60
報@@ 60
夜班 60
大約 60
如此 60
姓名 60
季節性 60
工作@@ 60
性」 60
晚 60
會@@ 60
津 60
源 60
王 60
王明豊 60
第35 60
經由 60
翔 60
自有 60
規劃 60
調任 60
身 60
零 60
體 60
140 59
48@@ 59
49@@ 59
8000 59
960 59
B@@ 59
L@@ 59
上課 59
世@@ 59
之上訴 59
二十七日 59
五十 59
依下 59
依歷 59
分公司 59
制資遣 59
參考 59
反 59
四十 59
固據 59
固有 59
坤 59
妳 59
審酌者 59
工具 59
性別 59
效率 59
普@@ 59
業主 59
正確 59
法所@@ 59
盤點 59
第235 59
累次 59
細@@ 59
裁@@ 59
計算@@ 59
訊息 59
金融 59
開設 59
電 59
領得 59
109 58
130 58
5月份 58
x@@ 58
三分之一 58
保險@@ 58
分擔 58
化 58
及@@ 58
反而 58
國籍 58
執勤 58
如@@ 58
布 58
旨 58
李志@@ 58
消極 58
滿半年者 58
版 58
發票 58
直屬 58
移交 58
競賽 58
第34 58
第50 58
罰鍰 58
而@@ 58
製造 58
詐欺 58
該事 58
該段 58
語@@ 58
證實 58
議 58
資條 58
退休金者 58
進度 58
178 57
」一語 57
中國 57
互相 57
作@@ 57
公共 57
切 57
危害 57
卷@@ 57
參以 57
可信 57
同一性 57
名冊 57
商@@ 57
回執 57
團體@@ 57
夜間 57
實體 57
工友 57
常 57
彭@@ 57
心@@ 57
意@@ 57
慧 57
本於 57
欠缺 57
欣 57
然此 57
短報 57
第16@@ 57
算@@ 57
納@@ 57
經濟部 57
續@@ 57
補發 57
賣 57
述@@ 57
逕@@ 57
逕認 57
過去 57
銘 57
鑰匙 57
高薪 57
15萬 56
167 56
20萬 56
s@@ 56
七十四 56
二十九日 56
代理 56
任務 56
住戶 56
佩@@ 56
八十七 56
勞上字 56
十九日 56
即使 56
去職 56
四萬 56
回答 56
專 56
年齡 56
您 56
於言詞 56
晚間 56
洪 56
無權 56
無誤 56
照@@ 56
爭@@ 56
科 56
第482 56
第54 56
答辯 56
簽收 56
紙@@ 56
致於 56
臺北市 56
該月 56
證6 56
證9 56
議@@ 56
貴 56
途中 56
銘@@ 56
馬@@ 56
30分 55
44@@ 55
57@@ 55
88年 55
99@@ 55
」者 55
並且 55
位置 55
偉@@ 55
准假 55
印章 55
奕 55
富 55
常@@ 55
幹部 55
怎 55
接@@ 55
收班 55
斷@@ 55
服@@ 55
檢舉 55
清償日 55
溢 55
瀚@@ 55
照顧 55
相互 55
督導 55
短期 55
示@@ 55
第195 55
第247 55
範@@ 55
組員 55
羅 55
職稱 55
舉凡 55
蕭@@ 55
裏 55
論@@ 55
跑 55
車道 55
防止 55
降職 55
顯系 55
體@@ 55
113 54
4000 54
8月份 54
一律 54
二十八日 54
付資 54
佐證 54
依本法 54
僞造 54
八十九 54
即時 54
司法 54
地@@ 54
士 54
存@@ 54
寶@@ 54
廳民 54
待遇 54
徒 54
得知 54
德@@ 54
怠忽 54
患 54
所@@ 54
按時 54
接到 54
提早 54
收費 54
放@@ 54
本判 54
次年 54
減@@ 54
無理由 54
營業@@ 54
犯 54
目@@ 54
短髮 54
立@@ 54
第09400@@ 54
第九 54
統一 54
芳@@ 54
蘭 54
被@@ 54
覺得 54
言語 54
足採 54
離職@@ 54
龍@@ 54
110 53
39@@ 53
70@@ 53
7月份 53
85年 53
SOP 53
a 53
o@@ 53
」云云 53
二十三日 53
人格權 53
付日 53
其後 53
兼顧 53
出現 53
制@@ 53
勝 53
十三 53
半@@ 53
娘 53
怠忽職守 53
成績 53
排 53
擬 53
某 53
查證 53
榮@@ 53
比照 53
求@@ 53
清單 53
減縮 53
特徵 53
珍 53
異 53
盛@@ 53
祥 53
考評 53
自明 53
至@@ 53
衡情 53
註記 53
課@@ 53
調度室 53
門市 53
隊員 53
139 52
W@@ 52
o 52
信賴 52
個別 52
個案 52
值@@ 52
同月 52
國際 52
居@@ 52
形象 52
彥@@ 52
效@@ 52
方服 52
檔案 52
次@@ 52
泄漏 52
派駐 52
溫@@ 52
用@@ 52
票值 52
第450 52
第一百@@ 52
答 52
義@@ 52
自訂 52
記@@ 52
設置 52
詞置辯 52
資金 52
適格 52
配@@ 52
醫學院 52
錄 52
開勞 52
難@@ 52
 52
189 51
「日 51
三分之二 51
之外 51
亞東 51
交代 51
仲裁 51
俱 51
健 51
傳送 51
僱@@ 51
兩者 51
分工合作 51
嗣@@ 51
場 51
媚 51
子@@ 51
字@@ 51
字樣 51
對方 51
對照 51
左@@ 51
店長 51
庚○○ 51
延時 51
情@@ 51
扣繳 51
指「 51
文義 51
暫時 51
根本 51
桃園 51
爲標 51
玲 51
理事長 51
申@@ 51
第0@@ 51
第三十八 51
第二百@@ 51
管理部 51
糾紛 51
翻異 51
股權 51
自始 51
行業 51
行號 51
表達 51
設定 51
詎 51
論件 51
貸款 51
退還 51
重複 51
錦@@ 51
間接 51
陳明 51
障礙 51
類似 51
＝@@ 51
166 50
H@@ 50
[ 50
g@@ 50
供擔 50
傳 50
其次 50
前案 50
十分之一 50
南 50
嚴@@ 50
填補 50
宇 50
必然 50
撤回 50
改@@ 50
旨@@ 50
替 50
次數 50
海@@ 50
班次 50
發送 50
石 50
研發 50
第233 50
第49 50
籤@@ 50
編制 50
親 50
訴字 50
語置 50
誤@@ 50
證5 50
證8 50
越南 50
足@@ 50
車上 50
轉任 50
道路 50
閱 50
陶@@ 50
離職者 50
餐廳 50
骨折 50
鴻海 50
10時 49
17年 49
48956 49
N@@ 49
七十 49
係爭 49
兩@@ 49
力@@ 49
加上 49
各月 49
察 49
實行 49
左手 49
帳@@ 49
廣 49
從@@ 49
收回 49
救濟 49
未合 49
歸還 49
特助 49
瑞 49
當月份 49
移 49
第234 49
第43 49
第十六 49
細表 49
育 49
胡@@ 49
芬 49
覈對 49
該期 49
負@@ 49
距離 49
返臺 49
遣@@ 49
長髮 49
除@@ 49
集團 49
風險 49
... 48
132 48
177 48
184 48
35@@ 48
56@@ 48
880 48
920 48
] 48
r@@ 48
一併 48
中斷 48
仁愛 48
依「 48
借@@ 48
元云云 48
六十 48
共有 48
制裁 48
創 48
土城 48
始終 48
子公司 48
寄@@ 48
居於 48
徐佩妤 48
復於 48
慶 48
房屋 48
技能 48
持有 48
旅館 48
春 48
暫停 48
有如 48
查依 48
核與 48
湖 48
潘@@ 48
營@@ 48
營利 48
疵累 48
發出 48
看@@ 48
端視 48
第123 48
第21827 48
第7@@ 48
管@@ 48
縱因 48
自95年 48
興@@ 48
華@@ 48
號@@ 48
言@@ 48
認可 48
誤會 48
警@@ 48
變@@ 48
財產權 48
起算 48
辭 48
開情 48
雖然 48
預警 48
駕駛工 48
040 47
480 47
640 47
「績 47
上面 47
中秋節 47
事前 47
二十六 47
依原 47
儀 47
八日 47
八萬@@ 47
初@@ 47
勤@@ 47
厥 47
地址 47
妨礙 47
威@@ 47
工作系 47
差異 47
差額@@ 47
憑證 47
控制 47
撫卹 47
支領 47
早已 47
曠@@ 47
有時候 47
機密 47
此事 47
油@@ 47
爾 47
獎金@@ 47
確保 47
管委會 47
習慣 47
肇事 47
臨時性 47
萍 47
被告復 47
補充 47
觀察 47
許可 47
認知 47
論斷 47
赴 47
迴應 47
選 47
遽認 47
預期 47
顯屬 47
236 46
6月份 46
8時 46
M 46
一下 46
世曦 46
並@@ 46
九萬@@ 46
事實上 46
今 46
今天 46
修@@ 46
僱傭者 46
元× 46
公 46
列@@ 46
商 46
回收 46
妨害 46
審覈 46
廢@@ 46
很多 46
怠於 46
懲 46
投保薪資 46
揭法 46
敏 46
智@@ 46
次日 46
每@@ 46
每次 46
況且 46
燿@@ 46
狀繕 46
猶 46
璟豐 46
璽 46
產 46
甲○○於 46
盛 46
站@@ 46
第41 46
第69 46
第71 46
第83 46
節日 46
置備 46
舊@@ 46
英文 46
衛生法 46
衣 46
該項 46
認屬 46
變 46
資計 46
辱罵 46
造就 46
遭@@ 46
醜○○ 46
鍾@@ 46
鎮 46
骨 46
29@@ 45
30萬 45
一些 45
之際 45
何以 45
借貸 45
優@@ 45
內涵 45
典 45
准予 45
分局 45
動作 45
勞力 45
印@@ 45
印象 45
反映 45
口@@ 45
可堪 45
可抗力 45
名目 45
和@@ 45
因@@ 45
婦幼 45
審議 45
恩惠性 45
惠@@ 45
惡意 45
意圖 45
拒 45
排@@ 45
早@@ 45
機票 45
檔 45
洽 45
特定性 45
產@@ 45
留@@ 45
相當性 45
睡覺 45
粉 45
縮減 45
肇@@ 45
訪 45
退保當 45
零件 45
顧問@@ 45
鳳 45
．@@ 45
" 44
116 44
18萬 44
32@@ 44
37@@ 44
570 44
K@@ 44
n@@ 44
二十六日 44
俊 44
偵字 44
先行 44
刊登 44
剝奪 44
勞退舊制 44
包@@ 44
十七日 44
即日 44
參諸 44
及時 44
句 44
命@@ 44
國防 44
坐 44
基此 44
外人 44
多@@ 44
失效 44
客 44
寶 44
御 44
情狀 44
成品 44
手續者 44
扣薪 44
換算 44
明白 44
有時 44
柏@@ 44
檢察官 44
沛@@ 44
獲取 44
班表 44
現@@ 44
瑋@@ 44
社 44
程 44
答辯狀 44
節@@ 44
緊急 44
茂@@ 44
訂@@ 44
請準 44
轉向 44
金」 44
錄影 44
隨即 44
離職單 44
難認 44
預先 44
駁回之 44
． 44
160 43
210 43
450 43
79@@ 43
b 43
主系 43
乙@@ 43
九十四 43
九日 43
伍 43
俸@@ 43
倘@@ 43
僱主經徵 43
八十八 43
其他人 43
到@@ 43
勵 43
原證3 43
外國人 43
多數 43
大小章 43
工」 43
戶數 43
技工 43
拆@@ 43
招募 43
支配 43
施行日 43
時段 43
止@@ 43
歸@@ 43
氣 43
爲此 43
狀@@ 43
異@@ 43
眷屬 43
私@@ 43
稽覈 43
第1602 43
第五十九 43
網站 43
缺@@ 43
署 43
職場 43
職工 43
訊 43
試@@ 43
調取 43
賠償之 43
購 43
迅速 43
通報 43
適@@ 43
鍰 43
降低 43
預扣 43
鼎 43
１ 43
000000 42
0000@@ 42
141 42
181 42
550 42
V@@ 42
y@@ 42
×1 42
二十日 42
人民幣 42
介@@ 42
以觀 42
估 42
保密 42
允許 42
克@@ 42
具@@ 42
兼任 42
出國 42
分期 42
刷 42
加害 42
原料 42
寧 42
平@@ 42
康 42
式 42
形成權 42
從屬 42
應領 42
懷孕 42
扣@@ 42
搬運 42
新竹 42
日常 42
更@@ 42
服務法 42
查明 42
權威 42
治 42
焉 42
無足採 42
牌 42
現行 42
瑋 42
益@@ 42
第八十四 42
簡稱 42
臺中 42
視@@ 42
解任 42
評定 42
試用期 42
誤信 42
資遣者 42
這些 42
週休 42
霞 42
鬚髮 42
185 41
58@@ 41
69@@ 41
88@@ 41
L 41
h@@ 41
作業員 41
傳真 41
債 41
分院 41
劉美@@ 41
去年 41
商議 41
型態 41
基@@ 41
提高 41
曜 41
本會 41
材 41
根據 41
機臺 41
檢附 41
爰@@ 41
獎 41
玉 41
王世@@ 41
生育 41
疑問 41
矛盾 41
破壞 41
碼 41
第227 41
第47 41
締結 41
自負額 41
花 41
花@@ 41
莊 41
裝 41
解職 41
詳如 41
超@@ 41
造@@ 41
開事 41
闖 41
院@@ 41
零用金 41
ꆼ 41
 41
176 40
an@@ 40
b@@ 40
k 40
久@@ 40
乙次 40
佣金 40
保證書 40
公所 40
出去 40
分數 40
列原 40
創@@ 40
勞上易字 40
勞訴 40
各月份 40
合作社 40
址 40
坤@@ 40
執照 40
大學 40
妻 40
宋@@ 40
宣佈 40
工業 40
惟依 40
抑或 40
抵@@ 40
攸關 40
明天 40
普 40
有據 40
檢察署 40
款@@ 40
求權 40
法條 40
涉嫌 40
畫面 40
發揮 40
私下 40
第00@@ 40
第42 40
第96 40
第9@@ 40
第十五 40
考慮 40
股@@ 40
臺泥 40
萬0@@ 40
處服 40
解決 40
解約 40
認識 40
趙@@ 40
遠@@ 40
遭受 40
關 40
須屬 40
顯有 40
138 39
1400 39
182 39
183 39
188 39
350 39
43@@ 39
510 39
560 39
59@@ 39
666 39
G@@ 39
×2 39
「被保險人 39
之內 39
二十五 39
佔 39
先@@ 39
出院 39
分析 39
加班@@ 39
勞訴字 39
北區 39
合致 39
同僚 39
喪 39
圖@@ 39
境外 39
壬○○ 39
專@@ 39
延@@ 39
復未 39
恩@@ 39
恩惠 39
慢 39
換@@ 39
撞 39
教 39
教@@ 39
本文 39
林口 39
檢視 39
欽 39
歌 39
正義 39
求償 39
泰@@ 39
消費 39
火@@ 39
無從遽 39
然原 39
營業額 39
理事 39
生產線 39
畇 39
目條列 39
租賃 39
稽查 39
空言 39
第1017 39
第12@@ 39
第92 39
第五十三 39
第四百八十七 39
約定者 39
總數 39
義務人 39
處罰 39
補助費 39
要約 39
覆@@ 39
覈計 39
解聘 39
訓 39
貨物 39
超 39
遺失 39
那天 39
防@@ 39
阿 39
陸續 39
領者 39
飛安 39
146 38
6年 38
84年 38
I 38
k@@ 38
~ 38
但書 38
例外 38
保養 38
修改 38
倪@@ 38
元」 38
充@@ 38
全日 38
制度者 38
勞動契 38
印尼 38
原定 38
右 38
吃 38
合約書 38
寡 38
展 38
張育@@ 38
扣款 38
指稱 38
故上訴人 38
故此 38
教職員工 38
李文@@ 38
森 38
款「 38
決系 38
海外 38
深@@ 38
清潔隊 38
漢 38
爲目 38
班長 38
男 38
留任 38
短期性 38
石@@ 38
祐@@ 38
私校 38
穎@@ 38
第57 38
第5@@ 38
第95 38
簽到簿 38
統@@ 38
總共 38
至明 38
舞弊 38
若@@ 38
衛@@ 38
該筆 38
費用額 38
跟@@ 38
辭@@ 38
通知單 38
醫@@ 38
金庫 38
開行 38
附帶 38
電視 38
領有 38
餘額 38
108 37
292 37
394 37
576 37
580 37
DM 37
Q@@ 37
c 37
c@@ 37
m@@ 37
ro@@ 37
」系 37
主間 37
九十一 37
二十四日 37
保單 37
假期 37
全數 37
出勤卡 37
出生 37
出資 37
判決書 37
剛 37
勉勵 37
勞工@@ 37
勤務 37
取@@ 37
喪葬 37
園 37
執此 37
壬○○@@ 37
外面 37
大致 37
妥 37
學說 37
封 37
尚@@ 37
年限 37
引起 37
影@@ 37
性@@ 37
承接 37
整理 37
早班 37
更爲 37
有人 37
材料 37
板勞 37
測試 37
病@@ 37
百分之六十者 37
睿@@ 37
究竟 37
空 37
第153 37
第40 37
第917 37
籍 37
紀念 37
約款 37
紅燈 37
經合法 37
網 37
自無一一 37
英@@ 37
蓉 37
複@@ 37
資」 37
辛○○ 37
辛○○@@ 37
遑論 37
釋@@ 37
重在 37
錯@@ 37
開車 37
陸@@ 37
離職原 37
面臨 37
項次 37
順@@ 37
飛行 37
駛@@ 37
點半 37
115 36
224 36
267 36
456 36
650 36
833 36
875 36
P 36
一旦 36
乙職 36
任人 36
住處 36
修訂 36
儲蓄 36
公會 36
兼職 36
再@@ 36
函示 36
函覆 36
功@@ 36
十六 36
半發 36
可佐 36
同條 36
售 36
單影本 36
國內 36
境 36
壓@@ 36
完整 36
客運 36
就診 36
年薪 36
復工 36
徵@@ 36
忠實 36
快 36
思@@ 36
怡@@ 36
恐嚇 36
情形者 36
意志 36
承受 36
指明 36
按@@ 36
授 36
推知 36
推算 36
搬 36
撰寫 36
日報表 36
早退 36
東 36
架 36
業者 36
檢討 36
毀損 36
永 36
江 36
油資 36
洵@@ 36
然依 36
然其 36
爭切 36
爲什 36
獎金」 36
生合法 36
生終止 36
痛苦 36
百分之6 36
確@@ 36
票@@ 36
租金 36
程@@ 36
端午節 36
第129 36
第51 36
統計 36
網頁 36
縱然 36
罪 36
翔@@ 36
職責 36
自身 36
處長 36
裕 36
親@@ 36
認事 36
說@@ 36
證照 36
警衛 36
變化 36
轉換 36
轉調 36
返 36
追繳 36
送貨 36
遺基數 36
配置 36
鑫@@ 36
離職員工 36
難爲 36
面@@ 36
！ 36
-@@ 35
134 35
136 35
14萬 35
200@@ 35
220 35
er@@ 35
上海 35
主事 35
人爲 35
付額 35
停職 35
優先 35
公平者 35
共識 35
出發 35
加工 35
勾選 35
北府 35
卡@@ 35
反@@ 35
吉@@ 35
土地 35
城@@ 35
培訓 35
客@@ 35
小數點 35
師 35
往往 35
應屬 35
抽@@ 35
施工 35
書寫 35
末@@ 35
本質 35
歷年 35
毛@@ 35
洵非 35
漏 35
無意願 35
無需 35
獲利 35
瑄 35
用人 35
由此 35
私自 35
立場 35
符「 35
第6@@ 35
第88 35
管理@@ 35
管理員 35
紀錄表 35
結@@ 35
經本院 35
自當 35
至多 35
裁撤 35
補休 35
訴訟標 35
該員 35
諮詢 35
資明 35
資源 35
質 35
進一步 35
運送 35
遞@@ 35
那個 35
里程 35
鐵@@ 35
隱@@ 35
頭@@ 35
顧 35
顧及 35
顧客 35
0000000 34
11萬 34
123 34
144 34
145 34
149 34
16萬 34
221 34
351 34
375 34
380 34
656 34
670 34
760 34
on@@ 34
v@@ 34
主體 34
人事@@ 34
人民 34
以致 34
伙食費 34
假事 34
傷勢 34
儲@@ 34
元＋ 34
其訴 34
別人 34
勞務@@ 34
匯@@ 34
只能 34
司 34
啊 34
單方面 34
堪以 34
娛樂 34
學習 34
宗 34
宥@@ 34
審判 34
專櫃 34
少@@ 34
就醫 34
工資者 34
廢止 34
惠 34
感 34
截@@ 34
房 34
拘束@@ 34
拿@@ 34
接觸 34
控管 34
損壞 34
撥@@ 34
數點 34
施@@ 34
景@@ 34
智 34
模 34
此節 34
添 34
然被 34
產業 34
當面 34
盤 34
直至 34
知@@ 34
稽@@ 34
第148 34
第19@@ 34
第46 34
第60 34
第62 34
第68 34
約@@ 34
素@@ 34
號碼 34
融@@ 34
行動 34
衝@@ 34
設施 34
購物 34
走@@ 34
輪值 34
通念 34
道@@ 34
針 34
須@@ 34
颱風 34
駕駛@@ 34
鴻 34
00000000 33
000×@@ 33
047 33
203 33
340 33
420 33
6000 33
672 33
908 33
E 33
di@@ 33
er 33
÷2 33
久任 33
二十二日 33
五十五 33
修理 33
停車 33
傳票 33
儀@@ 33
免@@ 33
八十 33
其間 33
凌 33
務@@ 33
勸導 33
各類 33
回報 33
型@@ 33
基益 33
堪予 33
士@@ 33
外包 33
大」 33
契約書 33
好@@ 33
如同 33
孫@@ 33
容@@ 33
展@@ 33
建 33
彈性 33
彰 33
役 33
所有權 33
技術股 33
抗 33
推論 33
損@@ 33
改組 33
方向 33
旨在 33
暫@@ 33
曆 33
更行 33
會議室 33
月發 33
服務費 33
末查 33
某@@ 33
檢驗 33
櫃 33
步@@ 33
毫無 33
決策 33
油 33
法代 33
減省 33
燕 33
珮@@ 33
琪 33
稱@@ 33
第82 33
簽定 33
縣 33
聖@@ 33
聘任 33
蓋章 33
薇 33
號函 33
被告固 33
評比 33
評覈 33
該車 33
談話 33
諭知 33
買賣 33
資遣@@ 33
賢 33
車子 33
輪 33
輪休 33
退職金 33
邊 33
釐清 33
靜@@ 33
非常 33
養 33
麥@@ 33
／ 33
080 32
13萬 32
151 32
207 32
215 32
256 32
460 32
55@@ 32
LINE 32
○○○○@@ 32
丁 32
並計 32
事業主 32
代辦 32
份@@ 32
依月 32
健保費 32
優於 32
公報 32
其目 32
凱 32
列舉 32
判力 32
勞保費 32
十七 32
十三日 32
反覆 32
合格 32
單獨 32
四十五 32
國庫 32
國民 32
報酬額 32
外國 32
奶@@ 32
婉@@ 32
官@@ 32
客訴 32
宣@@ 32
密碼 32
少報 32
屢 32
工人 32
年滿 32
引擎 32
後者 32
恣意 32
批@@ 32
更何況 32
本件系 32
本法所定 32
案@@ 32
案場 32
歷@@ 32
況上訴人 32
法理 32
津貼@@ 32
物料 32
甲@@ 32
症狀 32
監@@ 32
確係 32
科@@ 32
稅額 32
穎 32
突然 32
第179 32
第280 32
第87 32
第98 32
第一@@ 32
第十八 32
簿 32
維@@ 32
老@@ 32
致生 32
行爲人 32
製程 32
該函 32
貞 32
超出 32
路口 32
身@@ 32
車門 32
退休@@ 32
鈞@@ 32
鋼@@ 32
長庚 32
開「 32
關節 32
陳清@@ 32
隆 32
隨 32
隨意 32
領到 32
領班 32
馬 32
駕車 32
２ 32
020 31
131 31
168 31
205 31
230 31
304 31
540 31
64@@ 31
68@@ 31
76年 31
980 31
f@@ 31
一部分 31
亂 31
亮 31
低@@ 31
何種 31
依約 31
信件 31
信任 31
共@@ 31
出貨 31
刑 31
勳 31
區@@ 31
即謂 31
增 31
壹 31
壹@@ 31
太太 31
女性 31
官 31
實習 31
尊重 31
就要 31
工作量 31
幣@@ 31
待@@ 31
承辦 31
探求 31
提存 31
損耗 31
改稱 31
日÷ 31
有爲 31
板@@ 31
死亡者 31
每人 31
涉@@ 31
準@@ 31
潛力 31
無異 31
然上 31
營業所 31
特約 31
理財 31
當下 31
登記表 31
相處 31
立法院 31
第126 31
等@@ 31
節金 31
系採 31
繼承 31
義務者 31
考@@ 31
良好 31
規避 31
評議 31
認原 31
講@@ 31
議定之 31
護@@ 31
讓@@ 31
財 31
貨單 31
質疑 31
軒 31
遵循 31
選@@ 31
鄧@@ 31
長官 31
非謂 31
駐外 31
駕 31
鬆 31
魏@@ 31
 31
009 30
152 30
156 30
201@@ 30
225 30
260 30
268 30
54@@ 30
630 30
728 30
970 30
; 30
G 30
X@@ 30
ac@@ 30
le@@ 30
「依 30
一半 30
一時 30
乙事 30
五千 30
享@@ 30
代墊 30
仲@@ 30
件@@ 30
供@@ 30
依僱 30
假」 30
健保局 30
僱」 30
元計 30
公文 30
具狀 30
冒@@ 30
函意旨 30
刪除 30
劉玉@@ 30
右@@ 30
哥 30
哲 30
商譽 30
嚴格 30
導@@ 30
層 30
山@@ 30
常態 30
幹 30
彌補 30
志 30
成就 30
戶籍 30
控@@ 30
揭勞 30
擴大 30
攝 30
日本 30
晉@@ 30
服役 30
棟 30
椅 30
極 30
標@@ 30
樹林 30
歧視 30
沉默 30
油料 30
法益 30
法目 30
清舊制 30
無違 30
申請表 30
登@@ 30
直@@ 30
省 30
第101 30
第44 30
第77 30
總和 30
美金 30
聚@@ 30
職單 30
自然 30
臺南 30
舉動 30
航空 30
萬0 30
落實 30
衆 30
被告於 30
解卷 30
語言 30
調劑 30
請問 30
諸@@ 30
證物 30
貸 30
退撫 30
逕自 30
適合 30
遲@@ 30
遺@@ 30
釋 30
門@@ 30
開門 30
陳明@@ 30
離職書 30
難期 30
非必發 30
非有據 30
靠 30
顧@@ 30
駛 30
３ 30
024 29
143 29
212 29
216 29
255 29
290 29
5時 29
620 29
81年 29
J@@ 29
at@@ 29
p 29
⑤ 29
一審 29
上級 29
互@@ 29
交通費 29
付予 29
代替 29
何事 29
依然 29
保免 29
倉@@ 29
傷@@ 29
具文 29
再度 29
判 29
勁@@ 29
包裝 29
千@@ 29
反之 29
名片 29
告誡 29
命令權 29
唯 29
善@@ 29
國稅局 29
如數 29
娜 29
婧@@ 29
定「 29
定事 29
審定 29
專門 29
巡@@ 29
巧@@ 29
帳號 29
強@@ 29
彎@@ 29
彼此 29
應予 29
手鐲 29
承 29
投訴 29
拘泥 29
排休 29
探@@ 29
提醒 29
揚 29
揚@@ 29
放在 29
政 29
故依 29
日言詞 29
易 29
星期六 29
時速 29
曠職@@ 29
最@@ 29
朗 29
林詩@@ 29
核予 29
梅 29
楊 29
檢署 29
氣@@ 29
況勞工 29
洪志誠 29
洲 29
清理 29
照常 29
熟悉 29
燃料 29
爲有據 29
物@@ 29
瑛 29
疑義 29
登錄 29
祕書 29
積@@ 29
立法目 29
第197 29
第52 29
第63 29
節約 29
米 29
結案 29
總裁 29
花費 29
計」 29
該院 29
課程 29
調薪 29
證人@@ 29
豐@@ 29
貨車 29
資深 29
超速 29
辯解 29
迭 29
通動 29
速@@ 29
進去 29
進用 29
道歉 29
還要 29
開函 29
除非 29
陳正@@ 29
食@@ 29
 29
08 28
0元 28
117 28
118 28
126 28
137 28
142 28
1份 28
222 28
233 28
276 28
297 28
398 28
417 28
583 28
5年 28
733 28
744 28
78@@ 28
793 28
Ch@@ 28
line 28
oo@@ 28
」勞 28
一百零@@ 28
之下 28
亦@@ 28
人資 28
代表人 28
估@@ 28
侮辱者 28
保聲 28
俾 28
倘若 28
僱事 28
僱方 28
勾@@ 28
十二@@ 28
升@@ 28
取代 28
各法 28
合夥人 28
名譽權 28
告假 28
地主 28
外務 28
外籍 28
外部 28
始足當之 28
子○○ 28
孫 28
實際@@ 28
就@@ 28
峻 28
帶@@ 28
庚○○@@ 28
延宕 28
弘 28
形@@ 28
得免 28
忘記 28
情緒 28
愛@@ 28
懲罰 28
懷 28
戒 28
抵達 28
招@@ 28
指導 28
排班表 28
推廣 28
收款 28
故而 28
教師 28
標準@@ 28
汪@@ 28
沈@@ 28
派@@ 28
消@@ 28
清算 28
湯@@ 28
爲主 28
爲準 28
片 28
用以 28
疏忽 28
病人 28
百@@ 28
督@@ 28
秦@@ 28
稱之其他 28
第2630 28
第56 28
第740 28
第三@@ 28
第第 28
等情 28
素 28
統計表 28
聘@@ 28
舉@@ 28
萊@@ 28
落 28
藍@@ 28
藥局 28
虛@@ 28
表影 28
表格 28
被告應 28
補償金 28
製@@ 28
覈定之 28
觀諸 28
託 28
詐領 28
評分 28
該月份 28
該款 28
警 28
警察局 28
輪班 28
述「 28
部@@ 28
醫藥費 28
釋明 28
鈞 28
陳冠@@ 28
陳報 28
隔@@ 28
非正當 28
馬上 28
駕駛人 28
騎@@ 28
高低 28
｝ 28
05 27
119 27
11時 27
1500 27
172 27
174 27
17萬 27
282 27
330 27
372 27
430 27
475 27
625 27
756 27
830 27
K 27
MA@@ 27
w@@ 27
y 27
‧‧ 27
「月 27
丁@@ 27
三字 27
上網 27
交予 27
介紹 27
來@@ 27
保全員 27
做」 27
停車場 27
備查 27
債權@@ 27
前者 27
勞資字 27
化@@ 27
匯入 27
半日 27
即將 27
卿 27
名下 27
單」 27
圓 27
在@@ 27
報告書 27
壓 27
審判決 27
州@@ 27
工務所 27
市@@ 27
年期 27
座@@ 27
彥 27
後段 27
悅 27
成員 27
成年 27
承擔 27
投 27
投保@@ 27
掛@@ 27
掬@@ 27
提列 27
教職員 27
整個 27
有理 27
朋友 27
本國 27
樺 27
此舉 27
比@@ 27
派員 27
深圳 27
準法 27
溯 27
滿@@ 27
無可採 27
然該 27
父母 27
牙@@ 27
發函 27
發明 27
盟 27
盡@@ 27
相反 27
知識 27
神差 27
禮拜 27
私 27
竹@@ 27
第25564 27
第94 27
答應 27
粉@@ 27
系屬 27
絕 27
網@@ 27
總時 27
總表 27
繪圖 27
罹 27
美華 27
色 27
薪資袋 27
行政@@ 27
衡諸 27
被告聲 27
計算表 27
註明 27
該局 27
負債務 27
財團 27
貨品 27
資表 27
逾@@ 27
遑 27
遽@@ 27
配 27
錄取 27
鎖 27
開情詞 27
附合 27
隔日 27
雅 27
雜@@ 27
靜 27
面談 27
顯無 27
餐 27
騎 27
@@ 27
.... 26
050 26
0年 26
112 26
121 26
12時 26
163 26
213 26
245 26
254 26
27萬 26
313 26
315 26
348 26
60％ 26
652 26
7000 26
738 26
775 26
7點 26
80年 26
820 26
N 26
ar@@ 26
in@@ 26
n 26
×資 26
○○○ 26
○○○@@ 26
」觀 26
下去 26
下方 26
丙○○○@@ 26
事務@@ 26
五百 26
企@@ 26
作證 26
依上訴人 26
便利 26
借調 26
偏頗 26
健@@ 26
備勤 26
公車 26
其月 26
出售 26
判@@ 26
剩餘 26
去@@ 26
參見本院 26
善 26
單一 26
回到 26
因故 26
土@@ 26
垃圾 26
基準法所 26
增@@ 26
壽險 26
大幅 26
大部分 26
女兒 26
好像 26
尊嚴 26
師傅 26
平時 26
幼稚園 26
廠@@ 26
慈 26
憂鬱症 26
應證 26
折@@ 26
撤@@ 26
據@@ 26
日班 26
未洽 26
林美@@ 26
查獲 26
根@@ 26
樣 26
檳榔 26
正當性 26
水果 26
海 26
涵 26
減輕 26
源@@ 26
準確 26
火 26
珠 26
理論 26
益徵 26
神經 26
私法 26
第09@@ 26
第328433 26
第65 26
第93 26
第三十一 26
節本 26
簡字 26
簽@@ 26
粗@@ 26
經歷 26
總醫院 26
缺勤 26
肆 26
自堪 26
自承@@ 26
自民國 26
菁 26
藝 26
藥物 26
蘆@@ 26
覈@@ 26
觀@@ 26
計劃表 26
計酬者 26
記錄表 26
訟 26
訪談 26
評量 26
調升 26
談@@ 26
貴@@ 26
費@@ 26
資予 26
賠償@@ 26
賴 26
途 26
通知@@ 26
運 26
鈞院 26
開存證 26
開終 26
陳俊@@ 26
雙 26
離職金 26
鞋@@ 26
順 26
飛機 26
．．． 26
0日 25
190 25
194 25
196 25
204 25
206 25
217 25
264 25
30000 25
308 25
412 25
5％ 25
748 25
7時 25
818 25
892 25
S 25
U@@ 25
m 25
「有 25
「解僱 25
上訴人@@ 25
上開 25
下滑 25
中旬 25
交還 25
作成 25
倉儲 25
倉庫 25
偟 25
傅@@ 25
內者 25
八十四 25
公示 25
制訂 25
功績 25
勸@@ 25
協@@ 25
口角 25
品管 25
善良 25
國外 25
堅持 25
壞 25
多久 25
大聲 25
套 25
女 25
如期 25
宴 25
對待 25
屬@@ 25
帳單 25
年內 25
引用 25
得出 25
得到 25
恐 25
成果 25
我@@ 25
或者 25
扶養 25
掛號 25
敢 25
散@@ 25
旅客 25
星期日 25
時性 25
曠 25
核均 25
欄@@ 25
欄位 25
權利人 25
欠@@ 25
款單 25
此情形 25
武@@ 25
歸 25
殊 25
港 25
漏@@ 25
無條件 25
爭取 25
爲證 25
特性 25
獨資 25
獵@@ 25
現實 25
甚@@ 25
產假 25
甲○○之@@ 25
痛 25
發動 25
百分之二十 25
看護 25
秉@@ 25
立端 25
第1979號 25
第2624 25
第45 25
第61 25
第三十六 25
第五十@@ 25
第四百@@ 25
策略 25
管理人 25
簽到 25
納 25
索 25
經手 25
緊縮」 25
翌月 25
考勤 25
聲請人 25
股利 25
股息 25
膝 25
苟 25
茲@@ 25
莞 25
處以 25
虹 25
衍生 25
衡 25
衣@@ 25
裁定 25
補償者 25
要素 25
見@@ 25
託@@ 25
語置辯 25
讀 25
責@@ 25
軟體@@ 25
辱 25
追@@ 25
逐年 25
運輸 25
遲至 25
那時 25
量@@ 25
鋒@@ 25
限@@ 25
陳穎@@ 25
階 25
頂@@ 25
顯已 25
養@@ 25
香港 25
駿@@ 25
麟 25
067 24
122 24
135 24
155 24
192 24
198 24
199 24
288 24
335 24
590 24
77@@ 24
82年 24
9時 24
et@@ 24
一定目 24
乏 24
乙紙 24
事務所 24
代金 24
例@@ 24
依上 24
依舉 24
俐@@ 24
信箱 24
像 24
八十五 24
切@@ 24
刑法 24
剋扣 24
右側 24
吃飯 24
員@@ 24
唯@@ 24
大衆 24
子○○@@ 24
字號 24
安全@@ 24
安裝 24
寬 24
專長 24
小月 24
尾牙 24
工時@@ 24
幾乎 24
廁所 24
廠區 24
張其@@ 24
彩@@ 24
後述 24
必@@ 24
技 24
投保勞 24
抵充 24
招生 24
指揮性 24
擬訂 24
旺 24
更正 24
有期徒刑 24
未必 24
校@@ 24
構@@ 24
樑@@ 24
每位 24
比率 24
汽@@ 24
治@@ 24
洽談 24
淑芬 24
滋@@ 24
激勵 24
無意 24
無礙 24
瑜 24
環 24
生產@@ 24
由此可知 24
甲○○得 24
發文 24
知情 24
秒 24
第116 24
第17@@ 24
第30@@ 24
第67 24
第三十九 24
等待 24
節目 24
編@@ 24
缺乏 24
聯合 24
聲@@ 24
聲譽 24
茗@@ 24
蘇庭輝 24
處置 24
術 24
裁量權 24
裝置 24
規模 24
訂明 24
訂購 24
計劃性 24
計程車 24
該條 24
說是 24
讓步 24
貼@@ 24
載@@ 24
載「 24
輪班制 24
退步言之 24
過年 24
酒@@ 24
醫囑 24
銷售額 24
鎖@@ 24
開薪 24
附設 24
隨@@ 24
雜 24
領資 24
食指 24
$ 23
03 23
128 23
153 23
164 23
170 23
17280 23
186 23
191 23
193 23
195 23
270 23
274 23
299 23
310 23
32000 23
352 23
370 23
538 23
584 23
801 23
8年 23
903 23
is@@ 23
○○於 23
「現 23
」乘 23
一千 23
一致者 23
下降 23
主照 23
之前提 23
乙○○於 23
九十二 23
五十萬 23
交辦 23
今年 23
依公 23
依前揭 23
信原 23
倒@@ 23
償@@ 23
元×1 23
公款 23
兼括 23
利益者 23
刺激 23
前方 23
創作性 23
勞保@@ 23
勞動字 23
午@@ 23
可能性 23
各期 23
哨 23
商定 23
坦承 23
執陳詞 23
基 23
堪@@ 23
場@@ 23
填具 23
夠 23
大月 23
寄送 23
密切 23
審究者 23
就職 23
巡航 23
差旅 23
常務 23
張貼 23
德國 23
恆@@ 23
應依 23
扣薪@@ 23
抑@@ 23
折算 23
拍@@ 23
控 23
擬定 23
收件 23
改制 23
改派 23
教學 23
斯@@ 23
新增 23
新約 23
日者 23
日薪1 23
日誌 23
月休 23
楊士@@ 23
池 23
洪琇瑩 23
減半 23
溥天 23
無奈 23
無從依 23
然證人 23
玩 23
班車 23
現象 23
甄@@ 23
疏@@ 23
登記@@ 23
盈 23
監事 23
相違 23
福@@ 23
秋@@ 23
空白 23
競爭力 23
第100 23
第102 23
第463 23
第64 23
第74 23
第8@@ 23
第97 23
第三十 23
第十@@ 23
經驗法 23
罪嫌 23
考勤表 23
自陳 23
蒙受 23
被告業 23
裂 23
設@@ 23
詢 23
謄本 23
變形 23
財政部 23
資訊@@ 23
趕工 23
跳@@ 23
輪流 23
轉交 23
通勤 23
週一 23
選任 23
選擇者 23
重量 23
門口 23
陷於 23
隱私 23
非但 23
韌帶 23
預付者 23
額外 23
驗@@ 23
154 22
187 22
201 22
25萬 22
2年 22
418 22
512 22
604 22
635 22
648 22
660 22
T 22
g 22
si@@ 22
‧ 22
「情 22
一級 22
三十五 22
主張其@@ 22
人本 22
位@@ 22
侮辱」 22
償還 22
優惠 22
全然 22
公平合理 22
兼@@ 22
列印 22
列計 22
動機 22
區別 22
協會 22
即明 22
卷足 22
受理 22
向上 22
含@@ 22
固定者 22
園@@ 22
失者 22
始足 22
宇@@ 22
宗@@ 22
定於 22
對應 22
帳冊 22
年底 22
年臺 22
庫存 22
彎 22
得謂 22
忠@@ 22
怕 22
惡性 22
憑@@ 22
應涵 22
所得@@ 22
拍 22
接洽 22
推翻 22
撕@@ 22
據點 22
改列 22
文理 22
明「 22
明訂 22
暴 22
更新 22
書影 22
有些 22
有待 22
服裝 22
李嘉@@ 22
核決 22
格@@ 22
模@@ 22
樣品 22
步 22
毆打 22
母 22
法解僱 22
洗 22
洲@@ 22
清洗 22
無所謂 22
然上訴人 22
然因 22
牀 22
犯罪 22
留存 22
監察 22
監視性 22
稅@@ 22
稅捐 22
稿 22
立法者 22
笑 22
第105 22
第24@@ 22
第255 22
第347 22
第91 22
第五十五 22
筆跡 22
節重 22
終止日 22
經費 22
經銷商 22
翰 22
考覈表 22
自行@@ 22
草@@ 22
葦 22
薪」 22
薪制 22
處@@ 22
裁決 22
製 22
要@@ 22
訂貨 22
評@@ 22
試 22
詳述 22
認對 22
調解@@ 22
護照 22
豪@@ 22
財@@ 22
資遺費 22
賜 22
載運 22
輕微 22
返還者 22
那裏 22
關聯 22
離去 22
順序 22
預告者 22
骨@@ 22
黃美@@ 22
｛ 22
124 21
127 21
130@@ 21
169 21
179 21
197 21
228 21
235 21
248 21
272 21
287 21
307 21
332 21
401 21
404 21
467 21
535 21
608 21
626 21
710 21
882 21
930 21
935 21
9點 21
H 21
「勞 21
下屬 21
丙○○於 21
並非@@ 21
主」 21
事業羣 21
付出 21
件者 21
依第 21
做@@ 21
停留 21
停管 21
公尺 21
別@@ 21
前面 21
勝@@ 21
勞健保 21
勞動者 21
勤加 21
各級 21
吉 21
告確 21
品保 21
啓@@ 21
四周 21
國光 21
報導 21
報警 21
好幾 21
妥@@ 21
妮 21
媽 21
宿舍 21
密 21
密@@ 21
實業 21
寫@@ 21
尋 21
尚乏 21
屢次 21
差@@ 21
常理 21
底@@ 21
建立 21
引@@ 21
必要者 21
急診 21
恩 21
息 21
惡@@ 21
惡劣 21
感受 21
折舊 21
押 21
損及 21
搭@@ 21
播 21
播@@ 21
旁 21
旋 21
族 21
日常居 21
會計師 21
期者 21
林淑@@ 21
此時 21
民衆 21
法有據 21
淡@@ 21
混@@ 21
潔 21
然觀 21
爭吵 21
爾@@ 21
牴觸 21
環@@ 21
生存 21
生理 21
畫 21
瘤 21
皇 21
盈@@ 21
監視器 21
直到 21
眼@@ 21
碩@@ 21
磅 21
秀 21
稱月 21
空間 21
第106 21
第107 21
第109 21
第111 21
第117 21
第18@@ 21
第293 21
第66 21
第75 21
第80 21
第81 21
第五十四 21
節省 21
籤核 21
紀@@ 21
終@@ 21
組@@ 21
編 21
總務 21
纜 21
置辯 21
羣 21
義務@@ 21
老人 21
聽@@ 21
自主 21
臺灣省 21
芸 21
葡@@ 21
薪津 21
表單 21
表意 21
被告補 21
裕@@ 21
襄理 21
西 21
討 21
該當 21
謝 21
證明單 21
責任制 21
貶損 21
購@@ 21
載客 21
輕@@ 21
農會 21
週日 21
那邊 21
里@@ 21
鑑@@ 21
開關 21
關閉 21
院所 21
離@@ 21
音 21
額度 21
高度 21
黃建@@ 21
黃志@@ 21
黃麗@@ 21
黎@@ 21
鼓勵 21
齊 21
齒 21
４ 21
00000000@@ 20
02 20
11年 20
157 20
161 20
173 20
22萬 20
253 20
275 20
353 20
405 20
413 20
556 20
596 20
60萬 20
6時 20
752 20
762 20
792 20
7年 20
857 20
933 20
950 20
977 20
NT 20
R 20
le 20
w 20
×6 20
」民法 20
一方面 20
三萬 20
上司 20
中央政府 20
主張者 20
乙○○得 20
乾@@ 20
事變 20
五萬 20
仲介 20
件數 20
伸 20
依上所述 20
保持 20
倉管 20
倒 20
僱者 20
公物 20
其實 20
冊 20
凌晨 20
出入 20
分類 20
判決@@ 20
利害 20
功能 20
助@@ 20
勘驗 20
勞退@@ 20
吸菸 20
囑@@ 20
困擾 20
圓@@ 20
基本上 20
塑膠廠 20
夏 20
大過 20
天災 20
夫 20
失職 20
寄發 20
尤 20
局@@ 20
居 20
工資@@ 20
年利率 20
弄 20
往@@ 20
徐國@@ 20
徵才 20
怪 20
惟據 20
惟辯 20
慎 20
投保薪 20
投入 20
抱怨 20
接手 20
推定 20
擬@@ 20
放假日 20
敏@@ 20
散 20
數據 20
新任 20
旁邊 20
明細@@ 20
會同 20
服務業 20
格式 20
樂@@ 20
樓@@ 20
欽@@ 20
止計 20
歷經 20
決命 20
況原告 20
測 20
湖@@ 20
無疑義 20
煥@@ 20
燈 20
燈@@ 20
猶@@ 20
獎助 20
玻璃 20
琳 20
璋 20
用品 20
用於 20
甲○○系 20
申言之 20
畢業 20
登載 20
百分@@ 20
百分之五十 20
盈虧 20
監視 20
相抵 20
短暫 20
租@@ 20
程序@@ 20
站立 20
第113 20
第21776 20
第334 20
第377 20
第三十@@ 20
紅@@ 20
紛爭 20
累 20
結婚 20
縮編 20
縱令 20
美珍 20
習 20
聊天 20
聲明書 20
職」 20
脫@@ 20
至爲 20
菜 20
薪資系 20
虛 20
街 20
裁員 20
補正 20
複查 20
討@@ 20
認均 20
調離 20
諸多 20
證明@@ 20
責任者 20
資本 20
起訴書 20
趨於 20
身爲 20
辭退 20
近@@ 20
追 20
這@@ 20
遺費 20
遽謂 20
鄉 20
重物 20
銷@@ 20
鑑 20
開具 20
閱@@ 20
院區 20
除去 20
雙@@ 20
雪 20
雯 20
非對話 20
預算 20
領受 20
頭部 20
頻繁 20
風@@ 20
馬偕 20
黏 20
001 19
01 19
030 19
048 19
060 19
063 19
11點 19
165 19
19萬 19
208 19
229 19
252 19
34萬 19
363 19
391 19
3年 19
433 19
481 19
542 19
634 19
643 19
783 19
808 19
867 19
868 19
889 19
9000 19
901 19
988 19
ea@@ 19
ec@@ 19
」事 19
一點 19
上揭 19
乎 19
交換 19
以月 19
住@@ 19
依侵權 19
依勞工 19
依卷 19
俊明 19
信用卡 19
倫 19
倫@@ 19
做什 19
側@@ 19
傑@@ 19
催@@ 19
僑@@ 19
內勤 19
兵@@ 19
兼具 19
冷@@ 19
分子 19
分母 19
分派 19
副@@ 19
割@@ 19
加重 19
勞動基 19
勞動節 19
勤卡 19
勿 19
十八 19
博 19
卷可證 19
受有 19
各情 19
名單 19
呈現 19
喪假 19
嗣經 19
回函 19
堅@@ 19
報告表 19
報帳 19
塑膠 19
塗@@ 19
多年 19
孟@@ 19
守@@ 19
定型化 19
寬@@ 19
尤其 19
工作」 19
市○○區○○@@ 19
師@@ 19
帳目 19
常見 19
延誤 19
弟 19
強迫 19
彬 19
心神 19
忙 19
急@@ 19
性騷擾 19
慰留 19
懂 19
懲@@ 19
成功 19
戴 19
戶@@ 19
承攬人 19
振 19
捷 19
接單 19
損益 19
搭乘 19
擔 19
改任 19
政富 19
敲 19
新光 19
新興 19
日換算 19
旺@@ 19
星期一 19
昱@@ 19
曠職論 19
未果 19
末日 19
李秀@@ 19
核心 19
業務部 19
機場 19
權責 19
毀 19
況依 19
注 19
測@@ 19
滿足 19
班費 19
生意 19
申 19
疾病者 19
監察人 19
祥@@ 19
禮@@ 19
穩定 19
符勞 19
第15@@ 19
第25@@ 19
第263 19
第99 19
管制@@ 19
簽呈 19
索取 19
終極 19
縮小 19
置於 19
考試 19
聰@@ 19
職掌 19
腰 19
臨訟 19
自由@@ 19
自認@@ 19
舉辦 19
蓋@@ 19
蔡文@@ 19
裁判費 19
規格 19
覓 19
言之 19
訊問 19
評爲 19
評語 19
誕辰 19
誠@@ 19
護 19
責任@@ 19
趕@@ 19
足資 19
跨越 19
身分證 19
輔@@ 19
輛 19
逐 19
逐日 19
週五 19
邱正@@ 19
量權 19
鈺@@ 19
銷售量 19
錄@@ 19
集 19
離職云云 19
難免 19
雨 19
非得 19
領薪 19
頻率 19
餉 19
148 18
171 18
175 18
209 18
244 18
24萬 18
25000 18
258 18
263 18
285 18
28萬 18
316 18
339 18
346 18
397 18
406 18
466 18
470 18
506 18
528 18
530 18
532 18
613 18
628 18
646 18
66@@ 18
702 18
703 18
740 18
767 18
76@@ 18
770 18
784 18
831 18
LINE對話 18
Z@@ 18
on 18
「年 18
「確 18
上年 18
下車 18
中華 18
二三 18
任免 18
位於 18
住院者 18
作出 18
作息時間 18
依附 18
保證人 18
停車@@ 18
催 18
僱傭@@ 18
僱日 18
僱用人 18
償 18
元力 18
入帳 18
公告@@ 18
公斤 18
公積金 18
具「 18
出勤@@ 18
出血 18
出面 18
列於 18
別有規定 18
利潤 18
剔除 18
劃 18
劃@@ 18
加油@@ 18
努力 18
包商 18
十萬 18
卓@@ 18
原告會 18
古@@ 18
可是 18
哲@@ 18
售@@ 18
唯一 18
啦 18
喇@@ 18
圍@@ 18
執業 18
基隆 18
堯 18
填@@ 18
壓力 18
士氣 18
契 18
女@@ 18
妹 18
始日 18
始有 18
嫺 18
季@@ 18
完備 18
害 18
審言詞 18
少數 18
工程@@ 18
常常 18
幸@@ 18
府 18
庸@@ 18
忽視 18
情誼 18
感覺 18
慮 18
懲戒權 18
成交 18
成效 18
所指 18
打掃 18
批示 18
技師 18
挫傷 18
掌握 18
改調 18
攻防 18
料@@ 18
昌@@ 18
易@@ 18
是@@ 18
時常 18
智慧 18
暉 18
曉@@ 18
書立 18
最終 18
本局 18
朱@@ 18
李東@@ 18
杜@@ 18
校 18
桃 18
案例 18
業務@@ 18
極@@ 18
榮民 18
欄」 18
正常工 18
此觀 18
母親 18
水準 18
永慶 18
決定權 18
河 18
活期 18
災 18
生氣 18
生鮮 18
申領 18
界@@ 18
登記證 18
發行 18
瞭解 18
短付@@ 18
社@@ 18
神經@@ 18
移@@ 18
究@@ 18
空服員 18
第104 18
第345 18
第76 18
第三十七 18
筆@@ 18
算日 18
籍@@ 18
系謂 18
紅 18
純 18
結清者 18
絕@@ 18
絕對 18
經途 18
維 18
締約 18
緩刑 18
罰款 18
羿@@ 18
者@@ 18
舍解僱 18
舒@@ 18
芬@@ 18
苛@@ 18
蕭鳳玲 18
薪資額 18
藉故 18
處方 18
補助金 18
製品 18
記憶 18
詢@@ 18
詮 18
話@@ 18
認有 18
語氣 18
識別證 18
護士 18
賄賂 18
質@@ 18
跌倒 18
踐行 18
軍@@ 18
辰@@ 18
這邊 18
運轉 18
道德 18
違誠 18
遺存 18
酬 18
醜○○@@ 18
醫療費 18
釋示 18
重申 18
鐵 18
限定 18
院99年 18
除外 18
陸 18
階層 18
集@@ 18
雲@@ 18
音@@ 18
頁@@ 18
預爲 18
預計 18
領域 18
飛@@ 18
鳳@@ 18
麗君 18
@@ 18
Ｃ 18
003 17
158 17
1年 17
219 17
227 17
232 17
2500 17
29萬 17
301 17
302 17
319 17
325 17
326 17
328 17
387 17
403 17
414 17
47萬 17
502 17
518 17
533 17
546 17
553 17
691 17
6％ 17
72年 17
730 17
77年 17
788 17
802 17
806 17
825 17
871 17
884 17
904 17
948 17
966 17
968 17
975 17
986 17
998 17
and@@ 17
or@@ 17
─ 17
「原 17
一天 17
上班日 17
今@@ 17
他@@ 17
代收 17
休養者 17
佑 17
侵@@ 17
促@@ 17
保部 17
倉 17
個@@ 17
值勤 17
假設 17
億@@ 17
八十六 17
公然 17
凰 17
判認 17
制」 17
前任 17
加薪 17
勞動法 17
午○○ 17
叔@@ 17
受訓 17
可採 17
同類 17
吵架 17
呈報 17
周知 17
喪葬@@ 17
喬 17
因婚 17
土 17
培@@ 17
夏@@ 17
外勞 17
外勤 17
奇 17
如受 17
委@@ 17
委無足取 17
學員 17
客服 17
客運@@ 17
容許 17
察@@ 17
小孩 17
尾 17
居住 17
履@@ 17
巫@@ 17
巷@@ 17
帳務 17
康@@ 17
張永@@ 17
後面 17
從業 17
微@@ 17
忍受 17
悔@@ 17
想@@ 17
意外 17
態 17
手指 17
批 17
技術員 17
拘束力 17
拾 17
擔@@ 17
放置 17
故勞 17
教室 17
教導 17
新竹@@ 17
方得 17
旗 17
晚餐 17
最爲 17
有意 17
期望 17
林國@@ 17
查閱 17
椎間盤 17
標準者 17
機種 17
毅 17
毋庸@@ 17
汝 17
清償期 17
準免 17
準易科 17
準時 17
準駁 17
無理 17
無訛 17
然而 17
熱@@ 17
爲期 17
獲致 17
玫 17
理會 17
生產量 17
當年度 17
癸@@ 17
百分之十 17
直轄市 17
碧 17
確於 17
突出 17
竊取 17
立約 17
章@@ 17
第127 17
第167 17
第20@@ 17
管理師 17
簡 17
簽章 17
精密 17
級@@ 17
絡 17
繳費 17
繹@@ 17
罰金者 17
羈@@ 17
職員工 17
職級 17
聽聞 17
臺中@@ 17
菸@@ 17
萬7@@ 17
蔬@@ 17
薪酬 17
薪額 17
藉以 17
藤 17
處理者 17
衛生局 17
許多 17
診療 17
詐@@ 17
該案 17
調配 17
議案 17
負債 17
財物 17
資源部 17
迴避 17
追究 17
退金 17
這裏 17
進步 17
鄧 17
鈔 17
開資 17
關係者 17
闡明 17
防護 17
除夕 17
陳永@@ 17
需@@ 17
顯著 17
@@ 17
｛@@ 17
～ 17
...」 16
021 16
032 16
054 16
114 16
1200 16
129 16
18年 16
202 16
21萬 16
243 16
262 16
293 16
345 16
377 16
383 16
384 16
388 16
390 16
40萬 16
416 16
441 16
448 16
469 16
471 16
500@@ 16
504 16
525 16
545 16
563 16
575 16
597 16
629 16
632 16
639 16
668 16
725 16
735 16
73年 16
78年 16
812 16
844 16
845 16
860 16
863 16
864 16
870 16
87@@ 16
917 16
952 16
957 16
961 16
V 16
ic@@ 16
ing 16
「因 16
「稱 16
一同 16
一月份 16
上半@@ 16
不得 16
中醫 16
乃屬 16
予解 16
事發 16
交際費 16
人之@@ 16
代償 16
以往 16
佈@@ 16
保人 16
倪 16
停放 16
傳達 16
允 16
公允 16
六十五 16
刻意 16
功過 16
加油站 16
動物 16
勞動@@ 16
勢 16
十九 16
半天 16
卡單 16
卸@@ 16
原始 16
及格 16
各節 16
同一@@ 16
名字 16
吧 16
呢 16
喜@@ 16
噸 16
嚇 16
基隆@@ 16
堂 16
墊款 16
夜 16
大量 16
夫妻 16
女士 16
姑 16
學理 16
定性 16
尾@@ 16
差旅費 16
已@@ 16
幾@@ 16
廠房 16
待證 16
惟證人 16
意思者 16
慣例 16
戊○ 16
排名 16
接任 16
提告 16
撥款 16
擅 16
擾@@ 16
放款 16
故本件 16
效獎 16
敬@@ 16
施作 16
明文@@ 16
星 16
替@@ 16
服務@@ 16
朝@@ 16
李 16
林秀@@ 16
校園 16
桌 16
條項 16
模式 16
機坪 16
正在 16
此段 16
永定店 16
泛@@ 16
津貼」 16
準宣 16
潘曉嫈 16
無關@@ 16
營造 16
現場@@ 16
琮@@ 16
瑩 16
生計 16
田@@ 16
病患 16
相隔 16
真@@ 16
祇 16
祐 16
租人 16
稱爲 16
競@@ 16
第103 16
第114 16
第125 16
第134 16
第135 16
第142 16
第146 16
第14@@ 16
第193 16
第27@@ 16
第486 16
第73 16
第825 16
等等 16
紀錄@@ 16
紹@@ 16
經常性者 16
綜觀 16
緊 16
緩@@ 16
績效@@ 16
繕 16
置@@ 16
署@@ 16
羞@@ 16
羣@@ 16
羽 16
老 16
聲明@@ 16
職業@@ 16
聽說 16
肯定 16
背@@ 16
能夠 16
臉 16
自89年 16
自我 16
臺北@@ 16
莉@@ 16
落後 16
著@@ 16
虧 16
衝 16
被告尚 16
規定月 16
解僱權 16
計算」 16
記帳 16
訪@@ 16
診 16
認本 16
認購 16
請款 16
諸如 16
證據@@ 16
資系 16
贍養費 16
趕 16
車程 16
輔 16
輕重 16
轉訓 16
這種 16
逼 16
遇@@ 16
違失 16
適應 16
酌 16
醫生 16
重建 16
銷貨 16
開發部 16
間斷 16
附有 16
降級 16
陳建@@ 16
陳金@@ 16
隱匿 16
青 16
預見 16
顏@@ 16
顯難 16
食 16
高級 16
高速公路 16
高階 16
依 16
Ｐ@@ 16
000×1 15
00×@@ 15
098 15
15時 15
200萬 15
2011年 15
246 15
265 15
278 15
296 15
329 15
396 15
444 15
455 15
461 15
468 15
495 15
496 15
4時 15
511 15
521 15
524 15
53@@ 15
549 15
555 15
603 15
607 15
614 15
619 15
624 15
636 15
642 15
658 15
765 15
773 15
807 15
918 15
931 15
943 15
973 15
979 15
990 15
MS 15
W 15
en@@ 15
f 15
h 15
is 15
mail 15
ve 15
「解 15
「請 15
一一@@ 15
一經 15
丁○○於 15
上所述 15
上班@@ 15
事由@@ 15
交貨 15
交通部 15
亦可 15
任期 15
佐@@ 15
便@@ 15
保戶 15
修理@@ 15
借支 15
值班費 15
假藉 15
做出 15
價@@ 15
儀器 15
儘速 15
儲金 15
允@@ 15
允諾 15
兆@@ 15
具結 15
函詢 15
分割 15
分段 15
剩下 15
剪 15
勞動契約 15
勢必 15
勾 15
匯率 15
印製 15
危機 15
即乏 15
原告@@ 15
原約 15
受聘 15
口氣 15
合乎 15
否@@ 15
咆哮 15
咖啡 15
問@@ 15
嘛 15
四年 15
圍 15
垂@@ 15
報備 15
塊 15
夥 15
始生 15
威脅 15
婉 15
婦 15
學費 15
守衛 15
安之 15
定人 15
定作人 15
定某 15
實現 15
審定書 15
履 15
差別 15
巷 15
帶領 15
平常 15
式@@ 15
引 15
復參 15
徵信 15
心理 15
悉@@ 15
惟揆 15
意義 15
慧@@ 15
慷 15
憲 15
房@@ 15
找到 15
承上所述 15
投保資 15
抗@@ 15
採「 15
提交 15
提繳@@ 15
攜帶 15
收拾 15
改採 15
文章 15
斌 15
料表 15
於99 15
日經 15
時尚 15
書函 15
服勤 15
朗@@ 15
木@@ 15
杉 15
林明@@ 15
柯@@ 15
標準表 15
樣@@ 15
橋@@ 15
款」 15
正本 15
段@@ 15
淨 15
滑@@ 15
漁@@ 15
炎 15
無請求 15
然並 15
熟@@ 15
熱 15
燒 15
爐 15
父 15
獎勵金 15
玆 15
王俊@@ 15
瓊@@ 15
痊癒 15
癸○○ 15
發薪 15
白 15
皮@@ 15
益證 15
盒 15
監控 15
盤@@ 15
看看 15
矯@@ 15
矽@@ 15
票據 15
租 15
稅務 15
稽查@@ 15
第1010132@@ 15
第1016 15
第112 15
第132 15
第150 15
第170 15
第196 15
第258 15
第三十二 15
管理處 15
約書 15
純屬 15
組裝 15
結帳 15
給予 15
經營權 15
縮 15
縮@@ 15
縮短 15
總處 15
羣組 15
聲音 15
自同年 15
自解 15
舉證人 15
莫@@ 15
萬8@@ 15
虞」 15
虹@@ 15
行爲@@ 15
覈字 15
覈定者 15
覈實 15
言論 15
訓練@@ 15
診@@ 15
詞@@ 15
認諾 15
說什 15
說明書 15
調整@@ 15
證券 15
識 15
警察 15
貞操 15
資料@@ 15
賣@@ 15
跡 15
踐 15
輪@@ 15
迥然不同 15
退回 15
退貨 15
送交 15
逐月 15
通話 15
通謀 15
適於 15
遺 15
那@@ 15
醫學 15
重要性 15
重點 15
量權者 15
鉅額 15
銀@@ 15
門號 15
閉@@ 15
開庭 15
開放@@ 15
關懷 15
障礙@@ 15
難信 15
電信 15
預估 15
領導 15
領款 15
體力 15
鬱 15
鼎@@ 15
! 14
006 14
036 14
044 14
073 14
09 14
15年 14
226 14
238 14
266 14
284 14
291 14
294 14
295 14
2點 14
311 14
314 14
338 14
362 14
402 14
411 14
422 14
438 14
516 14
517 14
534 14
541 14
544 14
557 14
558 14
567 14
568 14
581 14
588 14
601 14
602 14
605 14
610 14
675 14
693 14
697 14
747 14
776 14
805 14
816 14
817 14
832 14
837 14
883 14
8點 14
982 14
985 14
MO@@ 14
Y@@ 14
in 14
pp@@ 14
r 14
ti@@ 14
「茲 14
「離職 14
」及 14
上工 14
下半年 14
中途 14
主旨 14
主義 14
之所以 14
乘@@ 14
乙○○之@@ 14
事證者 14
二十九 14
二審 14
五綜上所述 14
交易@@ 14
享受 14
人次 14
介 14
付」 14
任由勞 14
何者 14
俞 14
修復 14
偏@@ 14
停車費 14
側 14
偵@@ 14
偶爾 14
僱主經 14
內頁 14
全球 14
全面 14
凌@@ 14
出納 14
分配@@ 14
列出 14
刪減 14
勞動權 14
募@@ 14
勸 14
印刷 14
即便 14
卷宗 14
反證 14
受領者 14
可疑 14
各個 14
同業 14
告固 14
告辯 14
唐 14
嘉義 14
器具 14
回任 14
回扣 14
國立 14
堅 14
填載 14
增進 14
外側 14
外傷 14
外觀 14
大小 14
大會 14
奕@@ 14
妳@@ 14
始得 14
姓 14
婚@@ 14
媒體 14
媽媽 14
學童 14
安定 14
客車 14
專屬性 14
尤@@ 14
左側 14
帽 14
年資者 14
店@@ 14
得予 14
復經 14
復職日 14
忍 14
怠惰 14
急迫 14
恭@@ 14
息@@ 14
愈 14
慈濟 14
慰@@ 14
慰問金 14
憑採 14
成立者 14
戒@@ 14
承保 14
抗辯@@ 14
挪用 14
接獲 14
提領 14
揭情 14
擁有 14
擅@@ 14
操作員 14
擦 14
擴@@ 14
敘述 14
斷裂 14
方便 14
旨狀 14
暨@@ 14
暴力 14
會談 14
望 14
木 14
松@@ 14
某種 14
染 14
概括 14
樑 14
樹@@ 14
此後 14
此類 14
殯@@ 14
毓 14
民族 14
污@@ 14
決 14
況證人 14
法尚 14
泛 14
津貼2 14
洽@@ 14
流失 14
清查 14
溢@@ 14
滑 14
然若 14
爲人 14
牆 14
犬 14
理想 14
瓦@@ 14
甚且 14
生涯 14
生產部 14
病情 14
發表 14
研發部 14
硬@@ 14
確信 14
祺@@ 14
秋 14
科長 14
究系 14
穿 14
突@@ 14
立刻 14
端午 14
第133 14
第1405 14
第188 14
第1款 14
第2720 14
第86 14
第89 14
第按 14
算表 14
簽發 14
簿@@ 14
精簡 14
組織@@ 14
絹@@ 14
經查 14
綜@@ 14
續約 14
缸 14
缺失 14
羽@@ 14
翁@@ 14
職守 14
職時 14
股東會 14
肢 14
背 14
腦@@ 14
腹@@ 14
與@@ 14
與會 14
苗 14
董事@@ 14
薪級 14
藉@@ 14
藝@@ 14
號誌 14
衆多 14
行經 14
術@@ 14
袁@@ 14
被告2 14
裁減 14
補假 14
覲@@ 14
角度 14
訂約 14
設計@@ 14
訴求 14
診斷書 14
詢表 14
該店 14
誣@@ 14
調度@@ 14
諉 14
論是 14
講話 14
證明者 14
警衛室 14
變態 14
變成 14
貳 14
貼」 14
資爲 14
資袋 14
賠償金 14
賢@@ 14
贅述 14
趕快 14
趨勢 14
足稽 14
轉爲 14
轉達 14
辦事@@ 14
返@@ 14
迨 14
追溯 14
退職 14
適 14
遭資 14
郵@@ 14
酒 14
鏡 14
鑫 14
阻礙 14
降薪 14
陳報狀 14
隆@@ 14
際 14
雙手 14
電話費 14
青@@ 14
非勞基法 14
預防 14
風俗 14
飛 14
餐費 14
髮 14
鬱@@ 14
鵬 14
黏@@ 14
 14
－1 14
& 13
018 13
096 13
162 13
1時 13
239 13
241 13
249 13
303 13
323 13
344 13
355 13
356 13
357 13
376 13
429 13
439 13
473 13
476 13
498 13
536 13
573 13
594 13
5點 13
618 13
622 13
659 13
677 13
681 13
682 13
6款 13
708 13
715 13
727 13
7500 13
768 13
79號 13
852 13
897 13
914 13
940 13
959 13
967 13
989 13
AP@@ 13
al@@ 13
÷6 13
˙@@ 13
三十三 13
上半年 13
上訴人處 13
上限 13
世界 13
中者 13
之一@@ 13
事理 13
互動 13
些 13
以下@@ 13
任何人 13
企圖 13
休假系 13
低落 13
作者 13
併發 13
例行 13
供應 13
保險卡 13
保險金 13
俸 13
傅遠琦 13
優良 13
元予 13
先於 13
全權 13
公務車 13
公序 13
兵 13
其它 13
典@@ 13
冷卻 13
准@@ 13
分證 13
到底 13
制年 13
制服 13
剛纔 13
助 13
勘@@ 13
十幾 13
南部 13
卻@@ 13
叭 13
可考 13
右手 13
向@@ 13
嚴重性 13
國道 13
園區 13
均@@ 13
坐@@ 13
多餘 13
大法官 13
大門 13
夫@@ 13
妥善 13
姿 13
娥 13
學歷 13
安定性 13
宣導 13
家@@ 13
實難 13
就算 13
屋 13
岸 13
工會者 13
工者 13
平衡 13
庚@@ 13
座 13
延續 13
延遲 13
建設 13
影片 13
後方 13
復依 13
徵求 13
念 13
恐@@ 13
悖 13
應認 13
懷@@ 13
懷疑 13
截圖 13
截至 13
戴@@ 13
打瞌睡 13
打開 13
批准 13
承前所述 13
抑 13
拆 13
拉 13
拋@@ 13
拒@@ 13
拾@@ 13
按期 13
挑@@ 13
提供者 13
損益表 13
擇 13
故障 13
敘 13
教育@@ 13
文化 13
新人 13
新聞 13
施行@@ 13
旅行社 13
旅遊 13
日報 13
日薪@@ 13
旦 13
曠工@@ 13
會計部 13
有所謂 13
李明@@ 13
查詢表 13
核付 13
桃@@ 13
梅@@ 13
業務量 13
概@@ 13
櫻 13
歉@@ 13
正面 13
歸於 13
死 13
水電 13
決策@@ 13
汽 13
沿 13
法第 13
法者 13
流 13
淡水 13
淳 13
渡 13
港@@ 13
溪@@ 13
無可@@ 13
然兩 13
然按 13
煌 13
煩@@ 13
熟 13
營業稅 13
爐@@ 13
片@@ 13
牌@@ 13
犯@@ 13
王淑@@ 13
班日 13
理應 13
理由者 13
瑪 13
生前 13
生效日 13
用語 13
甫 13
申請@@ 13
疑@@ 13
病歷 13
白書 13
相差 13
看護費 13
眼 13
砂@@ 13
研究@@ 13
研討 13
社政 13
社會@@ 13
祕密@@ 13
票款 13
窗@@ 13
第0980@@ 13
第100@@ 13
第130 13
第138 13
第141 13
第143 13
第169 13
第187 13
第189 13
第201 13
第2012 13
第255@@ 13
第481 13
第三百@@ 13
簡單 13
簽字 13
籤認 13
精@@ 13
糾正 13
紅利@@ 13
統籌 13
經營者 13
經辦 13
縱系 13
總經理室 13
繁@@ 13
續曠 13
罰金 13
罹@@ 13
義務云云 13
翻 13
聞 13
能@@ 13
自難 13
航班 13
薇@@ 13
蘇 13
處所 13
虛僞@@ 13
衆@@ 13
行程 13
衛 13
表意人 13
表決 13
被告發 13
覆 13
角 13
解時 13
計月者 13
訖 13
記錄@@ 13
詎@@ 13
試驗 13
認上 13
認真 13
調查@@ 13
請假卡 13
證二 13
貨櫃 13
賓 13
賺錢 13
踝 13
車次 13
軌@@ 13
輔助 13
輕鬆 13
輝@@ 13
辛@@ 13
辦公 13
速度 13
遊戲 13
遑@@ 13
違反者 13
醫藥 13
金予 13
銅@@ 13
錩 13
阻@@ 13
附於 13
陳情書 13
陳麗@@ 13
陵 13
陽@@ 13
階@@ 13
集中 13
雋@@ 13
離職事 13
露 13
非上訴人 13
順利 13
頒佈 13
題 13
願@@ 13
食品 13
駁 13
駐@@ 13
駕@@ 13
鵬@@ 13
黎 13
 13
查 13
依 13
﹞ 13
026 12
033 12
037 12
066 12
12年 12
211 12
218 12
223 12
312 12
317 12
324 12
343 12
349 12
374 12
378 12
407 12
424 12
425 12
432 12
436 12
446 12
452 12
45分 12
472 12
484 12
489 12
490 12
493 12
501 12
503 12
527 12
539 12
554 12
606 12
616 12
644 12
645 12
663 12
723 12
741 12
746 12
758 12
769 12
790 12
797 12
804 12
855 12
890 12
902 12
912 12
941 12
944 12
962 12
996 12
AC@@ 12
LINE@@ 12
MS@@ 12
O 12
Y 12
i 12
j@@ 12
l 12
ter@@ 12
” 12
⑥ 12
「前 12
「於 12
上市 12
丙@@ 12
主委 12
乃系 12
乙○○證 12
五金 12
交出 12
亦證 12
人者 12
仟 12
仟元 12
代理權 12
企劃@@ 12
伍@@ 12
伯@@ 12
伴隨 12
伺@@ 12
佘@@ 12
佰 12
併入 12
供應商 12
保承 12
偏 12
做成 12
停業 12
傳喚 12
儘量 12
全勤@@ 12
全員 12
其於 12
冒 12
冠@@ 12
出口 12
刀 12
刊 12
列表 12
劑 12
加付 12
加班費@@ 12
動產 12
勤表 12
化學 12
午節 12
南區 12
博@@ 12
卷內 12
取決於 12
同樣 12
告於 12
味 12
單子 12
嗣因 12
四十九 12
回國 12
固屬 12
基本薪 12
墊 12
墊償 12
墜@@ 12
增資 12
壬@@ 12
天堂 12
奈@@ 12
契@@ 12
套@@ 12
妍 12
妥當 12
始能 12
委任人 12
委任人所 12
婚 12
嬰假 12
字跡 12
學者 12
定假日 12
害者 12
寄存 12
審證 12
射 12
專業@@ 12
峻@@ 12
崗位 12
差距 12
帳款 12
年紀 12
年資@@ 12
序號 12
度臺 12
庶符 12
廚@@ 12
弱 12
彙@@ 12
徑 12
復辯 12
忽略 12
思 12
怠@@ 12
感@@ 12
憑據 12
應視 12
懲罰性 12
打卡@@ 12
承上 12
承包 12
技@@ 12
抽 12
拍照 12
拿走 12
指出 12
指定者 12
授信 12
掌控 12
掛 12
接待 12
接續 12
接近 12
提報 12
撥打 12
擊 12
斯時 12
方俟 12
於是 12
旋即 12
昭@@ 12
書記 12
書證 12
未定 12
本即 12
材@@ 12
材料@@ 12
析述 12
林政@@ 12
架@@ 12
查證人 12
校長 12
核於 12
核表 12
桌@@ 12
櫃@@ 12
欠佳 12
歷史 12
歷次 12
殊@@ 12
每季 12
永久 12
法務部 12
法性 12
波@@ 12
注@@ 12
洗@@ 12
洵堪 12
淨@@ 12
淨利 12
混淆 12
漲 12
澳@@ 12
烈 12
無庸@@ 12
無薪 12
然未 12
爲限 12
牛@@ 12
現有 12
琴 12
申報表 12
疏 12
疼痛 12
登 12
發予 12
百分之百 12
盜@@ 12
破@@ 12
磅@@ 12
示「 12
社團 12
社會保險 12
禁@@ 12
禁卡 12
稅款 12
稱之勞工 12
窗口 12
競爭@@ 12
第098@@ 12
第1000@@ 12
第108 12
第118 12
第120 12
第144 12
第145 12
第159 12
第185 12
第223 12
第23@@ 12
第2465 12
第737 12
第889 12
第90 12
第七十@@ 12
簡易庭 12
紀 12
組成 12
結構性 12
統 12
縱於 12
績@@ 12
置之不理 12
罷 12
翡翠 12
翻@@ 12
職前 12
職務所 12
背於 12
腕 12
臚列 12
自同 12
航@@ 12
良俗 12
苓 12
苟@@ 12
英語 12
衡諸@@ 12
被告林 12
被告迄 12
被迫 12
裁罰 12
見聞 12
規避法 12
言行 12
該規 12
說明會 12
請辭 12
諒 12
諭 12
謀求 12
變換 12
豆@@ 12
貞@@ 12
負荷 12
資字 12
賠@@ 12
賺取 12
贈品 12
越@@ 12
趣 12
路段 12
身分者 12
躲 12
車損 12
軍 12
辛 12
逐漸 12
這筆 12
通告 12
週 12
逾越 12
運輸業 12
遭到 12
選「 12
鄉@@ 12
酸 12
針@@ 12
銷售@@ 12
鋼 12
鐘@@ 12
鑑於 12
閃@@ 12
開原 12
開期 12
開解 12
開離 12
閱覽 12
附隨 12
限者 12
陳英@@ 12
隸屬 12
面對 12
預支 12
顯爲 12
點效 12
－ 12
｝@@ 12
000000000 11
000× 11
04 11
052 11
068 11
071 11
072 11
075 11
077 11
147 11
14年 11
1600 11
1800 11
214 11
231 11
271 11
277 11
279 11
286 11
298 11
31萬 11
322 11
331 11
336 11
354 11
367 11
373 11
38萬 11
408 11
445 11
458 11
462 11
488 11
513 11
523 11
564 11
565 11
574 11
578 11
585 11
593 11
621 11
623 11
633 11
683 11
692 11
706 11
707 11
719 11
722 11
749 11
75年 11
778 11
791 11
796 11
798 11
821 11
846 11
872 11
874 11
885 11
893 11
910 11
921 11
9年 11
F 11
In@@ 11
J 11
⑥@@ 11
○○○○○○@@ 11
「委 11
「查 11
下旬 11
丟@@ 11
主導 11
主席 11
之上訴人 11
之中 11
之動機 11
人事部門 11
人士 11
人壽 11
人聲 11
介入 11
休假云云 11
估算 11
依職 11
侵 11
促進會 11
倍@@ 11
僱主@@ 11
僱員 11
優退 11
元月 11
兇 11
內湖 11
全文 11
全薪 11
共體 11
其時 11
冊@@ 11
分娩 11
刑@@ 11
利變 11
剛剛 11
加害人 11
加班費」 11
務人 11
勞動局 11
勞基 11
勞工者 11
原訴 11
反面@@ 11
受僱者 11
叫@@ 11
吊車 11
同意@@ 11
同意者 11
吞 11
吸@@ 11
告訴人 11
和諧 11
員額 11
喝 11
喝酒 11
嘉獎 11
嚴 11
回收@@ 11
執行者 11
基準@@ 11
堪認@@ 11
報酬者 11
增減 11
夜@@ 11
大多 11
奇@@ 11
奠儀 11
始符 11
姐 11
嫌@@ 11
孝@@ 11
定者 11
寧@@ 11
審閱 11
封@@ 11
專科 11
導 11
屁@@ 11
屢屢 11
層@@ 11
履歷 11
屬「 11
工作服 11
席@@ 11
年初 11
幸 11
庫 11
廉@@ 11
建築物 11
弊端 11
律@@ 11
循 11
心態 11
急病 11
怪@@ 11
悖於 11
惟此 11
惟經 11
慢@@ 11
懇@@ 11
戳 11
打架 11
承攬者 11
抱@@ 11
拖@@ 11
拜託 11
持@@ 11
指受 11
指控 11
指揮@@ 11
捐@@ 11
捷運 11
採行 11
採購@@ 11
接收 11
接送 11
推諉 11
措@@ 11
換班 11
搭 11
摺合 11
擋 11
擔心 11
收支 11
敘@@ 11
敷 11
敷@@ 11
數位 11
數者 11
新進 11
既@@ 11
明書 11
易言之 11
晉升 11
普遍 11
晰 11
最初 11
有損 11
本得 11
本票 11
杰 11
核尚 11
槽 11
標案 11
標示 11
樣子 11
樹 11
款人 11
歉 11
正反面 11
此部 11
歸屬 11
毫@@ 11
氏 11
沙@@ 11
油費 11
法系 11
洵無足採 11
消息 11
源於 11
滯納金 11
無從屬 11
無足 11
然本 11
燦@@ 11
爲「 11
版@@ 11
獎@@ 11
獲@@ 11
率@@ 11
班制 11
琪@@ 11
環瑋 11
甲○○所 11
當之 11
當事@@ 11
疑 11
病房 11
療@@ 11
癒合 11
百貨 11
直 11
相信 11
看出 11
磨@@ 11
禮拜@@ 11
移動 11
穩 11
突發 11
第1010@@ 11
第110 11
第115 11
第119 11
第122 11
第128 11
第131 11
第140 11
第149 11
第215 11
第271 11
第369 11
第490 11
等同 11
篤@@ 11
簽證 11
約定@@ 11
維修@@ 11
練 11
總務處 11
繆@@ 11
繼承人 11
罐@@ 11
翌@@ 11
翰@@ 11
聲請@@ 11
職假 11
職者 11
職能 11
腫@@ 11
腳 11
臣 11
自付額 11
自斯 11
自生 11
自知悉 11
舉行 11
舍@@ 11
萄@@ 11
萬9@@ 11
葉 11
藥劑@@ 11
虧損」 11
行事 11
行長 11
衛生署 11
衰退 11
被動 11
被告所 11
規制 11
親籤 11
觀點 11
註銷 11
評會 11
該份 11
認於 11
誤解 11
誤載 11
誤餐費 11
請示 11
謊@@ 11
證八 11
譯 11
貢獻度 11
貶@@ 11
資本額 11
資遺 11
贈 11
起迄 11
超逾 11
超額 11
身份 11
車速 11
輕便 11
轉入 11
辦@@ 11
辦事處 11
近年 11
進貨 11
逸@@ 11
逼迫 11
運動 11
過剩 11
違抗 11
適逢 11
遴@@ 11
遵照 11
遷@@ 11
那些 11
配戴 11
重視 11
釘 11
錦 11
長短 11
開主 11
開啓 11
開國 11
間服 11
間歇性 11
防免 11
阻止 11
附近 11
陣@@ 11
陳宜卓 11
陳情 11
隱瞞 11
雖@@ 11
雙重 11
須合 11
領薪資 11
額@@ 11
類@@ 11
館 11
駿 11
驊 11
鬧 11
麻@@ 11
黃秀@@ 11
﹝ 11
000×6 10
004 10
025 10
083 10
088 10
097 10
19年 10
237 10
242 10
247 10
257 10
281 10
289 10
309 10
318 10
342 10
358 10
361 10
368 10
371 10
381 10
389 10
393 10
410 10
427 10
428 10
48萬 10
491 10
4年 10
505 10
509 10
582 10
611 10
612 10
638 10
664 10
671 10
698 10
700@@ 10
70萬 10
714 10
717 10
724 10
782 10
785 10
810 10
815 10
824 10
839 10
873 10
90日 10
915 10
925 10
926 10
964 10
981 10
987 10
992 10
> 10
AD@@ 10
IS@@ 10
OK 10
ch@@ 10
ha@@ 10
ou@@ 10
re@@ 10
th@@ 10
un@@ 10
「經 10
「自 10
七年 10
上方 10
上訴論 10
下單 10
丟 10
中秋 10
主任委員 10
乃是 10
之類 10
乙○○所 10
乙○○系 10
亦失所 10
人工 10
人服 10
人身 10
今日 10
以資 10
仲 10
任人處理 10
企業社 10
何須 10
作用 10
依前所述 10
依本院 10
侵害者 10
保健 10
保申 10
保退 10
信函予 10
倘系 10
借用 10
假別 10
假卡 10
偶發 10
偷 10
備忘錄 10
催促 10
傳染病 10
僞@@ 10
元÷ 10
入股 10
全行 10
准此@@ 10
出境 10
函查 10
分享 10
分開 10
刑事@@ 10
刑事庭 10
制退休金 10
刻 10
前一天 10
剛好 10
劉惠@@ 10
勇 10
勉勵性 10
動手 10
動用 10
勞基@@ 10
勞調 10
協 10
協進會 10
卡片 10
參酌證人 10
各業 10
名譽@@ 10
告系 10
嗣上訴人 10
嚴禁 10
固定@@ 10
地院 10
坦@@ 10
埔@@ 10
執掌 10
執行@@ 10
報少 10
場合 10
墊@@ 10
墊付 10
壞@@ 10
大客車 10
契約@@ 10
女工 10
好好 10
妹@@ 10
始足稱 10
姑@@ 10
婦@@ 10
孔@@ 10
學期 10
容易 10
尋求 10
就任 10
局部 10
屏@@ 10
履約 10
岳@@ 10
巴@@ 10
幣 10
平臺 10
幼 10
庚 10
度@@ 10
庭卷 10
庭結證 10
廠務 10
弘@@ 10
弟@@ 10
弱勢 10
後果 10
得利@@ 10
徵人 10
忘 10
性質者 10
惟觀 10
想法 10
慎@@ 10
憂@@ 10
憑條 10
懲戒@@ 10
成長 10
戒權 10
房貸 10
扣除@@ 10
扶@@ 10
技巧 10
折扣 10
拖 10
挑 10
捨棄 10
接聽 10
推展 10
推斷 10
插 10
揭情詞 10
操作@@ 10
攣@@ 10
改選 10
政院 10
故僱 10
教育部 10
新職 10
旨可資 10
旨趣 10
星期@@ 10
時日 10
時點 10
晨@@ 10
晶@@ 10
曼@@ 10
替代 10
有限 10
有點 10
未符 10
本俸 10
東會 10
林宗@@ 10
柄 10
某日 10
柒 10
核備@@ 10
桂 10
案子 10
業績@@ 10
楷 10
標誌 10
檢送 10
權者 10
欲@@ 10
欺騙 10
歡@@ 10
此次 10
毋@@ 10
每股 10
民事@@ 10
水泥 10
求者 10
污水 10
沄 10
沒@@ 10
沒收 10
注欄 10
洋 10
派出所 10
涉犯 10
清潔@@ 10
清算人 10
溢扣 10
滅@@ 10
無勞基法 10
無可取 10
然就 10
然經 10
爰請求 10
爲佐 10
父親 10
牙 10
物流 10
特殊性 10
獎勵性 10
現今 10
球場 10
理念 10
理法 10
理賠 10
用途 10
由@@ 10
申辦 10
男性 10
界 10
當之動機 10
當作 10
癌 10
百貨@@ 10
監工 10
監督權 10
看診 10
真實性 10
眷屬@@ 10
睛 10
矧 10
研判 10
硬 10
確屬 10
礙 10
禁 10
私事 10
秤@@ 10
移轉 10
稱之工資 10
第097@@ 10
第105@@ 10
第147 10
第155 10
第156 10
第171 10
第173 10
第175 10
第182 10
第191 10
第192 10
算是 10
箱@@ 10
節慶 10
範 10
簽收@@ 10
系欲 10
約談 10
終局 10
終止@@ 10
綠@@ 10
綿 10
緣@@ 10
縱經 10
繼 10
美玲 10
翠@@ 10
耳@@ 10
聊 10
聽從 10
肢體 10
膳@@ 10
自92年 10
自承其 10
自稱 10
自費 10
致受 10
與其 10
舜 10
苛 10
落@@ 10
蔡孟@@ 10
薪日 10
薪資」 10
被告本 10
補償@@ 10
製造業 10
複雜 10
規定資遣 10
規程 10
覺 10
解書 10
計薪 10
訓練費 10
記者 10
訟標 10
設計師 10
訴外 10
註 10
該處 10
詳實 10
詳見 10
認僱 10
誣告 10
調移 10
調閱 10
論據 10
謝謝 10
議權 10
變異 10
象@@ 10
負擔者 10
貫徹 10
賠 10
贅論 10
足夠 10
路邊 10
蹠@@ 10
身上 10
車資 10
軟@@ 10
轉嫁 10
轉職 10
辭呈 10
迥異 10
退職者 10
通知函 10
通路 10
進出 10
過度 10
達「 10
遣 10
遭拒 10
遲延@@ 10
遷 10
選擇@@ 10
避 10
還款 10
鉅 10
錶 10
鍈 10
開工 10
開調 10
開請 10
開請求 10
阻 10
附援引 10
限」 10
院證 10
除別 10
除權 10
陳月@@ 10
險 10
雪@@ 10
面前 10
項準 10
頓@@ 10
頻@@ 10
題@@ 10
類推 10
高興 10
高額 10
黃大@@ 10
黑@@ 10
 10
@@ 10
％@@ 10
＋資 10
－2 10
.. 9
013 9
027 9
031 9
056 9
070 9
084 9
092 9
0萬 9
21@@ 9
21年 9
251 9
305 9
334 9
35萬 9
366 9
419 9
421 9
457 9
45萬 9
483 9
486 9
4款 9
508 9
519 9
522 9
552 9
571 9
595 9
654 9
657 9
685 9
687 9
696 9
704 9
705 9
711 9
726 9
729 9
739 9
742 9
754 9
819 9
826 9
866 9
888 9
909 9
939 9
955 9
976 9
978 9
983 9
993 9
995 9
LI@@ 9
Le@@ 9
Q 9
al 9
co@@ 9
con@@ 9
it@@ 9
no@@ 9
˙ 9
「調 9
「資 9
」乙節 9
〔@@ 9
一次性 9
上下@@ 9
上車 9
下次 9
下肢 9
世 9
丘 9
中央目 9
中山 9
主非 9
事業者 9
云@@ 9
亨 9
人才 9
人民@@ 9
他人者 9
代理商 9
代表權 9
令@@ 9
以便 9
以爲斷 9
休假」 9
休息@@ 9
伶 9
住宿 9
何需 9
併購 9
信託 9
們 9
倒數 9
候@@ 9
偶 9
偶然 9
偷@@ 9
備份 9
傭@@ 9
債@@ 9
傾@@ 9
克 9
免稅 9
兔@@ 9
八十一 9
公法 9
冷氣 9
凡@@ 9
出勤表 9
出者 9
出資額 9
分店 9
刊@@ 9
判處 9
制止 9
剛@@ 9
勒@@ 9
務員 9
務局 9
務部 9
勞工處 9
即足 9
卸責 9
參諸@@ 9
受自 9
受託 9
召@@ 9
可謂 9
史@@ 9
吃@@ 9
告業 9
告終 9
喜歡 9
噴@@ 9
嚴厲 9
因認 9
固然 9
固證 9
國內外 9
國民@@ 9
國民身 9
圖利 9
團 9
團@@ 9
執意 9
堆高機 9
報經 9
塵@@ 9
墓 9
大型 9
奉 9
契約權 9
始屬 9
始足稱之 9
姐@@ 9
嬉@@ 9
字眼 9
定時 9
室@@ 9
容忍 9
審勞 9
射@@ 9
將近 9
小朋友 9
就是說 9
屆@@ 9
峽 9
巡視 9
幅度 9
年假 9
年加 9
年計 9
庫存@@ 9
廖 9
德州 9
快@@ 9
快速 9
思考 9
怠工 9
怨 9
恆 9
情事云云 9
情以觀 9
惟勞 9
愉快 9
愛 9
態@@ 9
應用 9
懲處@@ 9
戳@@ 9
所在地 9
所爲 9
手上 9
托@@ 9
扣發 9
技術@@ 9
投資@@ 9
抗辯系 9
抽象 9
拉@@ 9
持續性 9
掃墓節 9
授@@ 9
採認 9
探 9
探究 9
提撥@@ 9
換取 9
支薪 9
故受 9
數字 9
斟酌@@ 9
施予 9
旅@@ 9
既得@@ 9
日」 9
日始 9
日方 9
日計酬 9
旨指 9
旭 9
明細單 9
明載 9
昶 9
晟@@ 9
曰 9
有發 9
服務處 9
杞@@ 9
枝 9
柺@@ 9
核並 9
核可 9
核章 9
梯 9
椅子 9
業務處 9
極大 9
榔@@ 9
標籤 9
機動 9
檢查@@ 9
檳 9
權力 9
歐@@ 9
正確性 9
此業 9
武 9
死@@ 9
殘@@ 9
殘廢者 9
母@@ 9
母公司 9
民營 9
氣氛 9
氣體 9
求職者 9
油品 9
法制 9
法定@@ 9
法所定 9
法文 9
津@@ 9
浩@@ 9
淨額 9
清水 9
滯 9
滿意 9
潭 9
無效@@ 9
無非@@ 9
然系 9
燕@@ 9
爲何人 9
物理 9
特此 9
獲悉 9
珮 9
現職 9
球@@ 9
理性 9
理解 9
甚鉅 9
生命 9
用者 9
甲○○之 9
甲○○證 9
甲等 9
申報@@ 9
畢@@ 9
症@@ 9
百分之60 9
的@@ 9
盡力 9
碎@@ 9
碧玉 9
碳 9
磊@@ 9
稱系 9
稽覈@@ 9
稽覈室 9
竊 9
立案 9
童 9
竹 9
第099@@ 9
第121 9
第137 9
第163 9
第1631 9
第217 9
第26@@ 9
第279 9
第496 9
答稱 9
管轄 9
管道 9
管部 9
簽退 9
籌@@ 9
粗重 9
糾@@ 9
紐@@ 9
純@@ 9
經核 9
經濟@@ 9
綦詳 9
緩 9
縱上訴人 9
總統 9
繳回 9
置理 9
耗@@ 9
肯 9
膝@@ 9
自民事 9
自然人 9
自難@@ 9
至今 9
航線 9
艙 9
芯@@ 9
荷@@ 9
菲 9
落差 9
蔡建@@ 9
蔡文惠 9
藏@@ 9
虛報 9
虛構 9
虞@@ 9
血@@ 9
行銷@@ 9
衡@@ 9
表示者 9
被告嗣 9
被告逕 9
裁處 9
裝設 9
覈減 9
親筆 9
計發 9
訊@@ 9
訖@@ 9
詐 9
該行 9
調件 9
調卷 9
調查表 9
論究 9
謀@@ 9
謂@@ 9
謠 9
證七 9
變造 9
象 9
貢獻 9
販賣 9
貫 9
責事 9
責任」 9
貿@@ 9
賄@@ 9
起因 9
足佐 9
足堪 9
跨 9
跳 9
蹤 9
車號 9
載貨 9
輒 9
轄 9
轉告 9
轉讓@@ 9
辦事 9
迫性 9
迴歸 9
退出 9
送貨@@ 9
逐@@ 9
途徑 9
逕依 9
逢 9
遂行性 9
遞 9
適格性 9
遵行 9
遽予 9
郵政 9
酒測 9
酵@@ 9
醫治 9
金云云 9
金屬 9
鍾 9
鐵路 9
閉 9
開函文 9
開所述 9
閒@@ 9
閘門 9
關聯性 9
阮氏 9
院99 9
陪 9
陳慧@@ 9
陳秀@@ 9
隊 9
隔月 9
險@@ 9
雄@@ 9
難堪 9
雯@@ 9
雲林縣 9
電機 9
震@@ 9
非工資 9
革 9
革職 9
須視 9
預付 9
頒 9
風 9
食譜 9
食費 9
香@@ 9
騙 9
騰 9
驗法 9
鶯@@ 9
默@@ 9
齊@@ 9
龐大 9
Ｄ@@ 9
Ｉ@@ 9
00萬 8
022 8
07 8
13年 8
150萬 8
16時 8
234 8
23萬 8
26萬 8
29年 8
327 8
337 8
379 8
385 8
386 8
3＋@@ 8
415 8
435 8
464 8
477 8
482 8
547 8
569 8
577 8
586 8
653 8
655 8
662 8
676 8
694 8
709 8
712 8
713 8
71年 8
721 8
737 8
753 8
757 8
764 8
787 8
834 8
835 8
869 8
878 8
916 8
922 8
936 8
938 8
956 8
< 8
ER@@ 8
IN@@ 8
PS 8
ard 8
ed 8
ine 8
ment 8
mp@@ 8
st@@ 8
≒@@ 8
④@@ 8
⑦ 8
《 8
》 8
「代 8
「第 8
「資方 8
」此 8
一覽表 8
一體 8
一０ 8
三字經 8
上訴@@ 8
且@@ 8
世傑 8
丙○○之@@ 8
並無二致 8
主張其自 8
乙情 8
事者 8
亡 8
京@@ 8
住所 8
何項 8
作法 8
使@@ 8
例示 8
依表 8
促使 8
信譽 8
修正@@ 8
修繕 8
倫理 8
假云云 8
假者 8
健康@@ 8
偶@@ 8
偷竊 8
傷口 8
僱主經營 8
僱於 8
優勢 8
兄弟 8
光復@@ 8
公司@@ 8
其一 8
分發 8
切割 8
切結 8
到任 8
前條 8
劑@@ 8
勉@@ 8
勞退專戶 8
即告 8
原職 8
友@@ 8
取回 8
受償 8
另證人 8
召集 8
可資 8
合法性 8
吊@@ 8
名華 8
哥@@ 8
商店 8
商銀 8
啓事 8
喜慶 8
喪@@ 8
嘉 8
噸@@ 8
回診 8
國防部 8
坊 8
堤 8
增列 8
大小@@ 8
太@@ 8
失爲 8
妥適 8
始於 8
始爲 8
始負 8
委請 8
姨 8
宋 8
定資 8
定額 8
宣示 8
密集 8
審調 8
尋@@ 8
小心 8
尚非有據 8
屏東 8
工程部 8
差費 8
市○○路 8
平均@@ 8
年前 8
幼@@ 8
座位 8
廈 8
廣播 8
延期 8
建築@@ 8
弱@@ 8
張寶@@ 8
影像 8
役@@ 8
彼 8
復原 8
復證 8
怎樣 8
怒@@ 8
急 8
悅@@ 8
悔 8
情理 8
戊○○於 8
或@@ 8
打字 8
扣留 8
批發 8
把@@ 8
抗議 8
拆除 8
拍攝 8
拖延 8
拘束性 8
拜 8
括@@ 8
拯@@ 8
指標 8
指訴 8
指述 8
捌 8
捐 8
捷@@ 8
掃@@ 8
掛名 8
接替 8
控制@@ 8
揭露 8
搞 8
搬遷 8
撞擊 8
撤職 8
撫 8
撫@@ 8
擅離職守 8
攤 8
支持 8
故於 8
效」 8
效益 8
敗 8
教授 8
散佈 8
敬 8
敬業 8
整合 8
日共 8
昭 8
時限 8
景 8
曆@@ 8
曼 8
會計@@ 8
月數 8
月薪制 8
有權 8
服務站 8
服用 8
本次 8
本諸 8
杖 8
杞 8
架構 8
查看 8
查知 8
核其 8
棄 8
棉 8
森@@ 8
椎 8
業社 8
樂 8
機具 8
機電 8
止」 8
歷 8
殘障 8
毀@@ 8
毋 8
每期 8
毛利 8
污 8
洛@@ 8
洺 8
浪費 8
清償@@ 8
清明節 8
清點 8
渝@@ 8
溢付 8
漫@@ 8
潛在 8
潤@@ 8
澄清 8
灼然 8
災@@ 8
炳@@ 8
無力 8
無明文禁止 8
無足取 8
然亦 8
然仍 8
然於 8
煙@@ 8
營運@@ 8
特色 8
獎金系 8
玖 8
現代 8
理事會 8
琍 8
璇 8
甚詳 8
生者 8
甲○○○@@ 8
男@@ 8
界定 8
當於 8
症 8
癒 8
百分之六十@@ 8
益見 8
監 8
破裂 8
硬體 8
碰@@ 8
碰到 8
確性 8
磋商 8
祺 8
福利部 8
禾 8
稍 8
窘@@ 8
竄 8
竟@@ 8
第0000000 8
第0970@@ 8
第1018 8
第106@@ 8
第124 8
第136 8
第139 8
第154 8
第157 8
第160 8
第165 8
第168 8
第186 8
第209 8
第213 8
第246 8
第549 8
第762 8
筆記本 8
筋 8
答@@ 8
答覆 8
策 8
筱@@ 8
粉塵 8
系委 8
紀錄器 8
索@@ 8
結構@@ 8
經徵 8
經理@@ 8
經銷 8
綠 8
縣@@ 8
縱原告 8
繕打 8
繪 8
繳款 8
繳款單 8
續性 8
續聘 8
美商 8
翻譯 8
耀@@ 8
耗損 8
聘請 8
職原 8
肇 8
肩 8
肯認 8
背景 8
胞@@ 8
脫離 8
膜 8
臨 8
臨時工 8
自負有 8
自起 8
臺南縣 8
臼@@ 8
舒服 8
航空@@ 8
若是 8
茹 8
董監事 8
蒸氣 8
蓮@@ 8
蔡 8
薪休 8
薪資5 8
虛妄 8
蛋 8
衛生@@ 8
衣服 8
袋@@ 8
被告即 8
被告如 8
被告未 8
被告辯 8
補救 8
複稱 8
複覈 8
褲@@ 8
覈銷 8
角@@ 8
計算之 8
訓@@ 8
認同 8
說話 8
諱 8
警惕 8
議處 8
護理 8
變更@@ 8
販 8
貪@@ 8
貳@@ 8
貿易 8
賀禮 8
賣場 8
質問 8
贈送 8
贏@@ 8
趨 8
身分之證件 8
較@@ 8
辜@@ 8
辯狀 8
農@@ 8
迄至 8
迅 8
迎 8
迪@@ 8
逃@@ 8
途@@ 8
通聯 8
造業 8
遇到 8
運輸@@ 8
遍 8
違勞 8
遣散費 8
適時 8
遺症 8
邦@@ 8
邱 8
部位 8
部屬 8
鄉長 8
鄭 8
配方 8
酬金 8
釋字 8
金系 8
金者 8
鈺 8
銷者 8
鐘 8
開刀 8
開規 8
附上 8
附加 8
除去者 8
陳振@@ 8
陳文@@ 8
陳述@@ 8
雙務 8
雨@@ 8
電源 8
霍夫@@ 8
類型 8
飲@@ 8
飲酒 8
餐@@ 8
餘款 8
首都 8
騰@@ 8
髒@@ 8
魚@@ 8
 8
@@ 8
Ｏ@@ 8
...@@ 7
005 7
010 7
015 7
042 7
053 7
090 7
094 7
159 7
17時 7
20分 7
22時 7
259 7
283 7
2時 7
306 7
32萬 7
37萬 7
382 7
395 7
399 7
423 7
434 7
451 7
465 7
478 7
479 7
492 7
507 7
515 7
609 7
60日 7
617 7
631 7
647 7
649 7
661 7
669 7
678 7
690 7
716 7
763 7
777 7
781 7
786 7
813 7
828 7
865 7
877 7
896 7
905 7
90萬 7
934 7
965 7
Co@@ 7
ab@@ 7
an 7
as@@ 7
es@@ 7
ho@@ 7
lo@@ 7
of 7
ri@@ 7
③@@ 7
」原 7
一百 7
上去 7
上訴狀 7
不可@@ 7
丙○○系 7
中壢 7
中班 7
中興 7
乃指 7
之所得 7
乙○ 7
九年 7
二事 7
交岔 7
亦堪 7
享 7
京 7
人事部 7
人壽保險 7
代表大會 7
企字 7
休息室 7
休閒 7
似@@ 7
佰@@ 7
使用@@ 7
供述 7
依循 7
係指非 7
係數 7
促銷 7
俄@@ 7
俗@@ 7
保險失 7
俾@@ 7
個半 7
個性 7
倒閉 7
健康者 7
僞證 7
元及 7
兌@@ 7
兌現 7
免假 7
免扣 7
兒童 7
內心 7
全國 7
全日制 7
全業 7
全盤 7
八年 7
公告欄 7
公訴 7
公路 7
凍@@ 7
函令 7
函知 7
分之@@ 7
分工 7
分配表 7
初步 7
券 7
剎@@ 7
剩餘@@ 7
劉 7
加油 7
加班」 7
勞工法 7
勞工資 7
勞簡 7
募 7
北勞 7
十分 7
升訓 7
升遷 7
半年計 7
印文 7
危險性 7
即堪 7
即屬 7
卷證 7
參原 7
參展 7
參本院 7
參諸證人 7
叉 7
友人 7
反悔 7
吊 7
同者 7
否則@@ 7
吵 7
吸收 7
周惠翼 7
味@@ 7
呼 7
品德 7
問卷 7
善盡 7
喔 7
喪假@@ 7
單純@@ 7
喻@@ 7
器@@ 7
嚼 7
囑 7
困境 7
國慶日 7
在先 7
埔 7
執行法 7
基金會 7
堆 7
堡@@ 7
報單 7
報復 7
報紙 7
場長 7
塗 7
塗改 7
壁 7
士林 7
壬 7
外科 7
夜點費 7
大於 7
夾 7
奉@@ 7
契約目 7
始知 7
姿@@ 7
娘@@ 7
娩@@ 7
婆 7
婚假 7
嬌 7
孔 7
存放 7
存貨 7
安狀態 7
完工 7
客戶@@ 7
實情 7
實質性 7
審判@@ 7
封面 7
將@@ 7
專人 7
專用 7
尋找 7
岑 7
巡邏 7
工商 7
工業區 7
工讀生 7
巧 7
市○○@@ 7
帳簿 7
幫@@ 7
干@@ 7
平原 7
年中 7
年節 7
序 7
序@@ 7
庭具 7
廁 7
廊 7
廢 7
廷 7
建築 7
弄@@ 7
弊 7
張志@@ 7
彙整 7
彰化 7
律 7
後認 7
徐 7
徒手 7
復據 7
循@@ 7
忙@@ 7
患@@ 7
意人 7
慣@@ 7
慮@@ 7
應解 7
懼 7
戊@@ 7
戲 7
房務 7
房租 7
手段@@ 7
手部 7
打算 7
找@@ 7
抄 7
括 7
指委 7
掌 7
採計 7
提請 7
插@@ 7
揭「 7
揭事 7
援 7
摘 7
撤 7
擷取 7
支費 7
敍明 7
救@@ 7
數日 7
數次 7
文規定 7
斥 7
新加坡 7
旭@@ 7
星期五 7
昶@@ 7
時間點 7
晚@@ 7
暈@@ 7
曹@@ 7
會後 7
會館 7
有利益 7
本屬 7
杆 7
杏@@ 7
查帳 7
核系 7
核閱 7
桃園縣 7
植 7
楊國@@ 7
業界 7
樂福 7
樓梯 7
模擬 7
機制 7
橫@@ 7
歌@@ 7
歧 7
毒@@ 7
永安 7
沙 7
泄@@ 7
法」 7
波 7
浩 7
浮@@ 7
消費者 7
涵蓋 7
淺 7
添@@ 7
減免 7
溫 7
滄@@ 7
潘 7
潢 7
激@@ 7
濱 7
灌@@ 7
炫 7
無償 7
無礙於 7
然揆 7
煮 7
燒@@ 7
爭離 7
版本 7
特質 7
犯意 7
犯行 7
狗 7
猛@@ 7
獨自 7
獲准 7
玩@@ 7
玻@@ 7
班別 7
現實@@ 7
現況 7
瑕@@ 7
璜 7
生存權 7
生病 7
申覆 7
當中 7
疑慮 7
疫@@ 7
痛@@ 7
皆@@ 7
監造 7
相悖 7
看見 7
真僞 7
真相 7
眩 7
短缺 7
碧@@ 7
碳@@ 7
磁@@ 7
磊 7
磨 7
社會性 7
祕@@ 7
神 7
科目 7
稔 7
窯@@ 7
第00000000000 7
第0960@@ 7
第1240 7
第151 7
第164 7
第183 7
第199 7
第218 7
第231 7
第250 7
第252 7
第44064 7
第二@@ 7
策@@ 7
簽報 7
簾@@ 7
籤立@@ 7
米@@ 7
細節 7
細繹 7
結合 7
絜 7
經紀@@ 7
綻 7
縫@@ 7
縱屬 7
繁忙 7
羅@@ 7
考成 7
耗費 7
聚 7
肺@@ 7
腿 7
臉書 7
自不待言 7
自治 7
自非有據 7
至99年 7
航 7
若非 7
茍 7
莉 7
菇 7
菊 7
葬 7
葬@@ 7
蒂 7
藏 7
蘋@@ 7
處理@@ 7
虧損@@ 7
螺@@ 7
行」 7
行字 7
行政處分 7
行政訴訟 7
衡酌 7
表列 7
表系 7
被告會 7
裁判者 7
裂@@ 7
裝卸 7
製造部 7
覈 7
見證人 7
規劃@@ 7
規範@@ 7
親屬 7
覺@@ 7
覽 7
計算書 7
託兒所 7
記憶@@ 7
評鑑 7
詩 7
詩@@ 7
該「 7
該時 7
認「 7
認證人 7
誘@@ 7
誣陷 7
請訊 7
諒@@ 7
謠言 7
謹慎 7
謾罵 7
證人所述 7
警詢 7
議事錄 7
譽@@ 7
變相 7
負面 7
財務部 7
費」 7
賃@@ 7
資力 7
資遣」 7
賦 7
購單 7
起因性 7
車牌 7
輸入 7
轉讓」 7
辛勞 7
辨 7
迫@@ 7
週報 7
遣事 7
選舉 7
邦 7
都@@ 7
鄒@@ 7
酬」 7
重整 7
鈴 7
鉅@@ 7
銀 7
鋁@@ 7
錄音@@ 7
鑄@@ 7
門禁卡 7
開抗 7
開銷 7
間確 7
閱讀 7
關鍵 7
降@@ 7
降調 7
陳美@@ 7
隨後 7
電器 7
霸@@ 7
非依 7
非可歸責 7
頤@@ 7
飽@@ 7
餐飲 7
駁@@ 7
驗證 7
鮑@@ 7
麥 7
點數 7
 7
臺 7
 7
@@ 7
﹪ 7
０ 7
４@@ 7
Ｃ@@ 7
# 6
002 6
016 6
078 6
089 6
09@@ 6
100萬 6
18時 6
369 6
36萬 6
3時 6
400@@ 6
443 6
453 6
487 6
551 6
591 6
592 6
598 6
615 6
637 6
665 6
699 6
6日者 6
736 6
766 6
838 6
842 6
848 6
853 6
881 6
895 6
954 6
IC@@ 6
Line 6
St@@ 6
TE@@ 6
\ 6
and 6
ation 6
ry 6
se@@ 6
tion 6
u 6
×9 6
「病 6
「離 6
」同法 6
三十六 6
下述 6
丙○○之 6
中小@@ 6
中山@@ 6
中止 6
中華@@ 6
中部 6
串 6
主管@@ 6
主辦 6
也@@ 6
予資 6
事云云 6
交待 6
亭@@ 6
人事室 6
付99年 6
件人 6
任天堂 6
任用法 6
伊於 6
伏 6
休特 6
伸@@ 6
佛@@ 6
作業@@ 6
併購法 6
使用者 6
例休 6
依債 6
侮辱@@ 6
俗 6
保障@@ 6
俟 6
信函@@ 6
信實 6
信性 6
停薪@@ 6
傅 6
傍@@ 6
傲@@ 6
傳染@@ 6
傳統 6
僅@@ 6
僑 6
僱權 6
充其量 6
免費 6
兒 6
兒子 6
內外 6
全日@@ 6
公園 6
公營 6
冀 6
再行主張 6
出租 6
出言 6
出資@@ 6
刁難 6
分者 6
刑事訴訟法 6
初三 6
刷@@ 6
刻@@ 6
削 6
前詞 6
創造 6
劇 6
務處 6
勞務性 6
勞務者 6
勞工系 6
午 6
協同 6
即刻 6
及「 6
反舍 6
取款 6
只好 6
可行 6
合格者 6
吊扣 6
同業公會 6
同等 6
含有 6
和平 6
咖啡@@ 6
啥 6
喬@@ 6
嘗@@ 6
器材 6
嚼@@ 6
回證 6
回饋 6
困@@ 6
固定性 6
固須 6
園長 6
圖檔 6
坪 6
執行長 6
基本@@ 6
堪認系 6
報廢 6
塑膠@@ 6
壢 6
夥@@ 6
失去 6
失衡 6
夾@@ 6
契約法 6
如上所述 6
妊娠 6
始予 6
委任者 6
委託@@ 6
姵@@ 6
婿 6
媒@@ 6
媳@@ 6
字第 6
孩@@ 6
定期性 6
宣 6
室內 6
宮 6
害@@ 6
寅@@ 6
實屬 6
審事 6
審慎 6
寵@@ 6
小章 6
小組 6
屆時 6
展示 6
屬委 6
屬實者 6
峽@@ 6
崑@@ 6
崙 6
川@@ 6
己@@ 6
席 6
帶走 6
幫助 6
年0@@ 6
幹@@ 6
庶@@ 6
廚房 6
廳 6
建物 6
強制性 6
強行 6
彰@@ 6
影印 6
後始 6
必發 6
忽@@ 6
思者 6
恐怖 6
恝@@ 6
情事@@ 6
情事者 6
情境 6
惡化 6
意識 6
愷 6
慰 6
憲@@ 6
應計 6
承諾@@ 6
押@@ 6
拔@@ 6
指責 6
捏造 6
推動 6
提議 6
握 6
損傷 6
搜@@ 6
搬@@ 6
撕裂@@ 6
撥貸 6
撥金 6
撫金 6
撰 6
擅離 6
操控 6
據此@@ 6
擺@@ 6
攻@@ 6
斐@@ 6
斗@@ 6
方允 6
施者 6
旬 6
明文禁止 6
映@@ 6
晶 6
智識 6
書人 6
有事 6
有什 6
有害 6
朝 6
本系 6
李淑@@ 6
東縣 6
根 6
格者 6
械 6
棕 6
植@@ 6
業務行銷 6
標題 6
橋 6
櫻@@ 6
欺@@ 6
欺瞞 6
正職 6
殘 6
永續 6
汀 6
汶 6
沒關係 6
注意@@ 6
洪志@@ 6
活@@ 6
活動@@ 6
浙@@ 6
消防 6
淡 6
清潔工 6
溪 6
演@@ 6
漸 6
漸@@ 6
濟@@ 6
炫@@ 6
烽 6
無從據 6
無罪 6
無視 6
焦@@ 6
然非 6
燙 6
爬 6
物件 6
猜@@ 6
獅 6
獨 6
王秀@@ 6
琛 6
琦 6
璃@@ 6
甘 6
甘@@ 6
甚者 6
生產力 6
用戶 6
留言 6
疋 6
疵@@ 6
病者 6
痊@@ 6
痕 6
癒@@ 6
發性 6
發覺 6
盒@@ 6
監督@@ 6
盧@@ 6
相似 6
相距 6
相較 6
睡眠 6
督促 6
睿 6
祕書@@ 6
祖@@ 6
福士 6
禮金 6
私文 6
種@@ 6
稱之 6
穿@@ 6
穿著 6
竊@@ 6
竣 6
童@@ 6
符解僱 6
第096@@ 6
第161 6
第176 6
第178 6
第181 6
第207 6
第208 6
第211 6
第214 6
第225 6
第226 6
第242 6
第259 6
第447 6
第528 6
第573 6
第688 6
第801 6
管字 6
管理局 6
篇 6
簡化 6
簡卷 6
籤請 6
約束 6
紙箱 6
紡 6
累@@ 6
終身 6
經報 6
經臺 6
綽@@ 6
緯 6
縱原 6
縱如 6
縱未 6
總務@@ 6
罩 6
翌 6
習慣@@ 6
翼 6
聖 6
肉 6
脊@@ 6
腰@@ 6
臆測 6
臉@@ 6
臥@@ 6
自認者 6
致者 6
臺語 6
舉發 6
苑 6
菲@@ 6
萎縮 6
著重 6
薄 6
藉 6
藉金 6
號碼@@ 6
衡諸常情 6
被告「 6
被告始 6
被告服 6
裏@@ 6
補繳 6
補辦 6
親友 6
親班 6
計算云云 6
訓練」 6
訟@@ 6
訢@@ 6
訴者 6
註@@ 6
詐欺@@ 6
評估@@ 6
試算表 6
誌@@ 6
誠屬 6
說明@@ 6
誹謗 6
誹謗罪 6
調動@@ 6
調貨 6
諮@@ 6
諾 6
諾@@ 6
謠@@ 6
證者 6
識@@ 6
議會 6
議題 6
護人 6
貌 6
負債@@ 6
販售 6
費率 6
貿 6
賓@@ 6
贊@@ 6
起因@@ 6
趴 6
跌 6
跑@@ 6
跗@@ 6
身心@@ 6
輪胎 6
輪調 6
轉介 6
轉知 6
辦公桌 6
辯論@@ 6
迴@@ 6
退費 6
通訊@@ 6
連@@ 6
逸 6
過者 6
遣」 6
遣費者 6
適度 6
遮@@ 6
遵 6
邀 6
邊@@ 6
里 6
銜接 6
鋒 6
錚 6
錨 6
鍋爐 6
鎮@@ 6
鑄 6
門禁 6
開2 6
開事證 6
開放 6
間究 6
關係@@ 6
闡 6
闡@@ 6
限度 6
陪同 6
陳弘@@ 6
陷入 6
隙 6
障 6
雷@@ 6
非繼續性 6
靠@@ 6
面額 6
革@@ 6
鞋 6
韋@@ 6
韓@@ 6
韻@@ 6
頓 6
頸部 6
風暴 6
飯店 6
養護 6
餐店 6
馮@@ 6
騷擾 6
驅@@ 6
驗收 6
骨科 6
高雄市 6
鮮@@ 6
默 6
點」 6
齡 6
Ｉ 6
Ｐ 6
ｘ 6
' 5
....@@ 5
..@@ 5
017 5
028 5
041 5
061 5
095 5
2009年 5
2010年 5
2014年 5
21時 5
25年 5
269 5
33萬 5
341 5
359 5
449 5
44萬 5
459 5
485 5
499 5
50％ 5
514 5
526 5
562 5
572 5
70％ 5
732 5
759 5
772 5
774 5
814 5
823 5
849 5
856 5
861 5
876 5
906 5
907 5
924 5
927 5
928 5
969 5
984 5
@ 5
AB@@ 5
CO@@ 5
IC 5
LE@@ 5
SMT 5
SO@@ 5
U 5
el 5
el@@ 5
ent 5
ur@@ 5
us@@ 5
z 5
×7 5
‧@@ 5
②@@ 5
「夥 5
上下 5
上個@@ 5
不同 5
並舉 5
中小企業 5
主張@@ 5
主張渠 5
之99年 5
之內部 5
之月份 5
乾 5
事實@@ 5
事會 5
事業處 5
交往 5
交談 5
人手 5
仔細 5
代理@@ 5
任者 5
伊有 5
休」 5
佈 5
余@@ 5
供應@@ 5
依委 5
便當 5
係指@@ 5
保法 5
保育@@ 5
俞@@ 5
候 5
候羣 5
偏離 5
偕 5
做事 5
傷字 5
僵@@ 5
儒 5
兒@@ 5
全程 5
全職 5
公出 5
公平@@ 5
共事 5
其因 5
其說 5
凱翔 5
刀@@ 5
分層 5
分校 5
判定 5
別事 5
到庭 5
制前 5
制度@@ 5
剝@@ 5
剩餘月數 5
剪@@ 5
創傷 5
劇@@ 5
劉秀@@ 5
功 5
動搖 5
勞務之@@ 5
勤勉 5
北市 5
匿@@ 5
午餐 5
危及 5
即生 5
卷可@@ 5
卸 5
原系 5
參酌@@ 5
叭@@ 5
可參 5
合理化 5
君@@ 5
吳 5
吵@@ 5
吾 5
吾@@ 5
呈@@ 5
命令@@ 5
咐 5
善意 5
固於 5
固辯 5
地下 5
坑@@ 5
垃圾@@ 5
城 5
域 5
基層 5
基本原 5
基準日 5
堂@@ 5
堪可採信 5
報案 5
塞 5
塞@@ 5
境內 5
壽@@ 5
奪 5
她們 5
妻@@ 5
始行 5
始足@@ 5
委外 5
委無足採 5
姜@@ 5
娥@@ 5
婷@@ 5
媛 5
嬰@@ 5
存卷 5
它 5
安心 5
定書 5
宵@@ 5
宿 5
宿費 5
富羣 5
寒@@ 5
實者 5
專利 5
專職 5
對帳 5
尖 5
尚且 5
尚非 5
尺 5
屋@@ 5
展覽 5
岡@@ 5
島 5
崇@@ 5
工務 5
工程款 5
巨 5
希@@ 5
幅 5
幼兒 5
店面 5
廢棄物 5
延至 5
張德@@ 5
張秀@@ 5
張聰傑 5
強調 5
彈 5
形云云 5
彼@@ 5
復以 5
徹@@ 5
心情 5
志宏 5
患者 5
惟本院 5
惰 5
愈@@ 5
意涵 5
憤 5
憶 5
應對 5
懋 5
懸@@ 5
戚 5
房間 5
扣取 5
承作 5
承租 5
抄@@ 5
抓 5
投標 5
投票 5
抗力 5
抱 5
抽屜 5
抽菸 5
拷@@ 5
掌@@ 5
採訪 5
探求者 5
握@@ 5
揮@@ 5
搶 5
搶@@ 5
摔 5
操守 5
據實 5
據者 5
擦@@ 5
攜@@ 5
攤@@ 5
攷勤表 5
改正 5
敦@@ 5
敲@@ 5
敵@@ 5
新竹縣 5
新聞@@ 5
於本院 5
旨可參 5
昨@@ 5
昱 5
時始 5
時間表 5
暑假 5
暴@@ 5
曉得 5
曲 5
曲解 5
有所@@ 5
服員 5
本規 5
杏 5
束@@ 5
柱 5
核無必要 5
案卷 5
桐 5
椎@@ 5
楨@@ 5
概 5
機型 5
機械@@ 5
檔@@ 5
檢具 5
檢查處 5
檢驗@@ 5
櫫 5
權衡 5
歧異 5
殘廢@@ 5
毆@@ 5
毫 5
永傑 5
汐止 5
決定書 5
沅@@ 5
沐@@ 5
油漆 5
法務 5
泡@@ 5
洋@@ 5
津貼系 5
派任 5
混 5
測驗 5
湛 5
濟 5
瀞@@ 5
灌 5
焊@@ 5
焚@@ 5
無所據 5
煜 5
照護 5
燃@@ 5
爆@@ 5
爭合 5
猶執 5
獨立性 5
玄@@ 5
班」 5
璨@@ 5
瓣 5
甡@@ 5
甩 5
男女 5
異動@@ 5
疾@@ 5
瘀@@ 5
療 5
療養 5
發言 5
皮 5
盜用 5
盧 5
相近 5
眉@@ 5
睦 5
知之@@ 5
矧@@ 5
短繳 5
研究員 5
研究會 5
碌 5
碩 5
確切 5
碼@@ 5
祀 5
祁@@ 5
祖 5
祭@@ 5
禎 5
福利@@ 5
福利金 5
禮 5
禮貌 5
秩 5
種種 5
稱略 5
究屬 5
突 5
立榮 5
端@@ 5
第059605 5
第162 5
第166 5
第174 5
第177 5
第194 5
第205 5
第400 5
第488 5
第l 5
第四百七十@@ 5
算書 5
管理課 5
籤具 5
籤離 5
系「 5
約明 5
紡@@ 5
紫@@ 5
維繫 5
緒@@ 5
緣 5
緣由 5
總機 5
總行 5
繡@@ 5
繩@@ 5
繳交 5
繼@@ 5
纔@@ 5
罪責 5
翠 5
翻拍 5
聯絡@@ 5
職司 5
職書 5
肇因 5
肌腱 5
胸@@ 5
腦 5
腫 5
腰椎 5
自始@@ 5
自承系 5
自治@@ 5
自須 5
茂 5
菀 5
華南 5
萌 5
萬8 5
萬9 5
萱 5
董@@ 5
葦@@ 5
蓄意 5
蔣 5
蕊 5
薦@@ 5
薪云云 5
處分之@@ 5
蛋@@ 5
行主張 5
街@@ 5
表面 5
被上訴人@@ 5
被告欲 5
補助@@ 5
補提 5
製造@@ 5
覆核 5
規勸 5
規律 5
覽@@ 5
訃@@ 5
許文@@ 5
訴意 5
評審 5
詞辯 5
認證 5
誓 5
誡 5
課予 5
調班 5
謜 5
警方 5
豈@@ 5
負責@@ 5
財產@@ 5
貫@@ 5
費用@@ 5
貿然 5
資遣事 5
資遣費者 5
賞 5
賽 5
足憑 5
跟伊 5
身分之@@ 5
躺 5
車馬費 5
輕易 5
轉移 5
辛苦 5
迄未 5
迎@@ 5
迫使 5
退保@@ 5
逐步 5
速限 5
逢@@ 5
進口 5
逼@@ 5
遊 5
運費 5
遙@@ 5
遵從 5
選擇權 5
遽信 5
酌@@ 5
酌減 5
配件 5
配送 5
酗@@ 5
釐@@ 5
釘@@ 5
鈴@@ 5
鉤@@ 5
銓 5
銷權 5
錢@@ 5
錶@@ 5
鍋@@ 5
鍰@@ 5
鍵@@ 5
鐲 5
鑾 5
開薪資 5
間隔 5
間非 5
關係業 5
關心 5
阮@@ 5
附註 5
院長 5
陪@@ 5
陳志@@ 5
陳稱@@ 5
隊長 5
際@@ 5
隧道症 5
電子@@ 5
電梯 5
靈 5
頂 5
預 5
預告@@ 5
頗@@ 5
顆 5
飯@@ 5
餉@@ 5
養費 5
餽贈 5
驟 5
體恤 5
體檢 5
高中 5
高機 5
鬥@@ 5
麻煩 5
黃玉@@ 5
鼓@@ 5
齒@@ 5
龜@@ 5
ꆼ@@ 5
0 5
．．．@@ 5
．．．」 5
Ｂ 5
Ｍ 5
ＯＯ 5
Ｒ@@ 5
ｃ@@ 5
～@@ 5
0000000000 4
034 4
038 4
046 4
064 4
10％ 4
1億 4
2008年 4
20％ 4
261 4
2×1 4
300萬 4
321 4
364 4
392 4
42@@ 4
46萬 4
494 4
497 4
531 4
537 4
688 4
689 4
718 4
734 4
751 4
779 4
795 4
80萬 4
836 4
958 4
963 4
APQ 4
AT@@ 4
Li@@ 4
MR@@ 4
Z 4
ai@@ 4
all 4
il 4
or 4
ou 4
the 4
“ 4
①@@ 4
⑧@@ 4
─@@ 4
「特定性 4
「能 4
「除 4
上卷 4
上易字 4
上華 4
下面 4
並予 4
中區 4
主持人 4
乖 4
乙○○○@@ 4
予伊 4
事業@@ 4
事業部 4
亙@@ 4
交接@@ 4
人壽@@ 4
人字 4
人生 4
人評會 4
仟@@ 4
代工 4
以爲@@ 4
伙@@ 4
佑@@ 4
何處 4
佩妤 4
佯@@ 4
侑 4
侖@@ 4
依賴 4
俐 4
保安 4
保證金 4
俟@@ 4
信託@@ 4
俱@@ 4
偵訊 4
僱時 4
儒@@ 4
儘@@ 4
儘快 4
優 4
兄 4
全案 4
公事 4
公佈欄 4
公教 4
公益 4
其自 4
冬@@ 4
冷 4
函件 4
分攤 4
分支 4
初犯 4
利勞工 4
刪 4
到時 4
刺 4
削@@ 4
剩@@ 4
劃分 4
加註 4
勉 4
務必 4
務所 4
勞工所 4
勢@@ 4
匝@@ 4
匿 4
即非 4
卵@@ 4
厲 4
受命 4
古 4
吳宗@@ 4
呼@@ 4
品牌 4
哨@@ 4
唆 4
商標 4
商號 4
商談 4
嗯 4
嚴謹 4
嚷 4
囊 4
固主 4
固非 4
國人 4
國小 4
地下@@ 4
圳@@ 4
垣@@ 4
培 4
基地 4
堆@@ 4
堡 4
報告單 4
報酬@@ 4
塑 4
塑@@ 4
墩 4
壓迫 4
壢@@ 4
壽 4
失控 4
奔@@ 4
如實 4
妨 4
姍@@ 4
委託書 4
姻 4
婕 4
嫂 4
孝 4
孤@@ 4
宕@@ 4
宙 4
定之 4
害人 4
害怕 4
宸 4
實驗室 4
尊@@ 4
對抗 4
小結 4
屏東縣 4
展延 4
屯 4
島@@ 4
崁 4
崙@@ 4
川 4
已然 4
幻@@ 4
府@@ 4
廂 4
引發 4
強制@@ 4
影響者 4
得標 4
得視 4
復觀 4
微 4
性者 4
恥@@ 4
恪@@ 4
恫@@ 4
悶@@ 4
惜 4
惡 4
愔@@ 4
慈@@ 4
態性 4
戊 4
扇 4
扭@@ 4
承辦人 4
技術性 4
抵扣 4
抽成 4
拓展 4
招待 4
拳 4
按勞工 4
捌@@ 4
掩@@ 4
描述 4
援@@ 4
搭配 4
摘要 4
摩@@ 4
撙@@ 4
擡 4
收繳 4
收費@@ 4
效日 4
效能 4
救 4
敘薪 4
料件 4
斡@@ 4
旁@@ 4
旅 4
旅費 4
旋@@ 4
旋於 4
昇@@ 4
星@@ 4
時程 4
晏 4
曳 4
更名 4
書系 4
有疑 4
有礙 4
服務員 4
服務部 4
期性 4
本意 4
本院證 4
林建@@ 4
林文@@ 4
枝@@ 4
柒@@ 4
栽@@ 4
桃園@@ 4
案」 4
桌上 4
棧@@ 4
棱@@ 4
極爲 4
榛@@ 4
樊@@ 4
模糊 4
櫃員 4
此情 4
此際 4
歷表 4
民航局 4
汰 4
況查 4
海嘯 4
涵@@ 4
淘@@ 4
渡@@ 4
渣 4
渥 4
游 4
滐 4
漂@@ 4
演 4
漫 4
漿@@ 4
澤 4
激 4
濃度 4
瀏@@ 4
火災 4
烤@@ 4
無必要 4
無稽 4
然參 4
然尚 4
然衡 4
煤@@ 4
熄@@ 4
熊@@ 4
熹@@ 4
營業部 4
物業 4
犧牲 4
獎勵@@ 4
獻@@ 4
王天@@ 4
玟@@ 4
玫@@ 4
珍@@ 4
珠@@ 4
球 4
理由@@ 4
琇瑩 4
產能 4
田 4
甲○ 4
畏@@ 4
當性 4
病症 4
發包 4
白天 4
皇@@ 4
盡善良 4
目睹 4
相片 4
矩 4
砍 4
研 4
破 4
確定者 4
確知 4
碼頭 4
磚 4
礙於 4
祇@@ 4
祝 4
禮拜六 4
私用 4
秩@@ 4
稅金 4
窺@@ 4
竣@@ 4
第0000000000號函 4
第1031 4
第1118 4
第1301 4
第152 4
第158 4
第172 4
第190 4
第198 4
第220 4
第221 4
第222 4
第249 4
第260 4
第489 4
筆記@@ 4
等候 4
筋@@ 4
糕 4
約金 4
紅包 4
紊@@ 4
紋 4
納稅 4
紛 4
紛@@ 4
組織者 4
絡@@ 4
絨 4
維護@@ 4
緊張 4
締@@ 4
縱依 4
總務部 4
繁 4
繩 4
繪@@ 4
繳付 4
纔 4
罔@@ 4
罪@@ 4
翊@@ 4
習@@ 4
耀 4
耐@@ 4
耕 4
耗 4
耽@@ 4
聘約 4
聚餐 4
聞@@ 4
聯結車 4
職事 4
職務@@ 4
職金 4
聿 4
肄@@ 4
股長 4
肩@@ 4
背信 4
脫 4
膜@@ 4
臂 4
臨牀 4
自91年 4
自主權 4
自負 4
致電 4
興業 4
舉出 4
舖 4
艱 4
艱@@ 4
芝@@ 4
芷@@ 4
草 4
菸 4
萃@@ 4
萍@@ 4
董 4
蔆 4
蔑 4
薛@@ 4
虧@@ 4
蜂@@ 4
融 4
蠻 4
行李 4
行走 4
衍 4
衍@@ 4
衡以 4
被告處 4
複製 4
見到 4
規章@@ 4
規範目 4
觸犯 4
計劃@@ 4
訴部 4
該會 4
認此 4
誤認 4
說明欄 4
調解會 4
請休 4
諺 4
謫 4
謬@@ 4
謹@@ 4
證五 4
譚@@ 4
議決 4
谷 4
豁@@ 4
負重 4
資歷 4
資部 4
賸 4
贅@@ 4
趣@@ 4
足據 4
跡@@ 4
路○ 4
軸 4
載送 4
輔導@@ 4
轄@@ 4
轉述 4
辨識 4
辭職書 4
辱@@ 4
農 4
迫 4
追求 4
追訴 4
退化性 4
逃避 4
透@@ 4
逗@@ 4
過戶 4
邑 4
郭 4
郵 4
酒精 4
酬@@ 4
醉@@ 4
金管會 4
銓@@ 4
錄用 4
鑽@@ 4
鑿 4
長久 4
開約 4
闖@@ 4
附計 4
除此之外 4
陳世@@ 4
隨之 4
隨同 4
雲雲 4
零售@@ 4
靆@@ 4
靖@@ 4
靡@@ 4
韌@@ 4
韞@@ 4
韻 4
響 4
頁正 4
項」 4
頒@@ 4
頒訂 4
頗 4
頸 4
頻 4
類別 4
飾 4
香 4
馨 4
駁回@@ 4
駒 4
騷@@ 4
驟@@ 4
髒 4
高速@@ 4
高雄@@ 4
魚 4
鳴 4
鸞 4
麟@@ 4
麪@@ 4
黃淑@@ 4
鼠 4
 4
︰ 4
﹍ 4
﹖ 4
＃ 4
９@@ 4
Ａ 4
Ａ@@ 4
Ｔ@@ 4
 3
045 3
065 3
12點 3
3號 3
40分 3
426 3
474 3
674 3
684 3
695 3
701 3
731 3
803 3
811 3
887 3
911 3
932 3
972 3
IP 3
IP@@ 3
PC@@ 3
TA@@ 3
TC 3
ag@@ 3
ce 3
en 3
es 3
ev@@ 3
for@@ 3
li@@ 3
ll 3
ma@@ 3
z@@ 3
‧」 3
⑤@@ 3
⑦@@ 3
⑧ 3
⑨ 3
「一 3
「上訴人 3
「知 3
「臺 3
」一@@ 3
㠏@@ 3
丙○○所 3
中文 3
中風 3
主持 3
乏@@ 3
九十六@@ 3
乳@@ 3
亂@@ 3
二級 3
五年 3
亙 3
亡者 3
交通局 3
亳 3
人選 3
付費 3
付金 3
代替性 3
代表@@ 3
任意性 3
企劃 3
伊系 3
休假權 3
佐以 3
佔@@ 3
佔有 3
你@@ 3
併@@ 3
來不@@ 3
例者 3
侖 3
依一 3
依聘 3
依誠 3
便於 3
保守 3
信用@@ 3
信者 3
倦@@ 3
偵卷 3
傻@@ 3
優劣 3
儲 3
允當 3
元 3
兆 3
兌換 3
公務@@ 3
公正 3
其所述 3
冠 3
函附 3
分之一 3
分之二 3
初期 3
判字 3
刮 3
制式 3
刷卡 3
劍@@ 3
劣@@ 3
勵@@ 3
包裝@@ 3
匹 3
午休 3
危@@ 3
厚@@ 3
厝@@ 3
原議 3
叉@@ 3
友 3
只@@ 3
各位 3
各別 3
吻合 3
吼 3
呀 3
哩 3
哭@@ 3
嘉義@@ 3
嚴重@@ 3
囊@@ 3
固堪 3
國軍 3
在職者 3
坊@@ 3
坦 3
垂 3
型號 3
埸 3
堅決 3
報告@@ 3
堵 3
塔 3
墨 3
墾 3
墾@@ 3
壕 3
壺 3
外場 3
夥伴 3
大慶 3
失當 3
奈 3
奎 3
契約工 3
妝@@ 3
妤 3
婊@@ 3
嫺@@ 3
學會 3
學科 3
學術 3
學院 3
定型 3
定發 3
客艙 3
宸@@ 3
寄予 3
富邦 3
實發 3
審酌@@ 3
寮 3
專屬 3
小額 3
尖@@ 3
尬 3
尷@@ 3
尹@@ 3
尺@@ 3
尺寸 3
屈 3
屈@@ 3
履歷表 3
峨@@ 3
崗@@ 3
嶽 3
巢 3
巴 3
市○○區@@ 3
幕 3
幼兒園 3
广@@ 3
庸 3
廁@@ 3
廉 3
廟@@ 3
弊@@ 3
張文@@ 3
彬@@ 3
影響@@ 3
徒刑 3
必要@@ 3
必要云云 3
忽 3
怒 3
怠 3
怠忽@@ 3
恰 3
恰@@ 3
恿 3
悠@@ 3
您@@ 3
悲 3
情形@@ 3
感謝 3
慫@@ 3
憑取 3
憶@@ 3
應堪信 3
懲罰@@ 3
懸 3
戲@@ 3
所在@@ 3
手續費 3
才@@ 3
扞@@ 3
抓@@ 3
拉扯 3
拌 3
拘 3
拜@@ 3
拼 3
拼@@ 3
挪 3
挪@@ 3
挽@@ 3
挾 3
掌管 3
接管 3
推測 3
推薦 3
措 3
揭存證 3
揭證人 3
摘@@ 3
撐 3
撕 3
撰@@ 3
撿 3
擔保@@ 3
擠 3
擡@@ 3
擱@@ 3
攀 3
攏 3
攬 3
改用 3
攻 3
救護車 3
敗@@ 3
斗 3
既定 3
旻@@ 3
易科 3
昨天 3
晨 3
暢 3
暴露 3
暸@@ 3
曄 3
曉 3
會議@@ 3
有餘 3
本合 3
本部 3
杉@@ 3
李祥@@ 3
李美@@ 3
村@@ 3
枉 3
枉@@ 3
枋@@ 3
析 3
柴@@ 3
桃園市 3
桿 3
梧@@ 3
棄@@ 3
棧 3
棲@@ 3
構 3
樓層 3
樺@@ 3
機房 3
檢測 3
檳@@ 3
檻 3
權」 3
歐 3
正常@@ 3
正本系 3
歧@@ 3
歲@@ 3
殆 3
毆 3
比例者 3
民間 3
汁 3
汁@@ 3
汪 3
決定@@ 3
沖@@ 3
河@@ 3
沿用 3
泄 3
泉@@ 3
泓@@ 3
浮報 3
液@@ 3
淋 3
淋@@ 3
深 3
混合 3
渝 3
渠@@ 3
測量 3
湊 3
湘 3
湛@@ 3
溶@@ 3
滅 3
滌@@ 3
滾@@ 3
漆 3
漢@@ 3
漿 3
潛@@ 3
潮 3
澈 3
濂@@ 3
濃@@ 3
濫@@ 3
瀅 3
瀆 3
炯@@ 3
烊 3
烏@@ 3
焊 3
焊接 3
然前 3
煉@@ 3
煞@@ 3
煽@@ 3
熊 3
營私舞弊 3
爍 3
爭執@@ 3
爽@@ 3
牟 3
牽 3
牽@@ 3
牽涉 3
犬@@ 3
狹@@ 3
狼@@ 3
獅@@ 3
獨@@ 3
獻 3
王文@@ 3
王明@@ 3
玟 3
珊 3
珩 3
現任 3
瑰 3
環保 3
瓶 3
甜 3
生日 3
產物 3
用期 3
由此可見 3
畔 3
畫@@ 3
疤@@ 3
痕@@ 3
登記簿 3
百萬 3
益者 3
盟@@ 3
相合 3
督 3
睦@@ 3
瞪 3
矇@@ 3
矚@@ 3
矢@@ 3
知之甚詳 3
短領 3
砸 3
碎 3
碟@@ 3
確信者 3
磯 3
礦@@ 3
祗@@ 3
神@@ 3
祿 3
福祉 3
私權 3
秉 3
稱之非 3
穩@@ 3
空勤 3
窒礙 3
窗 3
窺 3
竊盜 3
立證 3
竹北 3
笨 3
第00000000@@ 3
第1696 3
第200 3
第204 3
第206 3
第210 3
第216 3
第219 3
第228 3
第238 3
第328@@ 3
第4款 3
簡報 3
簽 3
簽到@@ 3
籠@@ 3
籬 3
粘@@ 3
糖@@ 3
給@@ 3
絲 3
絲@@ 3
經理室 3
綜此 3
維生 3
綸 3
綸@@ 3
綺 3
綺@@ 3
編列 3
緯@@ 3
繕@@ 3
繫@@ 3
缺席 3
罐 3
美元 3
美容師 3
羿 3
翼@@ 3
聊@@ 3
聲稱 3
肅@@ 3
肆@@ 3
肌肉 3
肢@@ 3
胃@@ 3
脅 3
腔 3
腹 3
膏 3
膠@@ 3
臆@@ 3
臨@@ 3
臨時@@ 3
自次月 3
自由權 3
臺南市 3
臺塑 3
臺灣@@ 3
臻@@ 3
舞@@ 3
舟@@ 3
艙@@ 3
色@@ 3
艾@@ 3
花蓮 3
茍@@ 3
菸區 3
葳 3
葳@@ 3
蒐集 3
蓁 3
蕙 3
蕙@@ 3
薦 3
藍 3
藥費 3
蘭@@ 3
蛇@@ 3
蛛@@ 3
螢@@ 3
血 3
行員 3
衡平 3
裝備 3
褲 3
覈定@@ 3
見本院 3
見面 3
規定@@ 3
計程@@ 3
計酬@@ 3
訴願 3
詠@@ 3
誌 3
認勞 3
認股 3
誘 3
誡@@ 3
誥 3
說法 3
誼@@ 3
諉@@ 3
論期 3
謗 3
證件 3
譯@@ 3
議書 3
譽 3
變賣 3
豆 3
豫 3
貝 3
貝@@ 3
財務@@ 3
財務長 3
貧@@ 3
貪污 3
責任額 3
買@@ 3
貽@@ 3
資源@@ 3
賈@@ 3
賜@@ 3
賞@@ 3
賴美@@ 3
趁 3
趙 3
趙文@@ 3
踐@@ 3
踩 3
蹟 3
躍 3
軌 3
軟 3
輻@@ 3
輾@@ 3
轄市 3
轎@@ 3
辣 3
迄99年 3
迥然@@ 3
迭@@ 3
迴護 3
迷@@ 3
進出口 3
遂@@ 3
過之處分 3
遣散@@ 3
邁 3
還@@ 3
邱平@@ 3
酒後 3
醉 3
醒 3
醜@@ 3
醫事 3
醫療@@ 3
釀@@ 3
鉛@@ 3
銜 3
銳@@ 3
錫 3
鍈@@ 3
鍋 3
鐲@@ 3
閒 3
間者 3
閻@@ 3
闆@@ 3
闔 3
闕@@ 3
防 3
阿@@ 3
陳報@@ 3
陳情@@ 3
陳癸銘 3
陳逸@@ 3
陽明 3
隋 3
隨身 3
隱 3
隸 3
隻@@ 3
雞@@ 3
離職止 3
難行者 3
零售 3
電磁 3
電臺 3
電話@@ 3
非委 3
須知 3
領月 3
頸椎 3
顗@@ 3
願性 3
飯 3
飲料 3
飽 3
餐飲@@ 3
餐點 3
餬@@ 3
饋@@ 3
首揭 3
驚@@ 3
骸@@ 3
髓 3
髖@@ 3
高層 3
髮@@ 3
鬥 3
麒 3
麗玲 3
鼻@@ 3
齟@@ 3
齬 3
@@ 3
@@ 3
@@ 3
@@ 3
@@ 3
@@ 3
@@ 3
﹔ 3
﹕ 3
．．@@ 3
１@@ 3
３@@ 3
６ 3
Ｂ@@ 3
Ｅ 3
Ｓ 3
Ｓ@@ 3
Ｚ@@ 3
....」 2
00號函 2
012 2
01日 2
01月 2
069 2
085 2
14時 2
19時 2
347 2
437 2
454 2
463 2
49萬 2
548 2
566 2
599 2
641 2
799 2
843 2
899 2
AN@@ 2
IT 2
ND 2
PI 2
_ 2
ase 2
min@@ 2
mplo@@ 2
q@@ 2
ra@@ 2
÷@@ 2
ˇ@@ 2
‧‧‧ 2
→@@ 2
○○年 2
「凡 2
〤 2
上訴者 2
世賢 2
主訴 2
乎@@ 2
了@@ 2
云 2
亞洲 2
亭 2
什@@ 2
仇@@ 2
仍@@ 2
仕@@ 2
付量 2
任書 2
任用@@ 2
仿 2
伴 2
佘 2
作人 2
佶@@ 2
侑@@ 2
依下列 2
依首 2
侯 2
侯@@ 2
侷@@ 2
係 2
係@@ 2
俇@@ 2
保員 2
保職 2
保證@@ 2
保護@@ 2
保險費用 2
信義 2
修法 2
倚@@ 2
值日 2
偏袒 2
偕@@ 2
健保@@ 2
偵 2
偵續 2
傳播 2
僚@@ 2
僞 2
僱合 2
兇@@ 2
兌 2
免予 2
公關 2
其系 2
冬 2
冰@@ 2
冰箱 2
凃 2
凃@@ 2
凰@@ 2
刑案 2
刪@@ 2
券@@ 2
前所述 2
劉文@@ 2
劉碧@@ 2
加班單 2
勁 2
勇@@ 2
勿@@ 2
匈@@ 2
匙 2
匙@@ 2
匠 2
協調@@ 2
卯@@ 2
即月 2
卷可參 2
卷可考 2
卷足參 2
卹@@ 2
友達 2
反應@@ 2
反觀 2
受任人 2
口腔 2
可得而知 2
史 2
合理@@ 2
同仁@@ 2
吐@@ 2
吝 2
吻 2
呆帳 2
咄@@ 2
咆@@ 2
咎 2
哦 2
哭 2
哺@@ 2
唐@@ 2
商量 2
喉 2
喙 2
喳 2
嗆 2
嘉義市 2
嘲@@ 2
嚇@@ 2
囂 2
困 2
圈 2
國都 2
地上 2
地勤 2
址@@ 2
坡 2
坳@@ 2
堯@@ 2
場地 2
墓@@ 2
壁@@ 2
壯@@ 2
夙@@ 2
奮 2
妄@@ 2
妝 2
妨@@ 2
姊@@ 2
姓@@ 2
姪@@ 2
姬 2
娟@@ 2
娶 2
媒 2
孟 2
宅@@ 2
安胎 2
完善 2
定目 2
宜蘭 2
宜蘭@@ 2
宮@@ 2
宴@@ 2
寓 2
寥@@ 2
實系 2
寸 2
專任 2
小字 2
屍@@ 2
屏 2
層級 2
岑@@ 2
崖@@ 2
崗 2
嵌 2
巢@@ 2
工安 2
工業@@ 2
差勤 2
巳 2
巳@@ 2
幕@@ 2
干 2
店員 2
廚師 2
廚餘 2
弓 2
張明@@ 2
張玉@@ 2
彰化縣 2
很@@ 2
徐瑞其 2
徐美@@ 2
徒@@ 2
怨@@ 2
恣 2
恨 2
恬 2
恭 2
悉」 2
悵 2
情詞 2
惆@@ 2
感到 2
慘@@ 2
慾 2
憂 2
憤@@ 2
戌@@ 2
截 2
戰@@ 2
所長 2
托兒 2
扛 2
扯 2
扶 2
抂@@ 2
抨@@ 2
拋 2
拘@@ 2
招 2
招標 2
招聘 2
挺 2
捍@@ 2
掀@@ 2
掉@@ 2
掐 2
控股 2
推銷 2
描 2
揮 2
搖@@ 2
摩 2
撐@@ 2
撤櫃 2
擁@@ 2
擊@@ 2
操@@ 2
擴 2
擺 2
攔 2
攜 2
攝@@ 2
攝影@@ 2
攬@@ 2
攸@@ 2
敦 2
斜 2
斡 2
斥@@ 2
昊 2
易字 2
昔@@ 2
春榮 2
昧 2
時代 2
時準 2
時間@@ 2
晉 2
晴@@ 2
暄 2
暇 2
暑@@ 2
暗@@ 2
曝@@ 2
曲@@ 2
有利@@ 2
朋 2
服本 2
服藥 2
本件@@ 2
本行 2
李彥@@ 2
李榮@@ 2
杜 2
束 2
杭@@ 2
林永@@ 2
柄@@ 2
柏 2
柑 2
柑@@ 2
柔 2
柯 2
柳@@ 2
核非 2
格權 2
梯@@ 2
械@@ 2
椿@@ 2
楣 2
榴 2
槽@@ 2
橫 2
檢員 2
欺 2
歇@@ 2
正輝 2
此據 2
殆@@ 2
毒 2
毛 2
氧@@ 2
汐@@ 2
汝@@ 2
池@@ 2
汶@@ 2
決策權 2
泙 2
泛稱 2
泣 2
泱@@ 2
泳@@ 2
洞 2
活 2
消 2
淚 2
淮@@ 2
混凝土 2
清潔員 2
清算@@ 2
渴 2
溜@@ 2
溼 2
滄 2
滯@@ 2
演出 2
漠@@ 2
潑 2
潮@@ 2
澤@@ 2
澹@@ 2
濫 2
瀅@@ 2
瀧 2
灑 2
灣 2
灼 2
炎@@ 2
烘@@ 2
焄 2
焙 2
無待 2
無所@@ 2
然已 2
然本院 2
然由 2
煌@@ 2
煜@@ 2
燊 2
營業處 2
燬 2
燴 2
爭訟 2
牟@@ 2
犒@@ 2
狗@@ 2
狠 2
狹 2
猷@@ 2
獨立@@ 2
珀@@ 2
珊@@ 2
珒 2
班機 2
琇 2
琦@@ 2
瑛@@ 2
瑩@@ 2
璉 2
璜@@ 2
璟@@ 2
璿 2
瓊 2
瓶@@ 2
瓷 2
生活@@ 2
甡 2
產量 2
產險 2
用金 2
甫@@ 2
由此@@ 2
申覆@@ 2
畑 2
略@@ 2
番@@ 2
疊 2
疊@@ 2
疲 2
疲@@ 2
疼@@ 2
疾 2
疾患 2
痂@@ 2
瘋 2
療程 2
癌@@ 2
皖@@ 2
益表 2
盜 2
監理 2
盯@@ 2
盲@@ 2
相機 2
看護@@ 2
眠 2
眠@@ 2
睡 2
睬 2
瞌 2
瞬 2
知會 2
碟 2
碰撞 2
祈@@ 2
祕 2
祕書長 2
禕@@ 2
科學 2
秤 2
稍@@ 2
稚 2
窩@@ 2
窮 2
竄@@ 2
竇 2
第00000000 2
第1868 2
第202 2
第224 2
第240 2
第251 2
第335 2
第497 2
第502 2
箋 2
管控 2
管理室 2
管理權 2
篡@@ 2
簷 2
籃@@ 2
籠 2
糊@@ 2
糟 2
紗 2
紗@@ 2
紳@@ 2
結清@@ 2
結算@@ 2
絛 2
絛@@ 2
統聯 2
絹 2
經營@@ 2
經銷@@ 2
綜據 2
綱 2
綾 2
緊@@ 2
緗 2
緗@@ 2
締 2
總監 2
織@@ 2
纂 2
續期 2
纖@@ 2
罰@@ 2
罵@@ 2
美容@@ 2
翹@@ 2
考覈@@ 2
耕@@ 2
耳 2
耶 2
聰 2
肅 2
肋@@ 2
肌@@ 2
肚@@ 2
肝@@ 2
肱@@ 2
背痛 2
胡 2
能性 2
脅@@ 2
脈 2
脖@@ 2
脛 2
脾@@ 2
臟 2
自主@@ 2
自動化 2
臭 2
致伊 2
臺中縣 2
臺南@@ 2
臺東 2
臺電 2
興建 2
舜@@ 2
船@@ 2
芙@@ 2
芭@@ 2
苑@@ 2
苗栗 2
苦 2
苦@@ 2
茶 2
茶@@ 2
荒@@ 2
莘 2
莞@@ 2
菁@@ 2
菌 2
葸 2
蒂@@ 2
蒙@@ 2
蒜 2
蒸@@ 2
蒼 2
蓁@@ 2
蓉@@ 2
蓓 2
蔽 2
藐@@ 2
處分@@ 2
蜂 2
蜜@@ 2
蠻@@ 2
衊 2
行政局 2
衛室 2
衹 2
袖@@ 2
補助款 2
裝載 2
襄@@ 2
襲 2
規避@@ 2
覓@@ 2
角色 2
觸 2
觸@@ 2
訐 2
訓練者 2
訛 2
訛@@ 2
許金@@ 2
評論 2
該名 2
詹 2
誆@@ 2
誇@@ 2
誕 2
誣 2
諭@@ 2
諱@@ 2
諳 2
謊 2
讚@@ 2
豔@@ 2
販@@ 2
費者 2
資佐證 2
質性 2
贅 2
贈與 2
贊 2
贓 2
起始 2
超越 2
跌@@ 2
跨@@ 2
路0 2
踏@@ 2
蹠 2
蹲 2
蹲@@ 2
躲@@ 2
車票 2
軸@@ 2
輛@@ 2
輸@@ 2
辦公處 2
迪 2
迴 2
迷 2
通用 2
進修 2
過於 2
違反@@ 2
遜 2
適宜 2
遵@@ 2
邀請 2
邕 2
郊@@ 2
鄔 2
鄙 2
鄰 2
酉@@ 2
酬勞 2
酸@@ 2
醫理 2
重慶 2
金門 2
鈕 2
鉗 2
鉚@@ 2
銑@@ 2
銲@@ 2
鋪@@ 2
錡 2
鍛@@ 2
鏘 2
鏡@@ 2
鐘點費 2
鐸 2
鐿 2
鑰@@ 2
鑿@@ 2
開二 2
開戶 2
開條 2
閔 2
閔@@ 2
闢 2
附繕 2
陣 2
除此@@ 2
陳國@@ 2
陳榮@@ 2
陳淑@@ 2
陳秋@@ 2
陳詞 2
陷 2
障@@ 2
隴 2
集體 2
電費 2
霑 2
霖@@ 2
霧 2
露@@ 2
頷 2
頷@@ 2
顎 2
顱@@ 2
顳@@ 2
顴 2
顴@@ 2
飼@@ 2
飾@@ 2
餅@@ 2
饗@@ 2
馨@@ 2
駒@@ 2
駕照 2
骼 2
髕@@ 2
髖 2
高血壓 2
鬧@@ 2
鬼 2
鱉@@ 2
鳥 2
鹹 2
鹹@@ 2
鹿 2
黃國@@ 2
黃明@@ 2
黃瑞@@ 2
鼻 2
 2
 2
 2
@@ 2
@@ 2
 2
︰@@ 2
﹑ 2
﹙@@ 2
﹚ 2
﹝@@ 2
．． 2
／@@ 2
０@@ 2
２@@ 2
５ 2
Ｄ 2
Ｇ@@ 2
Ｈ@@ 2
Ｍ@@ 2
Ｑ@@ 2
Ｒ 2
Ｔ 2
 1
/@@ 1
126@@ 1
1776 1
442 1
587 1
589 1
829 1
919 1
CA@@ 1
MT 1
\@@ 1
^ 1
` 1
`@@ 1
v 1
will 1
ˇ 1
— 1
’ 1
→ 1
≧ 1
⑨@@ 1
⑩ 1
⑩@@ 1
── 1
□ 1
▲ 1
☆ 1
〉@@ 1
ㄍ@@ 1
ㄢ@@ 1
ㄧ 1
ㄧ@@ 1
一百零一 1
下載 1
丙方 1
中油 1
串@@ 1
丸@@ 1
丹 1
事錄 1
于@@ 1
井@@ 1
亡@@ 1
交通車 1
仔@@ 1
仗@@ 1
仙@@ 1
仰@@ 1
任意@@ 1
企 1
休憩 1
休養@@ 1
但@@ 1
住宅 1
住院@@ 1
作息@@ 1
佣@@ 1
佩 1
侈@@ 1
例行性 1
侮 1
保書 1
保險業 1
倖 1
倦 1
倨@@ 1
健全 1
偲@@ 1
催告@@ 1
傲 1
傳聞 1
像@@ 1
僚 1
僥@@ 1
僵 1
儷@@ 1
元大 1
光電 1
公衆 1
冀@@ 1
冤@@ 1
冶@@ 1
准 1
凍 1
出廠 1
出所 1
刃@@ 1
刑責 1
判費 1
別證 1
刺@@ 1
則@@ 1
剖@@ 1
劉明@@ 1
劣 1
努 1
勘 1
勳@@ 1
匆@@ 1
化工 1
匠@@ 1
匡 1
匪 1
匪@@ 1
卑@@ 1
南市 1
南投@@ 1
南投縣 1
卯 1
印鑑 1
危 1
危險@@ 1
卷二 1
卿@@ 1
厭@@ 1
參本 1
叡 1
叮@@ 1
可歸責 1
可認 1
叱 1
叵@@ 1
司北勞 1
合庫 1
吐 1
吳雅@@ 1
吸 1
呂 1
呵 1
呼吸 1
咬 1
咬@@ 1
咳@@ 1
哀@@ 1
哈 1
哈@@ 1
員會 1
哦@@ 1
哪@@ 1
唁@@ 1
唆@@ 1
唱@@ 1
唸@@ 1
商行 1
啓 1
啤@@ 1
啪 1
啻 1
喂 1
喚 1
喧@@ 1
嗆@@ 1
嗜 1
嗨 1
嗯@@ 1
嗽 1
嘆 1
嘉義縣 1
嘯 1
噪@@ 1
噴 1
嚀 1
囂@@ 1
圈@@ 1
國防@@ 1
圜 1
地面 1
圳 1
垣 1
埋@@ 1
基準法所定 1
堪可 1
報名 1
塌 1
境@@ 1
墘 1
墜 1
墨@@ 1
墬@@ 1
壓縮 1
壤@@ 1
夕 1
天然@@ 1
太平@@ 1
央@@ 1
奢@@ 1
奮@@ 1
奴@@ 1
奶 1
妄 1
妍@@ 1
姆 1
姊 1
委任人@@ 1
委會 1
姚@@ 1
姝@@ 1
姦 1
姪 1
姵 1
娃 1
娃@@ 1
娛@@ 1
娜@@ 1
娢@@ 1
婆@@ 1
婊 1
婕@@ 1
婿@@ 1
媳 1
嫁 1
嫦@@ 1
嬰 1
孕 1
孚 1
孰 1
孰@@ 1
宅 1
安泰 1
宏恩 1
宏達 1
宛@@ 1
客房 1
宿@@ 1
寒 1
寡@@ 1
審裁 1
寬裕 1
專車 1
尊 1
尼 1
尼@@ 1
屢@@ 1
屹@@ 1
峯@@ 1
崩@@ 1
嵐 1
嶸 1
工程行 1
巫 1
巴士 1
巾 1
巿 1
巿@@ 1
市○○○@@ 1
帆@@ 1
希 1
帖 1
帛@@ 1
帝@@ 1
帥 1
師法 1
帽@@ 1
平法 1
幸福 1
幼童 1
庫@@ 1
庶 1
康寧 1
廚 1
廟 1
廢棄@@ 1
建案 1
廿 1
廿@@ 1
引進 1
弭@@ 1
張雅@@ 1
強化 1
強烈 1
彈@@ 1
彌 1
彌@@ 1
彤 1
彩 1
彪@@ 1
徐瑞@@ 1
得而@@ 1
徙@@ 1
徠 1
復主 1
復健科 1
復興 1
徵收 1
徹 1
忌 1
忌@@ 1
志願 1
念@@ 1
怖 1
急性 1
恃 1
恝 1
恢@@ 1
恣@@ 1
恤 1
恫 1
悍 1
悖@@ 1
悟 1
惜@@ 1
惶 1
惶@@ 1
惹 1
惹@@ 1
愆 1
愉 1
愉@@ 1
愎 1
愕 1
愚 1
感情 1
愧@@ 1
慌 1
慌@@ 1
慚@@ 1
慣 1
慧玲 1
慨 1
慷@@ 1
慼@@ 1
憎@@ 1
憚 1
憩 1
憫 1
憾 1
懂@@ 1
懇 1
應行 1
應非 1
懊@@ 1
懟 1
懶@@ 1
懼@@ 1
懿@@ 1
戎@@ 1
戮@@ 1
戰 1
房地 1
扈 1
扭傷 1
扮@@ 1
扺@@ 1
承攬@@ 1
抉@@ 1
抖@@ 1
抹 1
拌@@ 1
拓 1
拔 1
拮@@ 1
挌 1
挫 1
挺@@ 1
捉@@ 1
捕 1
捨@@ 1
据 1
捻 1
掉落 1
掏@@ 1
採爲 1
揆@@ 1
描@@ 1
揹@@ 1
搖 1
搜 1
搪@@ 1
摒@@ 1
摔@@ 1
摭@@ 1
摸 1
撈@@ 1
撓 1
撞@@ 1
擇@@ 1
擋@@ 1
擎 1
攀@@ 1
攝影 1
攪@@ 1
收費員 1
攷 1
攸 1
教練 1
敝 1
斐 1
斑 1
斑@@ 1
斜@@ 1
斟@@ 1
斬@@ 1
於95年 1
日間 1
早會 1
旻 1
昆 1
昏@@ 1
昧@@ 1
是說 1
晝@@ 1
晤@@ 1
晴 1
暈 1
暐 1
暐@@ 1
暔 1
暖 1
暗 1
暸 1
曖@@ 1
曛 1
曩 1
曬 1
曳@@ 1
曾明@@ 1
會者 1
望@@ 1
木工 1
杆@@ 1
杖@@ 1
杯 1
東南 1
東安 1
東森 1
枕@@ 1
林志@@ 1
林淑敏 1
查上訴人 1
柬 1
柬@@ 1
柱@@ 1
柳 1
柵 1
栩@@ 1
格性 1
栽 1
桐@@ 1
桶 1
梗@@ 1
條列 1
條第 1
棉@@ 1
棍 1
棒@@ 1
棚 1
棠 1
楊國祥 1
楓@@ 1
楞 1
楠@@ 1
榕 1
榨 1
榷 1
榽 1
槌 1
槍 1
樞@@ 1
模擬@@ 1
橘@@ 1
機隊 1
橢@@ 1
檢定 1
檯 1
權利@@ 1
次性 1
正雄 1
此等 1
歸咎 1
殷@@ 1
殺 1
殺@@ 1
毅@@ 1
毓@@ 1
氏@@ 1
民航@@ 1
汰@@ 1
決於 1
沅 1
沈 1
沉@@ 1
沾 1
沾@@ 1
沿@@ 1
泉 1
法所 1
泗 1
泡 1
泣@@ 1
泥 1
泥@@ 1
泰國 1
泱 1
浤@@ 1
涇@@ 1
涌 1
涌@@ 1
涯 1
淆@@ 1
淑 1
淘 1
淦 1
淳@@ 1
淵 1
渤@@ 1
渭@@ 1
渲@@ 1
游@@ 1
湊@@ 1
湘@@ 1
準備@@ 1
溝@@ 1
溱@@ 1
溺@@ 1
滬 1
滲@@ 1
滴 1
漁 1
漆@@ 1
漏洞 1
漲@@ 1
潁 1
潁@@ 1
潑@@ 1
潔@@ 1
潢@@ 1
潤 1
潭@@ 1
澂 1
澄 1
澆@@ 1
澳 1
濤 1
濰 1
濱@@ 1
濾 1
瀕@@ 1
瀧@@ 1
瀰@@ 1
灝 1
炒@@ 1
炘 1
炬@@ 1
炭 1
烏 1
烘 1
烜 1
烤 1
烹 1
無端 1
無論@@ 1
無論是 1
無論系 1
煎@@ 1
煙 1
煩 1
熄 1
熔@@ 1
熙 1
燙@@ 1
營業員 1
燦 1
燭 1
爛 1
爭規 1
父@@ 1
爽 1
牀@@ 1
牆@@ 1
牛 1
牧@@ 1
特殊@@ 1
狂@@ 1
狐@@ 1
狠@@ 1
狡@@ 1
狩 1
狸@@ 1
狽 1
猝@@ 1
猥@@ 1
猴@@ 1
獄 1
獸@@ 1
王國@@ 1
王奕@@ 1
玖@@ 1
珉@@ 1
理事@@ 1
理人 1
琇@@ 1
琍@@ 1
琬@@ 1
琮 1
琳@@ 1
琴@@ 1
瑄@@ 1
瑕 1
瑜@@ 1
瑟 1
瑟@@ 1
瑣 1
璟 1
璨 1
環球 1
瓔 1
瓛 1
瓷@@ 1
甘冒@@ 1
甘冒僞證 1
甦 1
申訴書 1
畇@@ 1
番 1
疇@@ 1
疋@@ 1
疏漏 1
疚 1
疪@@ 1
疲勞 1
疵 1
疽 1
病變 1
瘓 1
瘤@@ 1
癱 1
癱@@ 1
皓@@ 1
皖 1
皺 1
皺@@ 1
監察@@ 1
監視@@ 1
盱@@ 1
盼 1
盾 1
盾@@ 1
省@@ 1
眉 1
眶 1
眷 1
睡@@ 1
睫 1
瞄 1
瞌睡 1
瞞@@ 1
瞧 1
瞬@@ 1
瞭@@ 1
矛@@ 1
矢 1
砂 1
碇 1
碑 1
磷@@ 1
礎@@ 1
礙@@ 1
礦 1
社會局 1
禍@@ 1
福委會 1
福財 1
禧 1
禪 1
禹 1
禹@@ 1
秋節 1
秒@@ 1
稅局 1
稟@@ 1
稿@@ 1
穆@@ 1
穗 1
穢 1
穢@@ 1
窒@@ 1
竈 1
立者 1
竭@@ 1
笑@@ 1
第17873 1
第180 1
第212 1
第218@@ 1
第230 1
第264 1
第270 1
第310 1
第七十九 1
筒 1
管理費 1
節性 1
簽約金 1
簾 1
籌 1
粒 1
粗 1
粥 1
粲@@ 1
精 1
糉 1
糟@@ 1
紊 1
紓@@ 1
紫 1
紮@@ 1
絀 1
絨@@ 1
絮 1
綱@@ 1
綻@@ 1
緊縮@@ 1
線路 1
編輯 1
縐@@ 1
總務室 1
繞@@ 1
纈@@ 1
纖 1
纜@@ 1
缸@@ 1
罄 1
罕@@ 1
羚@@ 1
翁 1
翊 1
耐 1
耿@@ 1
聘書 1
聯性 1
聳@@ 1
職等 1
肖 1
肘 1
肘@@ 1
肱 1
肺 1
胎 1
胞 1
胤 1
胥 1
胱 1
胴 1
胸 1
脆 1
脹 1
腎 1
腎@@ 1
腩@@ 1
腰椎@@ 1
腳@@ 1
腳踏@@ 1
腳踏車 1
腺 1
膀 1
膀@@ 1
膚 1
膠 1
膳 1
臟@@ 1
臧 1
自無@@ 1
臺中市 1
舉措 1
舒 1
航機 1
般@@ 1
舷 1
芸@@ 1
芽 1
芽@@ 1
苓@@ 1
苗@@ 1
苙@@ 1
茁 1
茗 1
茹@@ 1
荃 1
荷 1
菜@@ 1
萊 1
萌@@ 1
萎 1
萩@@ 1
萱@@ 1
著作@@ 1
葛 1
葛@@ 1
葡 1
蒨@@ 1
蒼@@ 1
蓄@@ 1
蔆@@ 1
蔑@@ 1
蔡明@@ 1
蔦@@ 1
蕩 1
蕩@@ 1
蕭 1
蕭淑@@ 1
薄@@ 1
薈 1
薈@@ 1
薑 1
薰 1
藤@@ 1
蘋 1
虎 1
虐 1
蜘@@ 1
螺 1
蠟@@ 1
蠲@@ 1
血壓 1
行者 1
衷 1
被告臺 1
裨 1
裴@@ 1
裸@@ 1
裹 1
複 1
褔@@ 1
褚@@ 1
褫@@ 1
褶@@ 1
褻 1
襲@@ 1
視力 1
觀察@@ 1
觀看 1
解免 1
訢 1
詮@@ 1
誆 1
語綦詳 1
誹謗@@ 1
誼 1
談判 1
諜 1
諷@@ 1
謀職 1
謔 1
謙 1
講師 1
謝志@@ 1
謢 1
謨 1
謬 1
譁 1
譙 1
譜 1
警告信 1
譬@@ 1
讀@@ 1
谷@@ 1
豊@@ 1
豚@@ 1
豫@@ 1
豬@@ 1
豹@@ 1
貓 1
財富 1
貢獻@@ 1
貯@@ 1
貲 1
貶 1
貸@@ 1
貽 1
賀@@ 1
賃 1
資本@@ 1
賈 1
賊 1
賤@@ 1
賦@@ 1
賭博 1
賴建@@ 1
賸@@ 1
賺 1
贈@@ 1
赴@@ 1
趁@@ 1
超市 1
趟次 1
足參 1
趴@@ 1
踊@@ 1
踏 1
蹈 1
蹈@@ 1
蹋@@ 1
蹤@@ 1
蹶 1
躁 1
躍@@ 1
躬@@ 1
軒@@ 1
輩 1
輿@@ 1
轍 1
辜 1
辦人 1
辦公@@ 1
辨@@ 1
辭去 1
辯詞 1
辰 1
農業 1
迂@@ 1
迅@@ 1
迥@@ 1
迨@@ 1
迺 1
迺@@ 1
透 1
逮@@ 1
遁 1
遊覽@@ 1
遍@@ 1
遏 1
達成@@ 1
遙 1
遠東 1
適法性 1
選定 1
遼@@ 1
遽採 1
避@@ 1
邀@@ 1
邏@@ 1
邕@@ 1
邵@@ 1
鄙@@ 1
鄰@@ 1
配股 1
醬@@ 1
醮 1
釁 1
重疊 1
野 1
野@@ 1
釦 1
鈊@@ 1
鈍 1
鈑@@ 1
鉗@@ 1
鉢@@ 1
銅 1
銳 1
鋁 1
鋪 1
錙@@ 1
錫@@ 1
鍊@@ 1
鍛 1
鍵 1
鎧@@ 1
鏈 1
鏽@@ 1
鑷@@ 1
鑽 1
閃 1
開支 1
開聘 1
閎 1
閥 1
閭 1
闌@@ 1
關係究 1
阪 1
阮文@@ 1
陋 1
陋@@ 1
陌@@ 1
陡 1
陡@@ 1
除去@@ 1
陰@@ 1
陳宜@@ 1
陳柏@@ 1
陳癸@@ 1
陳碧@@ 1
陳美玲 1
陶 1
隊@@ 1
隸@@ 1
雀 1
雕@@ 1
雛@@ 1
雞 1
離職守 1
難予 1
零售業 1
電阻 1
霞@@ 1
靆 1
靈@@ 1
青人 1
非虛 1
韓 1
韞 1
響@@ 1
頌@@ 1
頤 1
頹@@ 1
顎@@ 1
顗 1
餐飲店 1
餜@@ 1
餽 1
饌 1
饒@@ 1
馥 1
馬費 1
駱@@ 1
騏 1
騚 1
驊@@ 1
魁 1
魏 1
魔@@ 1
魯@@ 1
鮮 1
鳥@@ 1
鴉 1
鴨@@ 1
鵑 1
鵠 1
鸘 1
鹼 1
鹿@@ 1
麗琴 1
麗美 1
麻 1
黃季鈺 1
黃文@@ 1
鼓 1
 1
@@ 1
@@ 1
@@ 1
@@ 1
@@ 1
 1
 1
@@ 1
 1
 1
 1
@@ 1
 1
@@ 1
@@ 1
﹍@@ 1
﹑@@ 1
﹖@@ 1
﹣ 1
﹨@@ 1
＃@@ 1
６@@ 1
８ 1
＜ 1
＞ 1
Ｋ 1
Ｋ@@ 1
Ｌ@@ 1
Ｎ 1
Ｎ@@ 1
Ｖ@@ 1
Ｘ 1
Ｘ@@ 1
ｘ@@ 1
madeupword0000 0
madeupword0001 0
madeupword0002 0
madeupword0003 0
