， 162288
之 72713
。 43798
原告 35644
、 34753
爲 25933
被告 25127
條 22163
有 21854
不 20813
於 19313
元 18346
給 18207
勞工 17853
應 16578
勞動 16227
（ 15638
） 15599
規定 14434
, 14263
契約 14001
其 13386
工作 12859
公司 12703
所 12461
月 12313
上訴人 12074
及 12055
： 11390
付 11349
未 11347
年 11291
工資 11121
以 10876
請求 10234
項 9903
終止 9830
或 9729
自 9267
是 9262
並 9154
僱主 9152
一 9112
得 8935
至 8715
而 8563
1 8522
無 8247
依 8231
則 8022
即 7928
系 7646
上 7611
」 7567
按 7523
與 7510
等 7319
( 7221
) 7219
已 6667
起 6541
退休金 6446
的 6412
「 6385
時 6334
第1 6318
兩 6292
. 6288
在 6175
2 5979
造 5934
主張 5732
被 5732
薪資 5637
款 5563
部分 5557
此 5413
經 5387
理由 5334
亦 5294
由 5275
基準法 4883
期間 4832
3 4830
後 4799
就 4752
日 4650
前 4533
間 4475
； 4421
因 4392
5 4309
本件 4307
計算 4291
如 4231
予 4207
資遣費 4192
頁 4180
受 4121
可 4082
條例 4015
判決 3985
二 3967
個 3877
否 3848
又 3798
該 3764
關係 3736
提出 3689
且 3659
離職 3610
均 3596
我 3587
三 3511
本院 3511
本 3490
6 3461
人 3457
屬 3344
預告 3334
非 3295
開 3283
被上訴人 3230
事 3212
金額 3170
4 3149
見 3119
休假 3109
？ 3035
者 2954
平均 2930
再 2878
號 2872
獎金 2843
滿 2799
請 2791
卷 2789
勞基法 2774
發 2774
故 2765
爭 2763
特別 2754
明文 2752
對 2729
原 2697
適用 2684
小時 2683
違反 2683
據 2653
將 2636
僱 2625
提繳 2624
000 2620
時間 2590
僅 2564
第2 2494
認 2492
向 2472
但 2440
解僱 2414
每月 2400
內 2370
年資 2359
事實 2354
年度 2350
員工 2341
查 2331
表示 2313
執行 2293
98年 2287
定 2257
情 2254
約定 2241
仍 2233
要 2224
情形 2210
勞務 2207
既 2178
四 2163
惟 2163
損害 2157
8 2155
7 2152
第14 2101
五 2093
依據 2078
六 2055
繼續 2049
假 2048
同意 2036
12月 2030
駁回 2028
證 1990
其他 1976
雖 1967
業務 1962
以上 1946
第12 1942
法院 1920
准許 1873
另 1871
語 1871
第一 1867
字 1859
次 1812
第11 1810
計 1806
保險 1782
規 1782
來 1776
稱 1775
證人 1774
能 1767
尚 1756
中 1729
投保 1725
爭執 1702
任職 1653
10月 1644
內容 1640
分別 1633
11月 1629
9 1615
行爲 1615
到 1613
休 1605
無法 1598
雙方 1590
法律 1580
證明 1578
訴訟法 1571
止 1543
認定 1542
逾 1540
意思 1533
/ 1527
＝ 1522
+ 1519
＋ 1488
抗辯 1486
對於 1480
會 1477
合法 1473
× 1468
沒有 1466
單位 1462
每 1454
1日 1450
「@@ 1448
云云 1448
利息 1447
上班 1444
新 1440
發生 1433
最高 1431
101年 1428
他 1426
基法 1417
同 1416
天 1412
勞資 1400
致 1393
第3 1367
計算式 1367
也 1362
日止 1362
30日 1361
105 1360
人員 1346
加班費 1340
- 1335
職業 1324
件 1323
書 1322
賠償 1321
僱傭 1311
第6 1299
退休 1288
依勞 1283
主管 1279
參照 1272
一個 1267
義務 1260
前述 1259
結果 1254
30 1253
從而 1251
專戶 1247
104年 1231
日數 1231
第4 1230
責任 1226
通知 1226
辦理 1225
存在 1219
擔任 1206
6月 1205
說 1205
送達 1191
第5 1187
103年 1185
1月 1184
7月 1182
請假 1180
影響 1166
除 1161
12 1159
舉證 1159
3月 1157
訴訟 1155
足 1155
指 1145
薪 1144
提供 1139
方式 1139
相當 1138
10 1135
各 1133
要求 1131
第17 1126
調解 1120
97年 1111
民事 1108
8月 1107
七 1106
須 1105
個人 1100
爭議 1100
職務 1098
9月 1096
報酬 1088
宣告 1088
記載 1088
難 1084
領 1084
100年 1081
其餘 1081
比例 1080
5月 1077
事業 1076
工時 1074
當事人 1069
資遣 1061
自願 1058
= 1056
說明 1056
服務 1054
上訴 1051
就業 1048
清償 1042
證明書 1042
權利 1041
延長 1035
問 1028
證據 1023
施行 1022
法定 1019
意旨 1016
價 1011
了 1010
4月 1007
共 1005
當 1004
部 995
資料 994
從 992
重大 991
外 983
31日 978
符合 975
下 973
費用 972
受領 970
拒絕 968
標準 967
採 961
始 959
102年 943
100 942
法 939
乃 937
訴 933
原因 929
權益 928
2月 924
必要 922
災害 919
依法 918
爲由 911
業績 908
遲延 908
關於 908
99年 907
管理 900
合計 899
敘明 897
原審 896
依民 895
生 894
民法 892
紀錄 891
達 870
因此 869
程序 868
都 865
104 864
方法 863
情節 861
過 861
翌日 856
契約者 853
年息 852
申請 852
左列 845
性質 839
並非 836
代理人 835
主文 833
信函 833
遭 829
確 825
萬 823
效力 820
你 819
負擔 818
同一 817
八 815
範圍 812
加 807
節 806
勞僱 797
曾 795
第二 794
101 792
確定 788
任何 787
傭 787
制度 785
扣 783
: 780
函 780
確認 780
供 779
分 777
爰 777
102 775
予以 774
津貼 773
跟 773
% 772
94年 769
存證 769
條件 768
事項 760
所謂 756
超過 756
家 753
法令 751
96年 748
訴狀 748
變更 748
領取 748
需 744
繕本 736
10日 728
處理 727
院卷 723
因爲 721
實際 720
成立 718
提 718
判斷 714
會議 714
低於 713
上述 711
擔保 709
失業 708
去 706
明確 706
用 706
基本 705
連 704
伊 703
若 703
每日 702
105年 701
績效 701
0 700
106年 698
5日 698
相關 697
有關 696
… 695
第24 693
辯 693
使 692
多 690
當時 686
15日 685
敗訴 684
客戶 683
調動 681
扣除 677
臺 676
細 675
提撥 674
認爲 674
加班 673
第13 666
不能勝任 664
我們 663
限 663
自行 661
103 659
而言 658
共計 657
具有 657
辦法 657
做 655
入 650
月份 647
委員會 646
合 642
106 638
總額 636
正當 635
被保險人 634
同年 633
支付 632
從事 630
載 627
至於 621
開@@ 621
臺上 620
核 618
情事 612
攻擊 612
辯論 610
500 608
調整 607
聲 605
假日 604
÷ 602
僱用 602
基於 602
然 602
客觀 601
強制 595
遣費 594
25日 593
約 592
20 589
完成 585
第16 585
防禦 583
一@@ 582
負 582
保障 581
顯 580
差額 577
行使 577
合意 575
之前 574
經營 573
以下 568
復 567
才 566
方 566
表 566
勞 565
點 565
綜上所述 564
先 563
20日 560
車 557
28日 555
審酌 555
能力 555
補償 555
16日 554
企業 550
作爲 550
可以 550
回 549
基數 548
已經 548
利益 547
醫療 547
行政院 542
之一 539
數 538
負責 538
債權人 537
7日 536
屬於 536
一定 535
15 534
示 533
筆錄 531
總 531
份 525
影本 524
* 522
準 521
經理 521
自屬 521
他人 520
陳@@ 520
臺灣 518
損失 517
所得 516
【 515
市政府 514
日前 514
12日 512
】 512
明 510
數額 509
廢棄 508
自@@ 508
大 506
月薪 506
知悉 506
林@@ 505
年終 501
17日 500
未經 497
13日 495
800 495
固 494
機關 494
最後 493
11 491
催告 491
完 491
營業 491
11日 489
處 489
使用 488
可能 488
經常性 487
一一 486
定期 486
臻 486
14日 485
保險法 482
21日 481
暨 481
出 478
人事 477
作 477
九 476
債務人 476
調 476
27日 474
公告 474
出勤 474
所以 474
言詞 474
平日 473
謂 473
起訴 473
調職 472
更 471
改善 467
般 466
告知 465
審 465
目 465
爲何 464
26日 463
6@@ 462
22日 460
甲○○ 460
發放 460
依@@ 458
分鐘 458
曠工 456
憑 455
百分之五 455
電子 454
保險局 453
達成 453
23日 452
履行 452
決定 452
自己 452
日@@ 451
第十一 450
利率 449
曠職 449
業 449
程度 448
前段 446
證述 445
0@@ 444
卻 444
附表 443
之後 442
正常 441
造成 441
24日 440
休息 440
同法 440
這 440
當日 439
第三 438
醫院 437
5@@ 436
日期 435
未能 435
25 434
實 433
其中 432
歸責 432
4@@ 431
狀況 431
包括 429
行 429
第23 428
第38 427
減少 425
17 424
直接 424
命令 422
3日 421
何 421
免 420
可知 420
聲明 420
足額 420
算 417
期限 416
臺北 416
200 414
問題 414
債務 413
6日 412
積欠 412
部門 412
郵件 411
真實 410
14 409
以前 409
項定 409
7@@ 408
論述 408
諸 408
可稽 407
各款 407
老闆 407
金@@ 406
附 406
18日 405
第79 404
設立 404
時數 403
負責人 402
命 400
必須 400
傷害 398
19 396
21 396
固定 395
審卷 395
登記 395
3萬 394
」@@ 394
勞保局 394
」「 393
符 392
2日 391
依職權 391
具體 391
取得 391
復職 390
考覈 390
勝訴 389
總經理 389
處分 389
依照 387
29日 386
明定 386
第31 386
續 386
600 385
3@@ 384
特休 384
資 383
違法 383
31 382
黃@@ 382
失 381
意 380
委任 379
陳述 379
收 378
16 377
休假日 377
合理 377
進行 377
十 376
如下 376
權 376
明細 375
採信 374
第四 374
職 374
張@@ 373
選擇 372
8@@ 371
於99年 370
真正 370
第78 370
書面 369
9@@ 368
業據 367
終結 367
知道 365
站 365
責 365
顯然 365
李@@ 364
王@@ 364
28 363
三十 363
勞保 363
等語 363
2萬 362
倘 361
參 361
所屬 361
4日 360
任 360
懲戒 360
有限公司 360
法官 360
調查 360
2@@ 359
函釋 357
第20 357
故意 356
結論 356
下午 355
實施 355
懲處 354
保護法 353
準備 353
舍 353
簽名 351
19日 350
緊縮 350
無@@ 349
辯稱 349
13 348
8日 348
接受 348
百分之5 348
事故 347
應發 347
解釋 347
事務 346
工 346
手段 345
非@@ 345
社會 344
33 342
18 341
年度臺 341
訓練 341
43 340
主觀 340
審理 339
性 339
提起 339
堪認 338
繳 338
開始 338
需要 338
開立 337
95年 336
觀 336
論結 336
原證 334
單 334
二@@ 333
較 333
依同法 332
1萬 331
之一者 331
經濟 331
98 330
股東 330
虧損 328
協商 327
24 326
只 326
作業 324
第19 324
項目 324
禁止 323
乙○○ 322
協調 322
服 322
條定 322
期 321
簽署 321
底 320
22 319
60 318
應休 318
具 317
班 317
一月 316
相同 316
位 314
和 314
屬性 313
27 312
依前 312
揭 312
本人 312
如何 311
退保 311
安全 309
第389 309
29 308
吳@@ 308
下列 307
少 307
股份 307
違規 307
無從 306
繳納 306
電腦 306
45 305
4萬 305
北 305
組織 305
訂 304
得以 303
減 303
確實 303
事情 302
欲 302
消滅 302
麼 302
32 301
惟查 301
文件 301
款定 301
求予 301
9日 300
名 300
時候 300
立法 300
一日 299
拘束 298
有利於 298
費 297
手續 296
額 296
駕駛員 296
寄 295
機構 295
院 295
尚未 294
片面 294
及其 293
足以 293
電話 293
預告之 293
50 292
反訴 292
申報 292
事件 291
工會 291
獲得 291
八@@ 290
車輛 290
銀行 290
月者 289
記錄 289
職權 288
讓 288
限制 288
勞方 286
如果 286
有效 286
300 285
籤 285
卡 284
地點 284
每年 284
代 283
例 283
參加 283
診斷 283
』 282
佳 282
保護 282
屬實 282
相符 282
『 281
屆滿 281
26 280
侵害 280
再者 280
嚴重 280
所有 280
新北 280
40 279
己 279
最低 279
治療 279
合約 278
打 277
指揮 277
違背 277
保險費 276
加計 276
勞工局 275
技術 275
適當 275
另外 274
表現 274
被告@@ 274
三@@ 273
丙○○ 273
全勤 273
修正 272
期限者 272
第59 272
36 271
依民法 271
債權 271
名義 271
本案 271
監督 271
縱 271
基礎 270
意見 270
第@@ 270
他方 269
期待 269
1@@ 268
然查 268
爰依 268
返還 268
協議 267
揆 267
構成 267
計劃 266
零@@ 266
剩 265
包含 265
實其說 265
帶 265
斟酌 265
看 265
97 264
狀態 264
區 263
帳戶 263
理 263
自請 263
過失 263
令 262
保留 262
分級 262
劉@@ 261
報 261
案 260
金 260
主依 259
十二月 259
第436 259
加以 258
據此 257
第7 256
列 255
大@@ 255
延 255
第十四 255
至少 255
補 254
歲 253
產品 253
維持 253
她 252
最 252
當月 252
附卷 252
400 251
99 251
找 251
第10 251
訴人 251
? 250
二十@@ 250
交 250
傷病 250
庭 249
指摘 249
第五 249
二月 248
抵 248
級 248
詳 248
財產 248
高 248
二分之一 247
以外 247
之@@ 246
會計 246
34 245
場所 245
現金 245
當天 245
難謂 245
同事 244
很 244
第六 244
回覆 243
規範 243
「僱 242
反面 242
告訴 242
短少 242
著 242
要件 242
健康 241
抵銷 241
5萬 240
以後 240
余月數 240
列入 240
綜 240
加倍 239
洵屬 239
無效 239
證詞 239
排定 238
改 238
清楚 238
37 237
第十三 237
10@@ 235
人力 235
勝任 235
好 235
下班 234
中@@ 234
況 234
視 234
負遲 234
23 233
42 233
小 233
情況 233
聲請 233
駕駛 233
申請書 232
知 232
簽訂 232
重大者 232
基準 231
往 231
董事長 231
00 230
前揭 230
副 230
大陸 230
欠 230
發@@ 230
稱「 230
錯誤 230
陳明願 230
十@@ 229
提繳率 229
銷售 229
交付 228
工作者 228
長 228
協助 227
生產 227
立 227
自99年 227
自認 227
人格 226
留職 226
勞退 225
半 225
然@@ 225
詞 225
鄭@@ 224
－@@ 224
900 223
制 223
虞者 223
補服 223
進 223
審@@ 222
權限 222
滿者 222
舊制 222
蔡@@ 222
35 221
八月 221
廠 221
生活 221
行政 221
證稱 221
趟 221
83 220
准此 220
安排 220
拿 220
決議 220
自由 220
薪水 220
以及 219
但是 219
含 219
競業 219
第十二 219
可見 218
改判 218
無據 218
第3@@ 218
簡易 218
認@@ 218
到職 217
國@@ 217
求職 217
週年 217
行爲者 216
判例 215
無故 215
四月 214
導致 214
第392 214
請求權 214
x 213
一○○年 213
寫 213
故@@ 213
法人 213
營運 213
評 213
事後 212
口頭 212
明@@ 212
種 212
考量 212
茲 212
試用 212
還 212
成 211
皆 211
願 211
保 210
同時 210
沒 210
13@@ 209
停薪 209
手段性 209
文@@ 209
六@@ 208
共同 208
累積 208
74 207
內部 207
利 207
楊@@ 207
當然 207
目標 207
餘 206
侮辱 205
指定 205
核發 205
表明 205
單@@ 204
38 203
全部 203
報告 203
應@@ 203
爭點 203
獎懲 203
舊 203
遲到 203
專業 202
指示 202
短 202
第2@@ 202
50萬 201
依本 201
清潔 201
發現 201
親自 201
解 201
國定 200
第15 200
起訴狀 200
上@@ 199
主動 199
以內者 199
叫 199
時效 199
甲○○@@ 199
病假 199
高等 199
乙節 198
事由 198
次月 198
資@@ 198
開會 198
五月 197
把 197
收益 197
斷 197
明細表 197
竟 197
原有 196
股 196
轉 196
A@@ 195
三十日 195
事證 195
任意 195
月@@ 195
侵權 194
地 194
無須 194
達到 194
92 193
堪信 193
態度 193
期日 193
再審 192
員 192
第39 192
精神 192
自得 192
資方 192
人@@ 191
年@@ 191
支出 191
檢查 191
正@@ 191
第9 191
12@@ 190
表@@ 190
記 190
迄 190
各項 189
條款 189
無涉 189
足認 189
七月 188
乙方 188
九十八年 188
六十@@ 188
款項 188
那 188
酌定 188
16@@ 187
44 187
上午 187
倍 187
分@@ 187
十一月 187
現場 187
甲方 187
補習班 187
製作 187
九十七年 186
依同 186
標 186
講 186
除斥 186
丁○○ 185
六月 185
第277 185
儲存 184
司機 184
否則 184
機 184
第十七 184
配合 184
離開 184
41 183
之上 183
他們 183
始@@ 183
店 183
必 183
本@@ 183
裁判 183
47 182
以內 182
信 182
簡@@ 182
系統 182
錢 182
19@@ 181
一○@@ 181
嗎 181
因而 181
存 181
承攬 181
非法 181
匯款 180
年月 180
應付 180
第二十 180
95 179
三月 179
四@@ 179
有@@ 179
覈准 179
難以 179
十月 178
歇業 178
謝@@ 178
18@@ 177
96 177
交接 177
報表 177
求 177
55 176
一百@@ 176
值 176
內政部 176
協議書 176
工資額 176
辦公室 176
顯見 176
保全 175
張 175
段定 175
職@@ 175
診所 175
論旨 175
主要 174
告@@ 174
學校 174
短付 174
第30 174
維護 174
周@@ 173
需求 173
中央 172
交通 172
國 172
第18 172
被告系 172
80 171
九月 171
因素 171
徵 171
戊○○ 171
書@@ 171
法@@ 171
48 170
前後 170
名譽 170
綜合 170
轉@@ 170
送 170
告 169
本息 169
解散 169
調@@ 169
附麗 169
九十六 168
停止 168
公立 168
公里 168
出@@ 168
活動 168
銷 168
初 167
存摺 167
收受 167
行@@ 167
金月 167
前往 166
生效 166
華 166
覈定 166
視爲 166
46 165
完全 165
第487 165
路 165
逐一 165
進入 165
15@@ 164
三十@@ 164
事實者 164
正 164
百分之@@ 164
65 163
七@@ 163
五@@ 163
例假 163
分配 163
紙 163
論 163
電@@ 163
類 163
750 162
查@@ 162
欄 162
負有 162
財務 162
逕 162
領@@ 162
公@@ 161
應有 161
333 160
」等語 160
先生 160
指@@ 160
爲止 160
乙○○@@ 159
董事 159
被告間 159
計算事 159
九十七 158
受僱 158
意願 158
派 158
獲 158
終 158
負舉證 158
×0 157
忠誠 157
本金 157
正式 157
貨 157
107年 156
39 156
天數 156
就此 156
復@@ 156
書狀 156
言 156
120 155
5000 155
6萬 155
單方 155
失所 155
實@@ 155
文書 155
汽車 155
百分之六 155
組 155
詞置 155
遲 155
郵局 155
何時 154
保費 154
全 154
具備 154
升 154
合@@ 154
子 154
專案 154
對話 154
工@@ 154
採取 154
收@@ 154
臺幣 154
遵守 154
久 153
否認 153
宜 153
收入 153
案件 153
究 153
車@@ 153
17@@ 152
700 152
① 152
主@@ 152
保@@ 152
安 152
承諾 152
折 152
月2 152
休者 151
受傷 151
幾 151
持續 151
清@@ 151
照 151
真 151
線 151
莊@@ 151
薪假 151
設 151
許 151
違約金 151
重 151
團體 150
在於 150
填寫 150
安置 150
工程 150
採用 150
接 150
比較 150
縣政府 150
過程 150
保險人 149
溝通 149
第26 149
形 148
清 148
該@@ 148
身體 148
退 148
九十@@ 147
其@@ 147
委託 147
打電話 147
破產 147
票 147
第1@@ 147
薪@@ 147
虞 147
訴外人 147
重要 147
全@@ 146
在內 146
提前 146
段 146
無疑 146
第8 146
老年 146
自承 146
舉 146
記大過 146
進@@ 146
54 145
93年 145
○@@ 145
前@@ 145
前開 145
參見 145
增加 145
發展 145
願意 145
79 144
七十@@ 144
參酌 144
各種 144
周 144
定義 144
志@@ 144
撤銷 144
普通 144
毋庸 144
社區 144
紅利 144
訂定 144
郭@@ 144
勞字 143
嗣 143
手 143
打卡 143
採@@ 143
文 143
業經 143
終止權 143
聘 143
臺@@ 143
許@@ 143
車禍 143
75 142
三日 142
佐 142
危險 142
多次 142
小姐 142
營 142
甚明 142
綜上 142
追加 142
通知書 142
0000 141
九@@ 141
予@@ 141
八十@@ 141
市 141
憑單 141
衡量 141
調字 141
轉讓 141
遊@@ 141
預備 141
人間 140
到場 140
勞動部 140
勤 140
希望 140
教育 140
機會 140
此外 140
第53 140
14@@ 139
84 139
86 139
時@@ 139
有所 139
末 139
總@@ 139
董事會 139
20@@ 138
66 138
67 138
只有 138
專員 138
新@@ 138
於法 138
業務員 138
秩序 138
第21 138
葉@@ 138
蓋 138
行車 138
談 138
賦予 138
關廠 138
離 138
備 137
公司法 137
千 137
屆 137
看到 137
身分 137
附@@ 137
丁○○@@ 136
四十@@ 136
安@@ 136
期間者 136
核@@ 136
準用 136
第二十三 136
第二十四 136
該法 136
51 135
② 135
五十@@ 135
利之 135
審查 135
於@@ 135
永@@ 135
相對 135
章 135
走 135
避免 135
錄音 135
56 134
丙○○@@ 134
交易 134
到達 134
在職 134
待 134
想 134
未休 134
核屬 134
生@@ 134
結清 134
賴@@ 134
什 133
力 133
力羽 133
十一 133
應該 133
物 133
立即 133
考績 133
處理法 133
詢問 133
誠信 133
這樣 133
陳稱 133
默示 133
兼 132
喪失 132
因果 132
此@@ 132
殘廢 132
第229 132
第37 132
第390 132
聯@@ 132
250 131
52 131
90 131
主任 131
伊@@ 131
德 131
效果 131
暴行 131
林 131
補助 131
詳本院 131
預@@ 131
助理 130
宜@@ 130
就是 130
工程師 130
注意 130
獨立 130
疾病 130
管 130
職災 130
辦 130
健保 129
委 129
月止 129
準備金 129
百 129
移送 129
負舉 129
七日 128
二十 128
二日 128
工作權 128
成本 128
狀 128
筆 128
籤立 128
美@@ 128
討論 128
邱@@ 128
高@@ 128
53 127
77 127
依序 127
先位 127
匯 127
惟@@ 127
承認 127
洪志德 127
盡 127
詳@@ 127
課 127
議定 127
「本法 126
二百@@ 126
付@@ 126
同@@ 126
太 126
戊○○@@ 126
洪@@ 126
萬@@ 126
見解 126
遠 126
遷廠 126
667 125
94 125
九十八 125
呂@@ 125
經常 125
背面 125
自非 125
論列 125
三百@@ 124
加強 124
庭證 124
本法 124
臺內 124
遂 124
91 123
九十 123
代表 123
合併 123
名@@ 123
呈 123
比 123
經過 123
金錢 123
附此 123
78 122
82 122
乙份 122
促 122
勞健 122
受到 122
地位 122
地方 122
所示 122
特 122
組長 122
被告自 122
訂單 122
設備 122
證@@ 122
64 121
事宜 121
休業 121
公休 121
勞@@ 121
定@@ 121
實領 121
晚上 121
由於 121
訂立 121
1000 120
7萬 120
89 120
主 120
公佈 120
出車 120
差 120
春@@ 120
服從 120
法規 120
淑@@ 120
該日 120
資訊 120
開發 120
e@@ 119
不@@ 119
乘 119
形式 119
第22 119
簡訊 119
資料表 119
107 118
中心 118
亦定 118
修 118
從未 118
甚 118
相類 118
補足 118
認系 118
違 118
面 118
九十五年 117
二萬@@ 117
十日 117
即可 117
受@@ 117
日薪 117
時期 117
東@@ 117
業已 117
第32 117
經驗 117
計酬 117
限於 117
一千@@ 116
十五 116
參@@ 116
召開 116
實際上 116
工廠 116
結 116
透過 116
通 116
開除 116
以爲 115
加@@ 115
十四日 115
合於 115
慶@@ 115
新制 115
證書 115
D@@ 114
依督 114
另行 114
拋棄 114
本旨 114
格 114
機器 114
目前 114
相@@ 114
57 113
I@@ 113
P@@ 113
休養 113
保管 113
元@@ 113
公平 113
出具 113
加保 113
回@@ 113
基上 113
早 113
特@@ 113
第36 113
結算 113
薪資單 113
話 113
辭職 113
還是 113
180 112
92年 112
93 112
下@@ 112
代@@ 112
全民 112
公傷 112
名稱 112
執 112
而且 112
隨時 112
高於 112
61 111
83年 111
87 111
借 111
出於 111
北@@ 111
無庸 111
特定 111
轉帳 111
仁 110
假規 110
原@@ 110
反應 110
同仁 110
四百@@ 110
幫 110
度 110
物品 110
率 110
申誡 110
發佈 110
聯絡 110
這個 110
23@@ 109
88 109
X 109
≒ 109
三萬@@ 109
光 109
分紅 109
同日 109
地區 109
手機 109
授權 109
早上 109
異議 109
起@@ 109
輔導 109
道 109
雲 109
預示 109
人數 108
以@@ 108
備位 108
只要 108
合先 108
品行 108
己○○ 108
會務 108
私立 108
第184 108
第29 108
總公司 108
而已 108
請領 108
預供 108
③ 107
上字 107
休@@ 107
保證 107
偉 107
傳@@ 107
公開 107
勞務所 107
取 107
威 107
實質 107
措施 107
晚班 107
真意 107
第4@@ 107
第七 107
若干 107
針對 107
2000 106
62 106
70 106
「本 106
一直 106
六日 106
制定 106
可取 106
可據者 106
季 106
招攬 106
推@@ 106
操作 106
死亡 106
瑞@@ 106
當場 106
第203 106
總計 106
蘇@@ 106
規定者 106
訴爲 106
課長 106
載有 106
點@@ 106
81 105
九十四年 105
何@@ 105
十一日 105
商業 105
學識 105
對象 105
摘原 105
洵 105
研究 105
章程 105
第55 105
臺端 105
解除 105
論駁 105
足取 105
退@@ 105
通常 105
週@@ 105
顧問 105
10月份 104
二者 104
互 104
五萬@@ 104
享有 104
勞動力 104
工作日 104
建@@ 104
復健 104
指派 104
撥 104
水@@ 104
罰 104
計入 104
訴請 104
詳原 104
通過 104
過@@ 104
59 103
〕 103
一切 103
七千@@ 103
九千@@ 103
例如 103
出席 103
參與 103
存入 103
存續 103
本條 103
積極 103
結構 103
縱使 103
育嬰 103
譯文 103
買 103
關@@ 103
 103
一萬@@ 102
事@@ 102
事假 102
似 102
信用 102
停工 102
六百@@ 102
前項 102
報請 102
底薪 102
支 102
方面 102
特殊 102
縱@@ 102
繼續性 102
股票 102
身心 102
運用 102
違誤 102
部份 102
量 102
顯示 102
麗@@ 102
22@@ 101
之間 101
原領 101
揭@@ 101
文字 101
書予 101
次查 101
環境 101
第四百七十八 101
編號 101
聘僱 101
變動 101
返回 101
遲延者 101
配偶 101
信@@ 100
光@@ 100
全額 100
小@@ 100
我國 100
新北市 100
東西 100
異常 100
經@@ 100
評估 100
證2 100
超時 100
述 100
韓思徑 100
58 99
七百@@ 99
中華民國 99
假單 99
八百@@ 99
嗣後 99
承@@ 99
換 99
收取 99
民 99
第四百七十七 99
適任 99
還有 99
醫 99
i@@ 98
內@@ 98
八千@@ 98
勞退新制 98
區域 98
外@@ 98
援用 98
未@@ 98
核原告 98
減損 98
玉@@ 98
產生 98
畸零 98
祕密 98
第 98
記過 98
設計 98
路@@ 98
路線 98
運作 98
除以 98
雄 98
〔 97
三千@@ 97
九十五 97
半數 97
學生 97
建議 97
得心證 97
提@@ 97
擅自 97
收據 97
涉 97
英 97
薪金 97
規章 97
遭遇 97
遺屬 97
黃 97
49 96
71 96
74年 96
a@@ 96
亞@@ 96
休日 96
函@@ 96
卷可稽 96
可言 96
學@@ 96
必需 96
放 96
業如 96
機師 96
白@@ 96
盈餘 96
第10@@ 96
臨時 96
適法 96
「情節 95
一年 95
三年 95
偵查 95
刑事 95
十四 95
和解 95
大樓 95
照片 95
甚至 95
第27 95
約定書 95
職位 95
蔣@@ 95
補償費 95
解@@ 95
門 95
駐 95
150 94
3000 94
S@@ 94
○○@@ 94
九十九 94
全體 94
可@@ 94
可證 94
填 94
干擾 94
廠商 94
況@@ 94
第25 94
第449 94
聘用 94
薪資表 94
行駛 94
距 94
降 94
頭 94
240 93
26@@ 93
36@@ 93
79年 93
三十一日 93
九十九年 93
內發 93
印 93
州 93
市場 93
得@@ 93
忠 93
換言之 93
揭示 93
時間者 93
期滿 93
查詢 93
班@@ 93
第427 93
紀念日 93
納入 93
聽 93
良 93
詳予 93
誤 93
首 93
60@@ 92
」欄 92
告發 92
單純 92
恢復 92
業@@ 92
病 92
第0000000000 92
重新 92
鑑定 92
陳 92
項@@ 92
餘地 92
乙 91
借款 91
基金 91
工地 91
心證 91
按勞基法 91
明顯 91
渠 91
留 91
種類 91
第72 91
維修 91
計時 91
附件 91
68 90
8萬 90
九百@@ 90
侵佔 90
分爲 90
另@@ 90
執@@ 90
完畢 90
富@@ 90
左右 90
推介 90
既然 90
暫 90
月底 90
欣@@ 90
爲@@ 90
現在 90
稽 90
積 90
職業病 90
豪 90
霖 90
133 89
A 89
四千@@ 89
契約業 89
排除 89
揆諸 89
提及 89
提示 89
放棄 89
明文規定 89
未曾 89
機@@ 89
每個 89
獎勵 89
紀律 89
調度 89
長期 89
離職」 89
72 88
何況 88
依系 88
區分 88
嘉@@ 88
堪 88
存款 88
容 88
延後 88
收到 88
整體 88
昌 88
最近 88
機車 88
涉及 88
當年 88
稱之@@ 88
簽約 88
系@@ 88
罹於 88
致使 88
近 88
90年 87
五千@@ 87
億 87
入@@ 87
分行 87
別 87
十五日 87
品質 87
商品 87
所得稅 87
振@@ 87
然爲 87
當@@ 87
相 87
端 87
謀 87
證4 87
長@@ 87
25@@ 86
M@@ 86
一再 86
促進 86
公務員 86
凱@@ 86
包 86
十二 86
實物 86
成爲 86
打@@ 86
探針 86
政@@ 86
核備 86
款事 86
臺北縣 86
貨運 86
資單 86
迄@@ 86
鴻@@ 86
 86
91年 85
E@@ 85
○○ 85
上下班 85
並未 85
先後 85
副理 85
協力 85
合同 85
品 85
外出 85
應徵 85
濫用 85
第四@@ 85
蓮 85
補貼 85
警告 85
保存 84
停@@ 84
分述 84
山 84
己○○@@ 84
徐@@ 84
態樣 84
慰撫金 84
方@@ 84
每天 84
流程 84
略 84
第七十八 84
蘇州 84
資格 84
車站 84
進而 84
錯 84
24@@ 83
280 83
e 83
六千@@ 83
分級表 83
利己 83
制資 83
取捨 83
只是 83
如前所述 83
局 83
左 83
支援 83
整 83
數量 83
益 83
稅 83
芳 83
重@@ 83
門診 83
63 82
780 82
一致 82
五日 82
以此 82
函文 82
加入 82
圖 82
帳 82
心 82
支@@ 82
本身 82
櫃檯 82
爭執點 82
符@@ 82
聯 82
職日 82
被害人 82
計件 82
詳原證 82
陳美雀 82
＋@@ 82
76 81
98@@ 81
×@@ 81
〈 81
三○@@ 81
九十六年 81
亞 81
公務 81
大廈 81
審究 81
對@@ 81
巨@@ 81
平等 81
年間 81
廖@@ 81
應堪 81
應得 81
排班 81
數@@ 81
景氣 81
第84 81
結束 81
經理人 81
縱認 81
美 81
足證 81
隔 81
面試 81
一起 80
五百@@ 80
交@@ 80
住院 80
假@@ 80
十日前 80
各@@ 80
在案 80
客人 80
後續 80
懲戒性 80
擴張 80
民@@ 80
溢領 80
經濟目 80
良@@ 80
證7 80
運@@ 80
10萬 79
30@@ 79
O@@ 79
二千@@ 79
例假日 79
免職 79
全班 79
協調會 79
報到 79
多少 79
宏 79
支票 79
晟 79
留用 79
第四百四十九 79
致@@ 79
計@@ 79
越 79
逕行 79
遇 79
醫師 79
45@@ 78
73 78
〉 78
低 78
傷 78
列爲 78
室 78
形成 78
必要性 78
放假 78
方案 78
曾經 78
榮 78
私人 78
科技 78
稱之「 78
要旨 78
觀念 78
誠實 78
豈 78
貨@@ 78
體能 78
00000 77
28@@ 77
90@@ 77
t 77
」於 77
任@@ 77
佳@@ 77
做到 77
卷可佐 77
四萬@@ 77
回去 77
天@@ 77
守 77
廣@@ 77
強 77
提案 77
有利 77
江@@ 77
現 77
理@@ 77
第十 77
第四百八十一 77
考 77
職缺 77
薪資@@ 77
記得 77
農曆 77
週六 77
％ 77
C@@ 76
R@@ 76
○ 76
依證人 76
協約 76
年者 76
往返 76
後@@ 76
手冊 76
扣押 76
承諾書 76
料 76
明示 76
春節 76
時」 76
權利者 76
清冊 76
無論 76
無關 76
站長 76
被告依 76
要點 76
計日 76
調派 76
貼 76
追蹤 76
速 76
非自願 76
高雄 76
000@@ 75
273 75
4月份 75
事先 75
全年 75
哪 75
失@@ 75
嫌 75
廠長 75
日後 75
檢@@ 75
每週 75
決@@ 75
申請人 75
等於 75
線@@ 75
美國 75
脅迫 75
計月 75
誰 75
遽 75
重勞 75
顯@@ 75
40@@ 74
720 74
86年 74
87年 74
中間 74
主發 74
二十一日 74
代班 74
利用 74
動 74
合夥 74
固@@ 74
待命 74
投資 74
時薪 74
月工資 74
短@@ 74
結證 74
義 74
而是 74
藥 74
補@@ 74
購買 74
較爲 74
顯非 74
27@@ 73
365 73
85 73
C 73
低報 73
停 73
催告定 73
充分之工作者 73
切結書 73
利於 73
勞委會 73
司@@ 73
君 73
嗣於 73
國泰 73
在場 73
宏@@ 73
掉 73
曾@@ 73
會員 73
核於法 73
減薪 73
準用之 73
空@@ 73
置 73
衛生 73
訴訟@@ 73
軟體 73
逾期 73
達@@ 73
陳巧@@ 73
440 72
u@@ 72
一樣 72
休假@@ 72
值班 72
加發 72
卷附 72
原先 72
原本 72
反對 72
因訴 72
增訂 72
影 72
推認 72
提到 72
改變 72
更換 72
果 72
第28 72
管制 72
績 72
裁量 72
設有 72
證3 72
達成率 72
非屬 72
預定 72
鬆@@ 72
你們 71
公式 71
十二日 71
各自 71
字卷 71
宙@@ 71
或是 71
月間 71
泰 71
甲 71
當地 71
程式 71
累計 71
虛僞 71
覈算 71
證言 71
辯@@ 71
餘@@ 71
06 70
下同 70
九十三 70
伙食 70
備@@ 70
律師 70
憲法 70
投@@ 70
損 70
生效力 70
第85 70
第二十@@ 70
自堪信 70
裏面 70
該次 70
證1 70
違約 70
離職日 70
12月份 69
2月份 69
33@@ 69
d 69
l@@ 69
} 69
以免 69
住 69
傑 69
傳訊 69
出差 69
判命 69
即@@ 69
回溯 69
實務 69
常情 69
庭@@ 69
成@@ 69
戶 69
手@@ 69
承前述 69
採購 69
百分之六十 69
福利 69
緊密 69
處於 69
行銷 69
陽 69
11@@ 68
12萬 68
50@@ 68
520 68
69 68
F@@ 68
④ 68
任用 68
便 68
公寓 68
六日者 68
其假 68
合作 68
少於 68
徵詢 68
所述 68
施 68
核無 68
條@@ 68
營收 68
當庭 68
秀@@ 68
第385 68
繳@@ 68
藥師 68
表」 68
貨款 68
限期 68
駛車 68
龍 68
 68
9月份 67
丙 67
乃@@ 67
付者 67
再次 67
凡 67
口 67
司法院 67
器 67
團隊 67
婷 67
學 67
布@@ 67
果@@ 67
機械 67
無非 67
瑕疵 67
用餐 67
育@@ 67
自動 67
自願性 67
詳細 67
調工 67
豐 67
間@@ 67
體系 67
125 66
p@@ 66
二年 66
仍然 66
六萬@@ 66
前一日 66
十八日 66
單據 66
困難 66
大概 66
娟 66
屆期 66
幫忙 66
平 66
斯 66
條文 66
留下 66
畢 66
畢當 66
疏失 66
競爭 66
等級 66
箱 66
罵 66
衝突 66
計算者 66
詹@@ 66
誠 66
載明 66
輝 66
通@@ 66
通訊 66
開法 66
零 66
B@@ 65
s 65
{ 65
「非 65
上課 65
何人 65
先前 65
取消 65
存儲 65
完@@ 65
實在 65
對外 65
座談會 65
提升 65
政策 65
效 65
旨 65
書」 65
查覈 65
模具 65
民國 65
派遣 65
無從@@ 65
異動 65
第48 65
缺 65
藥品 65
被上訴 65
調任 65
請@@ 65
資產 65
輕 65
長榮 65
雅@@ 65
飛航 65
00@@ 64
3月份 64
840 64
仁@@ 64
係指 64
俊@@ 64
元＝ 64
公假 64
十六日 64
南@@ 64
四日 64
報@@ 64
失能 64
委員 64
子女 64
年發 64
年金 64
推 64
方屬 64
有別 64
本薪 64
板橋 64
桂@@ 64
權@@ 64
流@@ 64
申訴 64
福 64
第33 64
罹患 64
老師 64
華航 64
袋 64
008 63
34@@ 63
46@@ 63
48@@ 63
80@@ 63
89年 63
B 63
x@@ 63
五原 63
人均 63
以期 63
充分 63
免除 63
到期 63
動@@ 63
勞退金 63
協理 63
受損 63
可議 63
型 63
所在 63
援引 63
政府 63
明知 63
更改 63
期@@ 63
水 63
申請單 63
第34 63
第58 63
第70 63
訴@@ 63
該段 63
足徵 63
逕予 63
違@@ 63
領遲 63
首@@ 63
1月份 62
47@@ 62
680 62
850 62
9萬 62
中午 62
乘客 62
二十七日 62
休息日 62
依聲 62
再行 62
分擔 62
前提 62
務 62
原狀 62
固據 62
固有 62
如此 62
姓名 62
峯 62
廣告 62
怡 62
性別 62
拜訪 62
持 62
改進 62
整@@ 62
星期 62
晚 62
板 62
爭執者 62
發票 62
盤點 62
翔 62
聯繫 62
裁 62
裝@@ 62
訊息 62
身 62
迄今 62
逕@@ 62
階段 62
領得 62
麗 62
100@@ 61
111 61
140 61
320 61
38@@ 61
T@@ 61
之上訴 61
初次 61
合理性 61
告聲 61
回答 61
夜班 61
大約 61
審認 61
工作@@ 61
布 61
常 61
手術 61
按照 61
會@@ 61
本訴 61
樓 61
檢 61
津 61
爰酌 61
當初 61
短報 61
第八 61
結書 61
聽到 61
自有 61
藥@@ 61
送@@ 61
開設 61
D 60
W@@ 60
七萬@@ 60
二十五日 60
五十 60
付款 60
代理 60
依下 60
依歷 60
僱人 60
光碟 60
利@@ 60
危害 60
去職 60
國籍 60
夜間 60
徒 60
效率 60
科 60
累次 60
細@@ 60
經由 60
罰鍰 60
職員 60
處分者 60
調降 60
金融 60
10年 59
113 59
11月份 59
360 59
960 59
d@@ 59
t@@ 59
三分之一 59
充 59
制資遣 59
十九日 59
參以 59
反 59
可信 59
四十 59
幹事 59
待遇 59
性」 59
接@@ 59
李志@@ 59
概念 59
消極 59
源 59
無理由 59
王明豊 59
競賽 59
第35 59
範疇 59
網路 59
裁@@ 59
西@@ 59
計算@@ 59
資條 59
賣 59
進度 59
過去 59
銘@@ 59
錦@@ 59
15萬 58
49@@ 58
99@@ 58
並且 58
中國 58
二十八日 58
付資 58
偉@@ 58
切 58
及@@ 58
名冊 58
外派 58
季節性 58
審酌者 58
寶@@ 58
工具 58
幹部 58
悉 58
普@@ 58
次年 58
滿半年者 58
無權 58
然後 58
然此 58
玲 58
票值 58
第16@@ 58
算@@ 58
蕭@@ 58
製造 58
規@@ 58
規劃 58
詐欺 58
論@@ 58
證實 58
途中 58
銘 58
驗 58
鴻海 58
130 57
4000 57
8月份 57
L@@ 57
o@@ 57
」者 57
世@@ 57
互相 57
休畢 57
佩@@ 57
依本法 57
保險@@ 57
准假 57
分公司 57
勞上字 57
印章 57
司法 57
同一性 57
地@@ 57
執勤 57
妳 57
實體 57
常@@ 57
心@@ 57
收班 57
欠缺 57
法所@@ 57
照@@ 57
營業@@ 57
發車 57
研@@ 57
移交 57
第50 57
納@@ 57
紙@@ 57
經濟部 57
而@@ 57
職稱 57
興 57
補發 57
該事 57
議 57
述@@ 57
退休金者 57
鑰匙 57
電 57
體 57
高薪 57
139 56
167 56
178 56
57@@ 56
一律 56
七十四 56
住戶 56
僞造 56
兼顧 56
化 56
即使 56
反而 56
四萬 56
國際 56
如@@ 56
娘 56
存@@ 56
德@@ 56
怎 56
您 56
意@@ 56
慧 56
提早 56
於言詞 56
服@@ 56
本於 56
查證 56
洪 56
清償日 56
無誤 56
版 56
王 56
直屬 56
督導 56
第247 56
答 56
答辯 56
續@@ 56
臺北市 56
蘭 56
言語 56
該月 56
證6 56
逕認 56
離職@@ 56
顯系 56
109 55
44@@ 55
5月份 55
8000 55
」一語 55
任務 55
佐證 55
八十七 55
公共 55
半@@ 55
團體@@ 55
士 55
彭@@ 55
患 55
放@@ 55
斷@@ 55
業主 55
檢舉 55
欣 55
犯 55
相互 55
第0@@ 55
第195 55
第235 55
第482 55
範@@ 55
致於 55
舉凡 55
證9 55
議@@ 55
跑 55
龍@@ 55
110 54
184 54
a 54
交代 54
作@@ 54
俱 54
參考 54
品@@ 54
商@@ 54
回執 54
坤 54
奕 54
年齡 54
廳民 54
形象 54
晚間 54
替 54
某 54
瀚@@ 54
照顧 54
爭@@ 54
目@@ 54
研發 54
簽收 54
組員 54
芳@@ 54
裏 54
語@@ 54
足採 54
車道 54
降職 54
馬@@ 54
189 53
20萬 53
85年 53
三分之二 53
付日 53
個案 53
傳 53
兩者 53
力@@ 53
勝 53
始終 53
專 53
居@@ 53
接到 53
收費 53
效@@ 53
方服 53
暫停 53
未合 53
本判 53
根本 53
桃園 53
次數 53
正確 53
比照 53
珍 53
用@@ 53
留@@ 53
盛@@ 53
立@@ 53
第54 53
第7@@ 53
統一 53
自訂 53
華@@ 53
詎 53
課@@ 53
貴 53
貸款 53
醫學院 53
體@@ 53
30分 52
70@@ 52
88年 52
SOP 52
[ 52
o 52
s@@ 52
二十三日 52
二十九日 52
仲裁 52
位置 52
修@@ 52
八十九 52
出現 52
十三 52
卷@@ 52
回收 52
子公司 52
庚○○ 52
彥@@ 52
得知 52
怠忽 52
所@@ 52
文義 52
旅館 52
查依 52
泄漏 52
派駐 52
清單 52
溢 52
爲標 52
班次 52
理事長 52
異 52
短髮 52
示@@ 52
祥 52
移 52
第09400@@ 52
第450 52
義@@ 52
至@@ 52
表達 52
覺得 52
記@@ 52
訴字 52
詞置辯 52
適格 52
鍾@@ 52
長髮 52
防止 52
隊員 52
 52
＝@@ 52
39@@ 51
7月份 51
N@@ 51
r@@ 51
「日 51
亞東 51
信賴 51
其後 51
分工合作 51
前案 51
即時 51
嗣@@ 51
媚 51
字@@ 51
富 51
實行 51
慶 51
技能 51
撤回 51
救濟 51
次@@ 51
求@@ 51
油@@ 51
減@@ 51
溫@@ 51
潘@@ 51
申@@ 51
發送 51
第九 51
管理部 51
行業 51
行號 51
設置 51
註記 51
誤@@ 51
論件 51
越南 51
距離 51
返臺 51
錄 51
門市 51
間接 51
閱 51
障礙 51
餐廳 51
040 50
166 50
] 50
」云云 50
二十六 50
今天 50
個別 50
值@@ 50
健 50
傳送 50
僱@@ 50
其次 50
制@@ 50
同月 50
嚴@@ 50
填補 50
察 50
對方 50
工友 50
左@@ 50
店長 50
怠忽職守 50
成績 50
扣繳 50
暫時 50
榮@@ 50
機密 50
檔案 50
減縮 50
特徵 50
瑞 50
確保 50
第二百@@ 50
管@@ 50
細表 50
編制 50
羅 50
自明 50
衡情 50
親 50
設定 50
調度室 50
證5 50
財產權 50
車上 50
轉任 50
遽認 50
除@@ 50
集團 50
骨折 50
... 49
17年 49
6月份 49
g@@ 49
並@@ 49
供擔 49
借貸 49
兩@@ 49
列@@ 49
勤@@ 49
十分之一 49
商 49
因@@ 49
場 49
外人 49
宇 49
對照 49
居於 49
差額@@ 49
廣 49
延時 49
復於 49
情@@ 49
拒 49
指「 49
按時 49
撫卹 49
擬 49
此事 49
當月份 49
盛 49
看@@ 49
石 49
第21827 49
第233 49
第43 49
第49 49
第一百@@ 49
第三十八 49
糾紛 49
考評 49
股權 49
覈對 49
言@@ 49
該期 49
起算 49
足@@ 49
退還 49
陶@@ 49
離職者 49
類似 49
駕駛工 49
．@@ 49
177 48
236 48
56@@ 48
880 48
920 48
H@@ 48
「績 48
一併 48
仁愛 48
八日 48
八萬@@ 48
公 48
六十 48
共有 48
初@@ 48
制裁 48
厥 48
口@@ 48
土城 48
妨害 48
子@@ 48
字樣 48
寄@@ 48
左手 48
帳@@ 48
很多 48
憑證 48
房屋 48
投保薪資 48
持有 48
支領 48
收回 48
改@@ 48
敏 48
海@@ 48
營@@ 48
營利 48
猶 48
疵累 48
短期 48
端視 48
第69 48
籤@@ 48
習慣 48
芬 48
衣 48
被@@ 48
語置 48
負@@ 48
資金 48
遭@@ 48
重複 48
開勞 48
開情 48
陳明 48
雖然 48
離職單 48
難@@ 48
預先 48
10時 47
35@@ 47
480 47
y@@ 47
一些 47
七十 47
中秋節 47
之外 47
人格權 47
係爭 47
僱傭者 47
元云云 47
加上 47
北區 47
及時 47
基此 47
審覈 47
工作系 47
從@@ 47
必然 47
懲 47
排 47
旨@@ 47
春 47
有如 47
有時候 47
歸還 47
每次 47
甲○○於 47
發出 47
相當性 47
第十六 47
節@@ 47
翻異 47
育 47
胡@@ 47
自95年 47
自始 47
號@@ 47
誤會 47
論斷 47
變@@ 47
赴 47
顯屬 47
風險 47
骨 47
． 47
30萬 46
48956 46
8時 46
世曦 46
九日 46
事實上 46
二十日 46
依「 46
依原 46
儀 46
優@@ 46
具@@ 46
到@@ 46
創 46
動作 46
勞力 46
勞退舊制 46
十七日 46
反映 46
各月 46
大小章 46
妨礙 46
寶 46
差異 46
御 46
怠於 46
惠@@ 46
意圖 46
招募 46
排@@ 46
控制 46
早已 46
核與 46
湖 46
燿@@ 46
爾 46
特助 46
獎金@@ 46
璽 46
第123 46
第234 46
第41 46
第71 46
第83 46
緊急 46
職場 46
肇事 46
舊@@ 46
萍 46
被告復 46
訪 46
許可 46
認屬 46
認知 46
誤信 46
證8 46
變 46
資計 46
轉向 46
辭 46
辱罵 46
迅速 46
這些 46
道路 46
遣@@ 46
配@@ 46
降低 46
零件 46
預期 46
預警 46
450 45
550 45
上面 45
中斷 45
九十四 45
今 45
俊 45
借@@ 45
僱主經徵 45
其他人 45
典 45
分局 45
參諸 45
可抗力 45
和@@ 45
地址 45
多@@ 45
失效 45
威@@ 45
婦幼 45
恩惠性 45
惡意 45
成品 45
揭法 45
早@@ 45
智@@ 45
機票 45
檔 45
歌 45
況且 45
獎 45
獲取 45
瑋 45
璟豐 45
程 45
站@@ 45
管委會 45
粉 45
置備 45
興@@ 45
茂@@ 45
警@@ 45
賠償之 45
選 45
金」 45
鎮 45
顧問@@ 45
" 44
116 44
18萬 44
58@@ 44
M 44
b@@ 44
之際 44
九萬@@ 44
事前 44
伍 44
倘@@ 44
允許 44
元× 44
內涵 44
兼任 44
准予 44
分期 44
分院 44
勵 44
包@@ 44
南 44
印象 44
命@@ 44
國防 44
多數 44
審議 44
徐佩妤 44
情狀 44
扣@@ 44
拆@@ 44
攸關 44
施行日 44
明白 44
時段 44
曠@@ 44
有時 44
查明 44
根據 44
檢察官 44
次日 44
止@@ 44
氣 44
沛@@ 44
洽 44
涉嫌 44
爰@@ 44
牌 44
產 44
產@@ 44
眷屬 44
睡覺 44
私@@ 44
署 44
莊 44
解任 44
訊 44
試用期 44
認可 44
迴應 44
醜○○ 44
錄影 44
陸續 44
難認 44
0000@@ 43
132 43
185 43
32@@ 43
570 43
640 43
79@@ 43
K@@ 43
b 43
n@@ 43
一下 43
主系 43
乙@@ 43
二十六日 43
人民幣 43
以觀 43
保密 43
先行 43
八十八 43
原證3 43
去年 43
句 43
可堪 43
名目 43
址 43
基@@ 43
外國人 43
大學 43
妻 43
寧 43
廢@@ 43
式 43
從屬 43
惟依 43
慢 43
應領 43
手續者 43
支配 43
新竹 43
普 43
柏@@ 43
歸@@ 43
每@@ 43
治 43
無足採 43
特定性 43
狀@@ 43
狀繕 43
現@@ 43
碼 43
第47 43
答辯狀 43
節日 43
締結 43
縱因 43
缺@@ 43
肇@@ 43
臨時性 43
補充 43
視@@ 43
觀察 43
訂@@ 43
調取 43
請準 43
辭@@ 43
退保當 43
造就 43
金庫 43
隨即 43
鳳 43
29@@ 42
37@@ 42
V@@ 42
×1 42
介@@ 42
估 42
何以 42
俸@@ 42
債 42
刊登 42
列原 42
判決書 42
刷 42
創@@ 42
勞訴字 42
印@@ 42
坐 42
型態 42
客 42
平@@ 42
康 42
恩@@ 42
搬運 42
教@@ 42
服務法 42
材 42
權威 42
法條 42
爲此 42
王世@@ 42
現行 42
生育 42
異@@ 42
發揮 42
益@@ 42
社 42
私下 42
第五十九 42
簡稱 42
縮減 42
義務人 42
股@@ 42
處服 42
該項 42
造@@ 42
週休 42
適@@ 42
遭受 42
鍰 42
闖 42
院@@ 42
駁回之 42
ꆼ 42
141 41
210 41
43@@ 41
69@@ 41
88@@ 41
an@@ 41
k@@ 41
「被保險人 41
但書 41
保證書 41
先@@ 41
公所 41
出去 41
劉美@@ 41
加害 41
勞動契 41
即日 41
各月份 41
商議 41
圖@@ 41
坤@@ 41
工業 41
延@@ 41
形成權 41
復未 41
懷孕 41
戶數 41
扣薪 41
換算 41
明天 41
檢附 41
消費 41
玉 41
班表 41
瑋@@ 41
男 41
疑問 41
睿@@ 41
破壞 41
穎@@ 41
第96 41
第9@@ 41
網站 41
臺中 41
花 41
花@@ 41
解決 41
解聘 41
評定 41
試@@ 41
認事 41
認識 41
貨物 41
通報 41
霞 41
１ 41
188 40
6年 40
84年 40
L 40
c@@ 40
一旦 40
久@@ 40
二十五 40
任人 40
佔 40
作業員 40
佣金 40
偵字 40
傳真 40
全日 40
剝奪 40
勞上易字 40
勞訴 40
合作社 40
合約書 40
同僚 40
單影本 40
執照 40
壬○○@@ 40
宣佈 40
性@@ 40
抑或 40
推算 40
教職員工 40
整理 40
曜 40
更@@ 40
有據 40
林口 40
正義 40
求權 40
江 40
海外 40
深@@ 40
火@@ 40
焉 40
爲目 40
生產線 40
畫面 40
第1017 40
第1602 40
第227 40
第42 40
第八十四 40
考慮 40
職工 40
英文 40
萬0@@ 40
薇 40
處罰 40
衛生法 40
補助費 40
要約 40
資遣者 40
開事 40
開行 40
關 40
防@@ 40
附帶 40
鼎 40
 40
！ 40
115 39
138 39
1400 39
181 39
292 39
350 39
510 39
560 39
G@@ 39
h@@ 39
乙次 39
假期 39
共識 39
出生 39
出資 39
分數 39
分析 39
加班@@ 39
勞工@@ 39
卡@@ 39
原料 39
只能 39
右 39
境外 39
壬○○ 39
宋@@ 39
專@@ 39
就診 39
工」 39
張育@@ 39
忠實 39
技工 39
換@@ 39
教 39
日常 39
李文@@ 39
機臺 39
檢察署 39
欽 39
款@@ 39
決系 39
泰@@ 39
然原 39
生終止 39
畇 39
矛盾 39
稽覈 39
空言 39
第57 39
第92 39
第五十三 39
第四百八十七 39
約定者 39
衛@@ 39
覆@@ 39
訓 39
詳如 39
費用額 39
超@@ 39
跟@@ 39
那天 39
陸@@ 39
隱@@ 39
離職原 39
離職員工 39
電視 39
面臨 39
須屬 39
頭@@ 39
飛安 39
鬚髮 39
146 38
160 38
176 38
183 38
224 38
394 38
59@@ 38
DM 38
Q@@ 38
c 38
v@@ 38
×2 38
○○○○@@ 38
上海 38
主事 38
九十一 38
倪@@ 38
儲蓄 38
全數 38
函示 38
制度者 38
取@@ 38
吃 38
啊 38
大致 38
妥 38
宥@@ 38
年限 38
徵@@ 38
扣款 38
抵@@ 38
抽@@ 38
指稱 38
授 38
提高 38
撞 38
撰寫 38
本會 38
材料 38
森 38
檢視 38
款「 38
測試 38
漏 38
然其 38
然被 38
班長 38
理事 38
留任 38
石@@ 38
確@@ 38
租賃 38
程@@ 38
稽查 38
第00@@ 38
第40 38
第十五 38
紅燈 38
自負額 38
自身 38
臺泥 38
舞弊 38
裝 38
覈計 38
解約 38
解職 38
諮詢 38
資源 38
趙@@ 38
辛○○ 38
追繳 38
通知單 38
遑論 38
遠@@ 38
遺失 38
阿 38
零用金 38
領有 38
點半 38
000000 37
000×@@ 37
108 37
144 37
55@@ 37
580 37
666 37
m@@ 37
之內 37
以致 37
例外 37
保單 37
克@@ 37
公平者 37
出國 37
出院 37
函覆 37
別人 37
原定 37
司 37
合致 37
喪 37
執此 37
境 37
壓@@ 37
娛樂 37
婉@@ 37
密碼 37
寡 37
審判 37
封 37
專櫃 37
展 37
年薪 37
復工 37
怡@@ 37
恐嚇 37
承受 37
承接 37
控管 37
推知 37
故上訴人 37
早班 37
有人 37
東 37
架 37
永 37
油資 37
漢 37
營業額 37
珮@@ 37
由此 37
百分之六十者 37
目條列 37
祐@@ 37
票@@ 37
私校 37
究竟 37
第5@@ 37
第917 37
紀念 37
紀錄表 37
網 37
總共 37
總數 37
職責 37
裕 37
補休 37
複@@ 37
說@@ 37
資」 37
購 37
超 37
轉調 37
返 37
遺基數 37
邊 37
那個 37
醫@@ 37
里程 37
重在 37
鐵@@ 37
開車 37
預扣 37
領者 37
飛行 37
餘額 37
駛@@ 37
２ 37
0000000 36
182 36
267 36
456 36
576 36
P 36
ro@@ 36
~ 36
主間 36
乙職 36
二十四日 36
人民 36
修訂 36
優先 36
充@@ 36
其訴 36
兼職 36
功@@ 36
加工 36
北府 36
反@@ 36
吉@@ 36
售 36
喪葬 36
園 36
外包 36
完整 36
客運 36
引起 36
恩惠 36
技術股 36
指明 36
接觸 36
損@@ 36
撥@@ 36
數點 36
日報表 36
智 36
更爲 36
本文 36
毀損 36
洵@@ 36
清潔隊 36
然依 36
瑄 36
生合法 36
用人 36
病@@ 36
短期性 36
私自 36
租金 36
空 36
第12@@ 36
第153 36
第6@@ 36
經合法 36
網頁 36
縱然 36
自當 36
英@@ 36
行動 36
親@@ 36
變化 36
轉換 36
送貨 36
遞@@ 36
釋@@ 36
面@@ 36
項次 36
順@@ 36
顯有 36
123 35
134 35
833 35
k 35
on@@ 35
」系 35
人事@@ 35
人爲 35
付額 35
份@@ 35
依僱 35
保養 35
元」 35
公會 35
凌 35
勉勵 35
務@@ 35
可佐 35
合夥人 35
同條 35
國內 35
型@@ 35
學說 35
宗 35
客@@ 35
尊重 35
尚@@ 35
工資者 35
師 35
應屬 35
所有權 35
按@@ 35
提存 35
搬 35
故此 35
施@@ 35
早退 35
景@@ 35
月發 35
板勞 35
核予 35
檢討 35
求償 35
洵非 35
減省 35
無從遽 35
然上 35
爭切 35
爲什 35
百分之6 35
直至 35
稱@@ 35
第62 35
第82 35
第88 35
簽定 35
籍 35
統@@ 35
統計 35
自無一一 35
至多 35
至明 35
若@@ 35
處長 35
規避 35
設施 35
訴訟標 35
該筆 35
資明 35
辛○○@@ 35
進一步 35
道@@ 35
遵循 35
鑫@@ 35
長庚 35
隨意 35
難爲 35
鴻 35
14萬 34
16萬 34
256 34
351 34
420 34
650 34
728 34
875 34
I 34
LINE 34
di@@ 34
÷2 34
丁 34
主體 34
住處 34
何種 34
修改 34
假事 34
停職 34
傳票 34
傷勢 34
儀@@ 34
儲@@ 34
免@@ 34
公報 34
其間 34
再@@ 34
剛 34
勸導 34
匯@@ 34
十三日 34
十六 34
半發 34
印尼 34
國民 34
城@@ 34
報酬額 34
外面 34
學習 34
宣@@ 34
容@@ 34
建 34
彈性 34
影@@ 34
往往 34
快 34
情形者 34
意志 34
感 34
房 34
拘束@@ 34
方向 34
暫@@ 34
末@@ 34
案@@ 34
業者 34
模 34
步@@ 34
歷@@ 34
法代 34
添 34
潛力 34
無意願 34
獲利 34
痛苦 34
穎 34
端午節 34
第129 34
第148 34
第19@@ 34
第95 34
管理@@ 34
管理員 34
簽到簿 34
約@@ 34
約款 34
縣 34
考@@ 34
聘任 34
號碼 34
行爲人 34
衝@@ 34
被告固 34
被告應 34
評比 34
該員 34
諭知 34
警衛 34
賢 34
走@@ 34
車子 34
軒 34
通念 34
運送 34
配置 34
錯@@ 34
顧 34
顧客 34
颱風 34
駕駛@@ 34
149 33
200@@ 33
203 33
380 33
656 33
672 33
760 33
er 33
上級 33
並計 33
久任 33
二十二日 33
代辦 33
停車 33
僱」 33
凱 33
出勤卡 33
出發 33
勤務 33
勾選 33
哲 33
單方面 33
嚴格 33
四十五 33
回報 33
國庫 33
土地 33
堪予 33
好@@ 33
少報 33
就醫 33
工作量 33
年滿 33
廢止 33
引擎 33
惠 33
截@@ 33
抗 33
推論 33
損壞 33
施工 33
曆 33
書寫 33
本法所定 33
本質 33
極 33
檢驗 33
此節 33
歷年 33
毛@@ 33
沉默 33
津貼@@ 33
涉@@ 33
營業所 33
產業 33
當面 33
症狀 33
盤 33
相處 33
知@@ 33
稅額 33
稽@@ 33
突然 33
立法院 33
符「 33
第280 33
第46 33
第51 33
第60 33
第98 33
第一@@ 33
等@@ 33
罪 33
良好 33
蓉 33
蓋章 33
號函 33
裁撤 33
該函 33
講@@ 33
貞 33
資深 33
資遣@@ 33
身@@ 33
輪 33
輪休 33
輪值 33
退職金 33
釋 33
釐清 33
鈞@@ 33
開「 33
陳清@@ 33
隨 33
離職書 33
靜@@ 33
養 33
駕車 33
麥@@ 33
020 32
13萬 32
145 32
151 32
156 32
205 32
215 32
221 32
304 32
375 32
460 32
6000 32
76年 32
908 32
E 32
er@@ 32
乙事 32
事業主 32
代墊 32
伙食費 32
低@@ 32
依月 32
俾 32
假」 32
優於 32
元＋ 32
八十 32
其目 32
刪除 32
十七 32
反覆 32
合格 32
哥 32
國稅局 32
培訓 32
基益 32
增 32
壹@@ 32
外國 32
大」 32
太太 32
小數點 32
少@@ 32
展@@ 32
工人 32
帳號 32
幣@@ 32
役 32
後者 32
恣意 32
批@@ 32
拿@@ 32
揭勞 32
改組 32
會議室 32
有爲 32
末查 32
板@@ 32
某@@ 32
案場 32
死亡者 32
毫無 32
油 32
無需 32
燕 32
物料 32
琪 32
登記表 32
監@@ 32
直@@ 32
立場 32
第68 32
系採 32
結@@ 32
經本院 32
繼承 32
翔@@ 32
老@@ 32
聖@@ 32
致生 32
臺南 32
融@@ 32
製程 32
託 32
評覈 32
該車 32
證照 32
讓@@ 32
貨單 32
質 32
購物 32
路口 32
關節 32
須@@ 32
領到 32
顧及 32
駕 32
／ 32
118 31
119 31
11萬 31
136 31
207 31
216 31
220 31
340 31
540 31
54@@ 31
64@@ 31
670 31
68@@ 31
G 31
X@@ 31
at@@ 31
五十五 31
五千 31
亮 31
何事 31
信任 31
修理 31
健@@ 31
具狀 31
刑 31
勳 31
區@@ 31
千@@ 31
升@@ 31
半日 31
反之 31
告誡 31
單獨 31
堪以 31
契約書 31
女性 31
奶@@ 31
娜 31
孫@@ 31
官 31
層 31
彌補 31
彰 31
彼此 31
思@@ 31
情緒 31
應予 31
手鐲 31
承辦 31
探求 31
日÷ 31
旨在 31
晉@@ 31
服務費 31
本國 31
梅 31
歧視 31
每人 31
汪@@ 31
況上訴人 31
獎金」 31
理財 31
甲@@ 31
當下 31
疑義 31
病人 31
確係 31
科@@ 31
第179 31
第十八 31
節金 31
素@@ 31
維@@ 31
舉@@ 31
落實 31
衆 31
表影 31
評議 31
認原 31
調劑 31
證人@@ 31
議定之 31
負債務 31
買賣 31
貸 31
超出 31
退休@@ 31
適合 31
遺@@ 31
針 31
鋼@@ 31
隆 31
非常 31
領班 31
 31
00000000 30
009 30
024 30
047 30
11時 30
131 30
143 30
152 30
168 30
255 30
430 30
630 30
970 30
980 30
Ch@@ 30
⑤ 30
一半 30
一審 30
亂 30
互@@ 30
享@@ 30
人資 30
付予 30
代替 30
仲@@ 30
依約 30
倉庫 30
健保費 30
共@@ 30
冒@@ 30
出貨 30
函意旨 30
列舉 30
判 30
劉玉@@ 30
勞保費 30
勞務@@ 30
包裝 30
取代 30
各類 30
告假 30
命令權 30
唯 30
商譽 30
增@@ 30
壹 30
如同 30
婧@@ 30
官@@ 30
客訴 30
實習 30
導@@ 30
山@@ 30
常態 30
幹 30
待@@ 30
志 30
投訴 30
探@@ 30
放在 30
政 30
故依 30
曠職@@ 30
更行 30
服役 30
椅 30
標@@ 30
櫃 30
法理 30
法益 30
洲 30
清舊制 30
準@@ 30
無異 30
照常 30
物@@ 30
特約 30
申請表 30
登錄 30
稱之其他 30
立法目 30
第126 30
第197 30
第44 30
第52 30
第740 30
第77 30
第87 30
簿 30
結案 30
聚@@ 30
舉動 30
行政@@ 30
解卷 30
語言 30
諸@@ 30
護@@ 30
財 30
財團 30
質疑 30
辯解 30
迭 30
進用 30
遲@@ 30
選@@ 30
鄧@@ 30
鈞 30
長官 30
門@@ 30
陳明@@ 30
非必發 30
顧@@ 30
馬 30
騎@@ 30
３ 30
05 29
080 29
201@@ 29
260 29
297 29
372 29
398 29
5時 29
620 29
81年 29
J@@ 29
in@@ 29
le@@ 29
n 29
「依 29
一部分 29
上開 29
交通費 29
供@@ 29
保聲 29
信件 29
倉@@ 29
偟 29
傷@@ 29
僱事 29
元計 29
具文 29
判力 29
勁@@ 29
即謂 29
單」 29
士@@ 29
外籍 29
如數 29
子○○ 29
實際@@ 29
就要 29
屢 29
巡@@ 29
成就 29
承 29
折@@ 29
抵達 29
拘泥 29
排休 29
排班表 29
控@@ 29
揚 29
揚@@ 29
損耗 29
擴大 29
攝 29
改稱 29
故而 29
時速 29
更何況 29
本件系 29
林詩@@ 29
標準@@ 29
樹林 29
檢署 29
氣@@ 29
決策 29
況勞工 29
派@@ 29
消@@ 29
清理 29
燃料 29
片 29
瑛 29
百@@ 29
省 29
知識 29
竹@@ 29
第56 29
第63 29
節約 29
絕 29
總和 29
總裁 29
義務者 29
職單 29
自然 29
航空 29
被告於 29
補償金 29
記錄表 29
詐領 29
評分 29
該月份 29
該院 29
課程 29
調薪 29
警察局 29
豐@@ 29
退撫 29
鎖 29
開存證 29
除非 29
陳報 29
隔@@ 29
非謂 29
騎 29
鬆 29
魏@@ 29
050 28
08 28
117 28
142 28
1500 28
163 28
212 28
230 28
276 28
27萬 28
290 28
417 28
583 28
733 28
78@@ 28
793 28
; 28
f@@ 28
p 28
y 28
‧‧ 28
」勞 28
」觀 28
一時 28
三字 28
下去 28
中旬 28
五百 28
亦@@ 28
代表人 28
件@@ 28
依然 28
侮辱者 28
倘若 28
傅@@ 28
備勤 28
其月 28
再度 28
前者 28
勾@@ 28
卿 28
右@@ 28
各法 28
圓 28
報告書 28
壓 28
外務 28
始足當之 28
孫 28
定事 28
宴 28
審判決 28
專門 28
對待 28
就@@ 28
屬@@ 28
峻 28
州@@ 28
巧@@ 28
市@@ 28
師傅 28
帶@@ 28
延宕 28
弘 28
懲罰 28
成年 28
戶籍 28
承擔 28
投保@@ 28
指導 28
提醒 28
收款 28
日言詞 28
易 28
星期六 28
朗 28
楊 28
樺 28
沈@@ 28
油料 28
法目 28
派員 28
涵 28
減輕 28
無可採 28
熟悉 28
爲主 28
爲有據 28
瑜 28
登@@ 28
私法 28
秦@@ 28
積@@ 28
第101 28
第94 28
第三十一 28
等情 28
粉@@ 28
翌月 28
自民國 28
花費 28
萬0 28
落 28
被告聲 28
觀諸 28
訟 28
請問 28
證物 28
貨品 28
資表 28
軟體@@ 28
輪班 28
逕自 28
通動 28
速@@ 28
進去 28
還要 28
醫藥費 28
量@@ 28
開函 28
開情詞 28
陳冠@@ 28
雜@@ 28
難期 28
非有據 28
非正當 28
養@@ 28
馬上 28
駕駛人 28
駛 28
高低 28
.... 27
126 27
137 27
172 27
190 27
1份 27
222 27
225 27
268 27
282 27
313 27
330 27
412 27
756 27
K 27
MA@@ 27
U@@ 27
ac@@ 27
g 27
w@@ 27
○○○@@ 27
「月 27
一百零@@ 27
事務@@ 27
交予 27
依上 27
保免 27
信原 27
停車場 27
備查 27
僱方 27
八十五 27
勞資字 27
匯入 27
十二@@ 27
即將 27
口角 27
名片 27
名譽權 27
善 27
善@@ 27
因故 27
在@@ 27
外部 27
多久 27
字號 27
審定 27
平時 27
幼稚園 27
引用 27
強@@ 27
形@@ 27
彥 27
忘記 27
悅 27
慈 27
懷 27
戒 27
掛@@ 27
掬@@ 27
提列 27
據@@ 27
整個 27
日本 27
日者 27
時性 27
最@@ 27
有理 27
查獲 27
根@@ 27
權利人 27
此舉 27
治@@ 27
洪志誠 27
海 27
深圳 27
清算 27
湯@@ 27
準確 27
無意 27
無違 27
然該 27
父母 27
牙@@ 27
用以 27
發明 27
盟 27
督@@ 27
神經 27
第1979號 27
第30@@ 27
第328433 27
答應 27
節目 27
簽@@ 27
米 27
系屬 27
經歷 27
美華 27
藥局 27
處以 27
虛@@ 27
表格 27
製@@ 27
計」 27
計算表 27
註明 27
該局 27
談@@ 27
警 27
貨車 27
責@@ 27
貴@@ 27
賜 27
超速 27
車門 27
遑 27
遽@@ 27
部@@ 27
釋明 27
鈞院 27
錄取 27
開終 27
開門 27
限@@ 27
陳正@@ 27
雅 27
雙 27
靜 27
靠 27
面談 27
食@@ 27
駐外 27
．．． 27
｝ 27
0元 26
121 26
12時 26
174 26
17萬 26
217 26
254 26
288 26
475 26
5年 26
60％ 26
625 26
652 26
775 26
7時 26
80年 26
818 26
830 26
N 26
ar@@ 26
m 26
丁@@ 26
上網 26
下滑 26
丙○○○@@ 26
之下 26
事業羣 26
作證 26
依上訴人 26
依舉 26
內者 26
公示 26
出售 26
剩餘 26
化@@ 26
去@@ 26
善良 26
單一 26
回到 26
土@@ 26
地主 26
垃圾 26
壽險 26
女 26
女兒 26
好像 26
子○○@@ 26
尾牙 26
年期 26
座@@ 26
庫存 26
廠@@ 26
廠區 26
彎 26
彎@@ 26
得出 26
愛@@ 26
應證 26
成果 26
我@@ 26
招@@ 26
推廣 26
教職員 26
新增 26
旅客 26
星期日 26
核均 26
棟 26
欠@@ 26
正當性 26
武@@ 26
殊 26
比@@ 26
水果 26
港 26
源@@ 26
火 26
爲準 26
特性 26
甚@@ 26
疏忽 26
發函 26
發動 26
益徵 26
盡@@ 26
相反 26
祕書 26
神差 26
私 26
笑 26
第09@@ 26
第25564 26
第2624 26
第61 26
第93 26
第三@@ 26
第五十@@ 26
第四百@@ 26
第第 26
節本 26
簡字 26
統計表 26
網@@ 26
緊縮」 26
總時 26
總表 26
總醫院 26
罹 26
美金 26
肆 26
膝 26
自堪 26
苟 26
莞 26
菁 26
藍@@ 26
藥物 26
衡 26
裁定 26
要素 26
覈@@ 26
覈定之 26
觀@@ 26
財政部 26
賠償@@ 26
賴 26
辱 26
述「 26
通知@@ 26
逾@@ 26
運 26
鋒@@ 26
階 26
雜 26
順 26
領資 26
顯無 26
飛機 26
-@@ 25
112 25
164 25
17280 25
192 25
196 25
198 25
199 25
204 25
206 25
213 25
264 25
308 25
315 25
348 25
590 25
5％ 25
7000 25
738 25
744 25
7點 25
892 25
S 25
line 25
oo@@ 25
×資 25
「有 25
主照 25
事務所 25
交還 25
今年 25
企@@ 25
來@@ 25
便利 25
倉儲 25
借調 25
偏頗 25
健保局 25
債權@@ 25
像 25
優惠 25
八十四 25
公平合理 25
公文 25
公車 25
刑法 25
判@@ 25
剋扣 25
功績 25
勸@@ 25
協@@ 25
參見本院 25
可能性 25
名下 25
壞 25
大部分 25
套 25
如期 25
安裝 25
定「 25
客服 25
小月 25
幾乎 25
廁所 25
得免 25
憂鬱症 25
或者 25
招生 25
掛號 25
撤@@ 25
教師 25
敢 25
散@@ 25
斯@@ 25
日班 25
更正 25
有期徒刑 25
朋友 25
林美@@ 25
樣 25
檳榔 25
此情形 25
準法 25
無從依 25
無條件 25
然證人 25
現實 25
理論 25
甲○○之@@ 25
痛 25
登記@@ 25
看護 25
福@@ 25
禮拜 25
秉@@ 25
秋@@ 25
第116 25
第2630 25
第45 25
第65 25
第三十六 25
策略 25
管理人 25
簽到 25
粗@@ 25
納 25
素 25
缺乏 25
聲@@ 25
聲請人 25
聲譽 25
股息 25
茲@@ 25
萊@@ 25
薪資袋 25
蘆@@ 25
虹 25
衡諸 25
見@@ 25
計酬者 25
討 25
託@@ 25
訪談 25
評量 25
該款 25
語置辯 25
費@@ 25
追@@ 25
逐年 25
過年 25
選任 25
那時 25
醫囑 25
鎖@@ 25
附合 25
附設 25
陳穎@@ 25
隨@@ 25
餐 25
香港 25
駿@@ 25
 25
@@ 25
03 24
067 24
135 24
187 24
191 24
193 24
194 24
195 24
233 24
25萬 24
538 24
820 24
882 24
et@@ 24
「解僱 24
上訴人@@ 24
下方 24
之前提 24
乏 24
乙紙 24
五萬 24
代金 24
估@@ 24
作成 24
例@@ 24
保全員 24
倒@@ 24
做」 24
刺激 24
前方 24
動機 24
勞動字 24
右側 24
含@@ 24
品管 24
員@@ 24
哨 24
啓@@ 24
國外 24
執陳詞 24
基準法所 24
堅持 24
場@@ 24
大幅 24
大月 24
寄送 24
密 24
尊嚴 24
對應 24
工務所 24
工時@@ 24
帳單 24
年內 24
張貼 24
彩@@ 24
後段 24
得到 24
得謂 24
必@@ 24
忠@@ 24
恐 24
扶養 24
投 24
投保勞 24
指揮性 24
控 24
據點 24
改列 24
教學 24
日薪1 24
日誌 24
曠 24
有些 24
期者 24
未必 24
未洽 24
樑@@ 24
欄位 24
每位 24
比率 24
洪琇瑩 24
洽談 24
淑芬 24
溯 24
滋@@ 24
滿@@ 24
漏@@ 24
激勵 24
無礙 24
爭取 24
爲證 24
獵@@ 24
玩 24
由此可知 24
甲○○得 24
留存 24
疏@@ 24
發文 24
百分之二十 24
盈 24
磅 24
秒 24
競爭力 24
第334 24
第67 24
經手 24
編@@ 24
缺勤 24
置辯 24
翰 24
聯合 24
股利 24
自承@@ 24
色 24
藝 24
蘇庭輝 24
術 24
衣@@ 24
裁決 24
裁量權 24
裝置 24
襄理 24
訂明 24
計劃性 24
該條 24
說是 24
談話 24
資訊@@ 24
趕工 24
輕微 24
輪班制 24
通勤 24
運輸 24
道歉 24
配 24
酒@@ 24
陷於 24
隔日 24
雙@@ 24
離去 24
離職金 24
鞋@@ 24
顯已 24
麟 24
0年 23
0日 23
128 23
155 23
170 23
186 23
270 23
2年 23
32000 23
512 23
604 23
748 23
77@@ 23
903 23
9時 23
is@@ 23
si@@ 23
「現 23
」乘 23
下屬 23
下降 23
交辦 23
人本 23
介紹 23
位@@ 23
住@@ 23
依公 23
償@@ 23
公款 23
切@@ 23
利益者 23
創作性 23
區別 23
受理 23
各期 23
向上 23
品保 23
基 23
堪@@ 23
大聲 23
宇@@ 23
安全@@ 23
審究者 23
寬 23
巡航 23
差旅 23
常務 23
庚○○@@ 23
張其@@ 23
德國 23
恆@@ 23
應依 23
成員 23
抑@@ 23
拍@@ 23
接洽 23
擬定 23
擬訂 23
旁 23
旋 23
暴 23
月休 23
服裝 23
校@@ 23
構@@ 23
欄@@ 23
步 23
汽@@ 23
溥天 23
無所謂 23
然上訴人 23
然觀 23
犯罪 23
獨資 23
珠 23
班車 23
現象 23
環 23
甄@@ 23
申言之 23
知情 23
第100 23
第102 23
第105 23
第463 23
第74 23
第8@@ 23
第91 23
第十@@ 23
終@@ 23
經驗法 23
繪圖 23
纜 23
罪嫌 23
考勤 23
聘@@ 23
蒙受 23
薪」 23
處置 23
裂 23
補償者 23
計劃表 23
詢 23
試 23
讓步 23
貼@@ 23
資予 23
載「 23
載運 23
近@@ 23
退步言之 23
選擇者 23
重量 23
銷售額 23
門口 23
開薪 23
院所 23
隱私 23
頂@@ 23
預付者 23
預告者 23
額外 23
骨@@ 23
黃建@@ 23
黃美@@ 23
鼓勵 23
122 22
153 22
157 22
171 22
201 22
245 22
248 22
252 22
258 22
274 22
30000 22
335 22
370 22
502 22
648 22
660 22
82年 22
867 22
930 22
T 22
‧ 22
○○○ 22
一千 22
一定目 22
一致者 22
主」 22
五十萬 22
付出 22
仲介 22
件數 22
件者 22
信箱 22
停管 22
償還 22
元×1 22
兼括 22
列印 22
列計 22
前面 22
勞動者 22
午@@ 22
協會 22
報導 22
填具 22
大衆 22
始足 22
宗@@ 22
宿舍 22
密@@ 22
密切 22
實業 22
專長 22
屢次 22
建立 22
引@@ 22
後述 22
惡性 22
感受 22
憑@@ 22
所得@@ 22
技 22
抵充 22
拍 22
推翻 22
撕@@ 22
播@@ 22
收件 22
改制 22
新約 22
明訂 22
暉 22
更新 22
會同 22
有待 22
李嘉@@ 22
核決 22
格@@ 22
楊士@@ 22
款單 22
此時 22
歸 22
毆打 22
母 22
法解僱 22
洗 22
清洗 22
減半 22
然因 22
牀 22
產假 22
盈虧 22
監察 22
監視性 22
稅@@ 22
稅捐 22
空白 22
第107 22
第113 22
第64 22
第80 22
第三十 22
第三十九 22
筆跡 22
索 22
總務 22
考勤表 22
職」 22
自主 22
自行@@ 22
自陳 22
臺灣省 22
茗@@ 22
菜 22
蓋@@ 22
處@@ 22
衍生 22
被告業 22
被告補 22
裕@@ 22
規模 22
言之 22
設@@ 22
護照 22
讀 22
變形 22
豪@@ 22
責任制 22
資遺費 22
載@@ 22
輪流 22
轉交 22
返還者 22
週一 22
違誠 22
遲至 22
鄉 22
鑑@@ 22
陳俊@@ 22
離@@ 22
非但 22
韌帶 22
順序 22
額度 22
食指 22
驗@@ 22
鳳@@ 22
齊 22
$ 21
127 21
130@@ 21
154 21
161 21
169 21
179 21
197 21
263 21
287 21
299 21
307 21
310 21
332 21
352 21
353 21
391 21
467 21
535 21
584 21
608 21
634 21
752 21
762 21
935 21
977 21
R 21
「勞 21
「情 21
」民法 21
一級 21
三萬 21
丙○○於 21
並非@@ 21
乙○○於 21
九十二 21
事變 21
伸 21
依前揭 21
侮辱」 21
倒 21
做@@ 21
停放 21
停留 21
傑@@ 21
允 21
元力 21
全然 21
公尺 21
兼@@ 21
兼具 21
出入 21
別@@ 21
制訂 21
功能 21
加油@@ 21
勞保@@ 21
勞健保 21
勤加 21
即明 21
受有 21
唯@@ 21
商定 21
囑@@ 21
四周 21
國光 21
園@@ 21
坦承 21
塗@@ 21
大過 21
天災 21
夫 21
失職 21
妥@@ 21
妮 21
妹 21
媽 21
定於 21
寬@@ 21
尋 21
居 21
市○○區○○@@ 21
年底 21
年臺 21
弄 21
弟 21
往@@ 21
徵才 21
必要者 21
急診 21
恩 21
惟辯 21
惡劣 21
慎 21
應涵 21
扣薪@@ 21
折算 21
折舊 21
接手 21
損及 21
搭@@ 21
文理 21
新興 21
旁邊 21
日常居 21
旺 21
明「 21
昱@@ 21
晚餐 21
書影 21
林淑@@ 21
模@@ 21
止計 21
民衆 21
池 21
河 21
混@@ 21
潔 21
無奈 21
班費 21
環@@ 21
生理 21
生產@@ 21
用品 21
甲○○系 21
畢業 21
畫 21
發行 21
監察人 21
監視器 21
直到 21
秀 21
程序@@ 21
稿 21
立法者 21
立端 21
站立 21
第106 21
第15@@ 21
第21776 21
第24@@ 21
第66 21
第75 21
第97 21
第五十四 21
等待 21
節省 21
節重 21
籤核 21
紀@@ 21
累 21
終止日 21
組@@ 21
結婚 21
經費 21
縱令 21
羣 21
老人 21
聲明書 21
職員工 21
脫@@ 21
自由@@ 21
至爲 21
草@@ 21
葡@@ 21
葦 21
薪制 21
薪津 21
表意 21
西 21
要@@ 21
訂貨 21
訂購 21
評@@ 21
該當 21
詳述 21
認對 21
調升 21
調解@@ 21
調離 21
諸多 21
謄本 21
證明@@ 21
財@@ 21
責任者 21
資本 21
趨於 21
足資 21
踐行 21
載客 21
辭退 21
途 21
週日 21
遺費 21
遽謂 21
那裏 21
量權 21
鈺@@ 21
開關 21
閱@@ 21
關聯 21
關閉 21
除去 21
高度 21
黃麗@@ 21
黏 21
齒 21
｛ 21
173 20
227 20
229 20
22萬 20
235 20
272 20
401 20
404 20
413 20
433 20
542 20
546 20
596 20
626 20
635 20
702 20
710 20
792 20
801 20
857 20
8年 20
933 20
9點 20
H 20
LINE對話 20
w 20
×6 20
一方面 20
上司 20
中央政府 20
主張其@@ 20
依上所述 20
依勞工 20
依第 20
俐@@ 20
倉管 20
僱者 20
內勤 20
公斤 20
冊 20
分子 20
分母 20
分類 20
列於 20
加重 20
助@@ 20
努力 20
勘驗 20
勝@@ 20
勞退@@ 20
勤卡 20
吃飯 20
各級 20
吉 20
告確 20
嗣經 20
固定者 20
圓@@ 20
基本上 20
報警 20
夠 20
好幾 20
婉 20
守@@ 20
寄發 20
寫@@ 20
尚乏 20
就職 20
局@@ 20
工資@@ 20
差@@ 20
帳冊 20
常常 20
年利率 20
底@@ 20
延誤 20
彬 20
徐國@@ 20
息 20
惟據 20
懲@@ 20
成功 20
戶@@ 20
批 20
承攬人 20
投保薪 20
投入 20
抱怨 20
接單 20
推定 20
搭乘 20
攻防 20
政富 20
散 20
族 20
日換算 20
明細@@ 20
易@@ 20
木@@ 20
格式 20
樓@@ 20
歷經 20
毀 20
決定權 20
法有據 20
清償期 20
煥@@ 20
燈 20
燈@@ 20
爭吵 20
玻璃 20
琳 20
生存 20
用於 20
皇 20
監事 20
相抵 20
相違 20
短暫 20
空間 20
第109 20
第111 20
第255 20
第263 20
第293 20
第347 20
第377 20
第76 20
第81 20
第五十五 20
紅@@ 20
美珍 20
考覈表 20
職掌 20
臨訟 20
芸 20
薪資系 20
藉故 20
補正 20
複查 20
計程車 20
訊問 20
訪@@ 20
評爲 20
調配 20
謝 20
責任@@ 20
賄賂 20
購@@ 20
跳@@ 20
身分證 20
身爲 20
那邊 20
里@@ 20
鈔 20
銷售量 20
鑑 20
關係者 20
院99年 20
院區 20
集 20
集@@ 20
雯 20
音 20
預算 20
領受 20
風@@ 20
黃志@@ 20
黎@@ 20
４ 20
001 19
048 19
063 19
11年 19
19萬 19
228 19
232 19
24萬 19
275 19
285 19
28萬 19
339 19
34萬 19
3年 19
466 19
506 19
533 19
556 19
60萬 19
613 19
646 19
66@@ 19
6時 19
740 19
767 19
783 19
7年 19
808 19
884 19
9000 19
NT 19
Z@@ 19
le 19
or@@ 19
「原 19
「年 19
「確 19
上揭 19
下車 19
主張者 19
乎 19
乙○○得 19
乾@@ 19
交換 19
信用卡 19
倫 19
做什 19
催@@ 19
僑@@ 19
八十六 19
公然 19
公物 19
兵@@ 19
具「 19
冷@@ 19
凌晨 19
出勤@@ 19
出血 19
判認 19
副@@ 19
割@@ 19
勿 19
午○○ 19
博 19
卷足 19
古@@ 19
可是 19
各情 19
名單 19
吸菸 19
喇@@ 19
回函 19
困擾 19
圍@@ 19
基隆 19
塑膠廠 19
壓力 19
外勞 19
外勤 19
多年 19
夜 19
失者 19
孟@@ 19
定型化 19
少數 19
尤 19
工作」 19
康@@ 19
強迫 19
心神 19
怕 19
急@@ 19
惡@@ 19
意外 19
慮 19
慰留 19
懂 19
戴 19
所指 19
掌握 19
損益 19
播 19
擔 19
擬@@ 19
改任 19
放假日 19
放置 19
數據 19
料@@ 19
新任 19
昌@@ 19
星期一 19
智慧 19
曠職論 19
服務業 19
未果 19
本局 19
朱@@ 19
李秀@@ 19
林國@@ 19
業務部 19
樣品 19
機場 19
正常工 19
水準 19
況依 19
況原告 19
注 19
洲@@ 19
活期 19
淡@@ 19
測 19
測@@ 19
無疑義 19
爾@@ 19
牴觸 19
猶@@ 19
玫 19
生計 19
當年度 19
瘤 19
登載 19
百分之五十 19
盈@@ 19
監視 19
眼@@ 19
短付@@ 19
碩@@ 19
祥@@ 19
禮@@ 19
租@@ 19
稱月 19
穩定 19
符勞 19
第18@@ 19
第三十@@ 19
算日 19
管制@@ 19
簽呈 19
精密 19
純 19
索取 19
終極 19
絕@@ 19
經銷商 19
維 19
緩刑 19
縮編 19
置於 19
義務@@ 19
聰@@ 19
聽@@ 19
自認@@ 19
舉辦 19
蔬@@ 19
虛 19
街 19
表單 19
裁員 19
製 19
解僱權 19
討@@ 19
記憶 19
評語 19
詢@@ 19
話@@ 19
誕辰 19
誠@@ 19
護 19
貶損 19
起訴書 19
趕@@ 19
跨越 19
輕@@ 19
辰@@ 19
農會 19
逐 19
這邊 19
醜○○@@ 19
醫療費 19
重申 19
錄@@ 19
鐵 19
開具 19
除外 19
離職云云 19
難免 19
雨 19
雪 19
非對話 19
非得 19
預爲 19
領域 19
領薪 19
頻繁 19
餉 19
00000000@@ 18
01 18
02 18
030 18
054 18
060 18
11點 18
124 18
148 18
158 18
165 18
175 18
208 18
209 18
25000 18
301 18
302 18
328 18
346 18
403 18
405 18
406 18
414 18
418 18
444 18
470 18
530 18
532 18
643 18
6％ 18
730 18
784 18
868 18
871 18
901 18
988 18
○○於 18
」事 18
一一@@ 18
一天 18
一點 18
三十五 18
上年 18
今@@ 18
以月 18
任免 18
位於 18
住院者 18
佑 18
作出 18
依附 18
侵@@ 18
俊明 18
保人 18
保證人 18
個@@ 18
倫@@ 18
值勤 18
停車@@ 18
催 18
僱傭@@ 18
僱日 18
僱用人 18
億@@ 18
公積金 18
判決@@ 18
別有規定 18
利害 18
前任 18
剔除 18
加薪 18
勞動基 18
包商 18
卓@@ 18
原告會 18
同類 18
呈現 18
哲@@ 18
售@@ 18
喪假 18
垂@@ 18
執業 18
培@@ 18
堅@@ 18
堯 18
報告表 18
填@@ 18
墊款 18
夏 18
妍 18
始日 18
始有 18
完備 18
容許 18
實現 18
審言詞 18
尤其 18
尾 18
履@@ 18
工程@@ 18
已@@ 18
帳目 18
常理 18
常見 18
府 18
庸@@ 18
微@@ 18
忙 18
忽視 18
性騷擾 18
情誼 18
感覺 18
懲戒權 18
成交 18
成效 18
打掃 18
批示 18
押 18
拘束力 18
挫傷 18
捷 18
改派 18
新光 18
方便 18
旺@@ 18
是@@ 18
時常 18
曉@@ 18
書立 18
最終 18
會計師 18
有意 18
末日 18
杜@@ 18
查閱 18
核心 18
條項 18
業務@@ 18
榮民 18
樂@@ 18
模式 18
欄」 18
權責 18
此觀 18
決命 18
湖@@ 18
準易科 18
準駁 18
災 18
無訛 18
然而 18
獎助 18
璋 18
生意 18
生氣 18
生產量 18
疾病者 18
癸○○ 18
登記證 18
百分@@ 18
直轄市 18
社@@ 18
究@@ 18
空服員 18
竊取 18
第112 18
第117 18
第17@@ 18
第25@@ 18
第345 18
第99 18
第三十七 18
管理師 18
簽章 18
籍@@ 18
系謂 18
紅 18
紛爭 18
絕對 18
經途 18
縮小 18
繕 18
繳費 18
罰款 18
罰金者 18
習 18
者@@ 18
聊天 18
能夠 18
苛@@ 18
萬7@@ 18
落後 18
蕭鳳玲 18
處方 18
裁判費 18
補助金 18
規格 18
該案 18
認均 18
認有 18
語氣 18
諸如 18
證明單 18
識別證 18
資系 18
軍@@ 18
輔@@ 18
輛 18
追 18
這@@ 18
運轉 18
道德 18
違失 18
酬 18
釋示 18
重物 18
銀@@ 18
銷@@ 18
附有 18
陳建@@ 18
隱匿 18
頭部 18
頻率 18
飛@@ 18
高級 18
麗君 18
Ｃ 18
000×1 17
098 17
1年 17
202 17
219 17
244 17
246 17
2500 17
253 17
266 17
316 17
319 17
325 17
345 17
363 17
384 17
387 17
388 17
397 17
448 17
481 17
528 17
553 17
602 17
614 17
628 17
668 17
691 17
697 17
703 17
72年 17
77年 17
802 17
825 17
831 17
860 17
889 17
917 17
943 17
948 17
950 17
968 17
975 17
MS 17
and@@ 17
ea@@ 17
in 17
on 17
─ 17
「解 17
三十三 17
上半@@ 17
上所述 17
中華 17
乃屬 17
予解 17
二三 17
代償 17
代收 17
休養者 17
佈@@ 17
依侵權 17
依卷 17
保持 17
倉 17
倪 17
假設 17
側@@ 17
公告@@ 17
六十五 17
其實 17
凰 17
出面 17
分派 17
劃 17
劃@@ 17
勞動法 17
勞動節 17
十八 17
半天 17
卡單 17
印刷 17
卷可證 17
卸@@ 17
原始 17
叔@@ 17
受訓 17
可採 17
吧 17
唯一 17
啦 17
喜@@ 17
喬 17
單子 17
土 17
夏@@ 17
奇 17
契 17
女@@ 17
如受 17
始生 17
姑 17
季@@ 17
學員 17
安之 17
客運@@ 17
小孩 17
居住 17
巫@@ 17
巷@@ 17
幸@@ 17
幾@@ 17
式@@ 17
張永@@ 17
從業 17
心理 17
忍受 17
怪 17
悔@@ 17
意思者 17
態 17
戊○ 17
手指 17
找到 17
技師 17
技術員 17
拾 17
擔@@ 17
改調 17
效獎 17
敏@@ 17
教導 17
新竹@@ 17
旗 17
日經 17
明文@@ 17
服務@@ 17
朝@@ 17
李東@@ 17
校 17
桃 17
案例 17
椎間盤 17
標準者 17
毋庸@@ 17
母親 17
永定店 17
汝 17
準宣 17
準時 17
滿足 17
無理 17
獲致 17
理會 17
琮@@ 17
生鮮 17
申 17
申領 17
界@@ 17
癸@@ 17
百分之十 17
真@@ 17
瞭解 17
碧 17
租 17
移@@ 17
突出 17
立約 17
第104 17
第127 17
第825 17
簡 17
組裝 17
結清者 17
絡 17
綜@@ 17
編 17
緩@@ 17
繹@@ 17
羣@@ 17
羽 17
考試 17
聽聞 17
肯定 17
舉證人 17
舍解僱 17
舒@@ 17
薪資額 17
薪額 17
藉以 17
虧 17
衛生局 17
覓 17
許多 17
診療 17
詐@@ 17
詮 17
說明書 17
調整@@ 17
請款 17
資源部 17
趕 17
跌倒 17
退貨 17
這種 17
週五 17
進步 17
逼 17
適應 17
邱正@@ 17
酌 17
門號 17
開資 17
間斷 17
闡明 17
限定 17
陳永@@ 17
陸 17
階層 17
雲@@ 17
需@@ 17
青@@ 17
音@@ 17
頁@@ 17
預見 17
顏@@ 17
顯著 17
食 17
高階 17
@@ 17
依 17
Ｐ@@ 17
...」 16
021 16
032 16
114 16
15時 16
200萬 16
243 16
262 16
293 16
296 16
29萬 16
377 16
416 16
422 16
441 16
469 16
471 16
504 16
563 16
639 16
725 16
735 16
73年 16
765 16
76@@ 16
788 16
790 16
807 16
844 16
845 16
863 16
904 16
952 16
957 16
966 16
973 16
990 16
ec@@ 16
ic@@ 16
is 16
「稱 16
一月份 16
丁○○於 16
中醫 16
交際費 16
人之@@ 16
他@@ 16
以往 16
任由勞 16
佐@@ 16
作息時間 16
促@@ 16
保戶 16
值班費 16
傳達 16
兆@@ 16
入帳 16
內頁 16
公允 16
分段 16
利潤 16
制」 16
刻意 16
功過 16
勞動契約 16
十九 16
十萬 16
印製 16
及格 16
各個 16
各節 16
合乎 16
名字 16
吵架 16
呈報 16
周知 16
咖啡 16
問@@ 16
喪葬@@ 16
嚇 16
四年 16
基隆@@ 16
堂 16
報帳 16
塑膠 16
士氣 16
大量 16
女士 16
妥善 16
委無足取 16
威脅 16
婦 16
定作人 16
定性 16
定某 16
害 16
察@@ 16
尤@@ 16
尾@@ 16
差別 16
差旅費 16
師@@ 16
帳務 16
廠房 16
待證 16
後面 16
復依 16
徵信 16
惟揆 16
想@@ 16
慧@@ 16
慷 16
憑採 16
振 16
排名 16
採「 16
接任 16
提繳@@ 16
擅 16
擾@@ 16
放款 16
敬@@ 16
方得 16
施作 16
旨狀 16
替@@ 16
最爲 16
服勤 16
李 16
染 16
校園 16
極@@ 16
機坪 16
櫻 16
欽@@ 16
正在 16
正本 16
段@@ 16
泛@@ 16
津貼」 16
準免 16
漁@@ 16
無關@@ 16
熟@@ 16
瑩 16
生前 16
疑@@ 16
相隔 16
硬@@ 16
確信 16
確於 16
神經@@ 16
秋 16
稅務 16
突@@ 16
章@@ 16
第1010132@@ 16
第142 16
第146 16
第167 16
第193 16
第20@@ 16
第258 16
第2720 16
第486 16
第73 16
筆@@ 16
等等 16
紀錄@@ 16
紹@@ 16
經常性者 16
綜觀 16
緊 16
締約 16
縮 16
績效@@ 16
羞@@ 16
老 16
職級 16
聽說 16
腰 16
臉 16
自89年 16
自我 16
自解 16
臺中@@ 16
芬@@ 16
莉@@ 16
著@@ 16
蔡文@@ 16
處理者 16
虹@@ 16
衝 16
被告尚 16
製品 16
覈字 16
規定月 16
言論 16
診@@ 16
認本 16
證據@@ 16
護士 16
負債 16
資袋 16
贍養費 16
車程 16
輔 16
輕重 16
轉爲 16
轉達 16
退金 16
逐日 16
這裏 16
遇@@ 16
遺 16
鄧 16
醫藥 16
重建 16
銷貨 16
閉@@ 16
開發部 16
防護 16
降級 16
除夕 16
陳金@@ 16
隆@@ 16
頒佈 16
高速公路 16
@@ 16
－1 16
～ 16
003 15
00×@@ 15
09 15
1200 15
129 15
15年 15
21萬 15
249 15
278 15
326 15
355 15
383 15
438 15
455 15
461 15
468 15
496 15
4時 15
511 15
518 15
521 15
524 15
525 15
554 15
555 15
568 15
575 15
597 15
601 15
603 15
605 15
619 15
624 15
632 15
636 15
642 15
658 15
675 15
770 15
773 15
78年 15
806 15
812 15
832 15
87@@ 15
8點 15
931 15
961 15
979 15
986 15
998 15
V 15
W 15
ing 15
mail 15
pp@@ 15
ti@@ 15
ve 15
「因 15
一經 15
不得 15
主旨 15
主義 15
乙○○之@@ 15
事發 15
些 15
交貨 15
享受 15
人次 15
何者 15
便@@ 15
保部 15
修復 15
修理@@ 15
偏@@ 15
價@@ 15
儀器 15
儘速 15
償 15
儲金 15
允諾 15
公務車 15
其它 15
具結 15
凌@@ 15
函詢 15
分割 15
分配@@ 15
剩下 15
剪 15
加油站 15
動物 15
勞動@@ 15
勢 15
勾 15
博@@ 15
危機 15
即乏 15
原約 15
反證 15
受聘 15
同一@@ 15
否@@ 15
呢 15
咆哮 15
噸 15
回扣 15
因婚 15
國立 15
塊 15
填載 15
增資 15
增進 15
外觀 15
委@@ 15
婚@@ 15
嫺 15
學理 15
學費 15
守衛 15
安定 15
定人 15
審定書 15
專屬性 15
履 15
帶領 15
平常 15
年資者 15
店@@ 15
引 15
息@@ 15
悉@@ 15
惟證人 15
慣例 15
慰問金 15
憲 15
截至 15
承上所述 15
投保資 15
挪用 15
接獲 15
揭情 15
撥款 15
擅@@ 15
攜帶 15
故勞 15
故本件 15
敘述 15
教室 15
敲 15
文章 15
斌 15
料表 15
於99 15
旅遊 15
星 15
時尚 15
書函 15
望 15
杉 15
林明@@ 15
林秀@@ 15
某種 15
核付 15
桌 15
此後 15
毅 15
況證人 15
溢@@ 15
滑@@ 15
炎 15
然若 15
熱@@ 15
獎勵金 15
玆 15
王俊@@ 15
現場@@ 15
瓊@@ 15
甚且 15
田@@ 15
病患 15
發薪 15
白 15
益證 15
監控 15
盤@@ 15
看看 15
矯@@ 15
矽@@ 15
研發部 15
稱爲 15
稽查@@ 15
競@@ 15
第1016 15
第114 15
第130 15
第132 15
第133 15
第134 15
第135 15
第14@@ 15
第170 15
第188 15
第1款 15
第27@@ 15
第三十二 15
管理處 15
簽發 15
簿@@ 15
精@@ 15
精簡 15
純屬 15
級@@ 15
經查 15
經營權 15
繁@@ 15
缸 15
署@@ 15
羈@@ 15
羣組 15
羿@@ 15
聲明@@ 15
聲音 15
職業@@ 15
股東會 15
自同年 15
臺北@@ 15
莫@@ 15
菸@@ 15
萬8@@ 15
薪酬 15
虞」 15
衆多 15
行爲@@ 15
行經 15
衛 15
覈定者 15
覈實 15
訂約 15
計算」 15
訓練@@ 15
訖 15
記帳 15
訴求 15
診 15
詞@@ 15
該店 15
認購 15
講話 15
證券 15
議案 15
貞操 15
資料@@ 15
賣@@ 15
質@@ 15
趕快 15
跡 15
踐 15
迴避 15
追究 15
退職 15
送交 15
通謀 15
週 15
適於 15
遺存 15
郵@@ 15
酒 15
醫學 15
醫生 15
重要性 15
鉅額 15
開庭 15
關懷 15
際 15
障礙@@ 15
電信 15
順利 15
預計 15
領導 15
顯難 15
飛 15
餐費 15
駁 15
髮 15
黏@@ 15
鼎@@ 15
｛@@ 15
& 14
006 14
036 14
044 14
073 14
12年 14
18年 14
226 14
238 14
265 14
314 14
338 14
362 14
374 14
402 14
411 14
424 14
429 14
439 14
473 14
500@@ 14
516 14
534 14
53@@ 14
541 14
545 14
549 14
558 14
567 14
573 14
581 14
588 14
607 14
659 14
693 14
727 14
747 14
804 14
805 14
837 14
864 14
870 14
890 14
897 14
918 14
967 14
989 14
MO@@ 14
al@@ 14
f 14
l 14
「請 14
一同 14
上工 14
上班@@ 14
上班日 14
中途 14
之所以 14
乘@@ 14
事由@@ 14
二十九 14
二審 14
五金 14
交易@@ 14
交通部 14
亦可 14
介 14
仟元 14
以下@@ 14
任期 14
企圖 14
休假系 14
保險金 14
俞 14
借支 14
做出 14
停車費 14
側 14
偵@@ 14
偶爾 14
傅遠琦 14
儘量 14
元月 14
全面 14
出納 14
分證 14
列出 14
剛纔 14
助 14
勞動權 14
募@@ 14
勢必 14
勸 14
匯率 14
卷內 14
受領者 14
叭 14
可疑 14
同業 14
告辯 14
嘉義 14
嘛 14
圍 14
園區 14
堅 14
報備 14
外傷 14
多餘 14
夥 14
大會 14
大法官 14
夫妻 14
奕@@ 14
姓 14
委任人所 14
娥 14
媒體 14
媽媽 14
孝@@ 14
學童 14
安定性 14
家@@ 14
左側 14
巷 14
帽 14
延續 14
弱 14
復參 14
復經 14
忍 14
怠惰 14
恐@@ 14
愈 14
感@@ 14
慈濟 14
慰@@ 14
戒@@ 14
戴@@ 14
扶@@ 14
批准 14
承保 14
抗@@ 14
抗辯@@ 14
接待 14
提告 14
擁有 14
擦 14
收拾 14
改採 14
故障 14
於是 14
日報 14
旭 14
暨@@ 14
暴力 14
會計部 14
朗@@ 14
木 14
李明@@ 14
松@@ 14
查詢表 14
柯@@ 14
概@@ 14
概括 14
標準表 14
樣@@ 14
樹@@ 14
橋@@ 14
機種 14
此類 14
殯@@ 14
毓 14
民族 14
永慶 14
法尚 14
泛 14
津貼2 14
洽@@ 14
流失 14
清查 14
渡 14
滑 14
無可@@ 14
無請求 14
無足 14
熟 14
熱 14
燒 14
爐 14
父 14
牆 14
牌@@ 14
物理 14
犬 14
犯@@ 14
理想 14
瓦@@ 14
生涯 14
發表 14
皮@@ 14
盒 14
研討 14
磨@@ 14
社政 14
祇 14
票據 14
祺@@ 14
科長 14
租人 14
端午 14
競爭@@ 14
第100@@ 14
第103 14
第125 14
第1405 14
第150 14
第196 14
第23@@ 14
第89 14
第按 14
答@@ 14
算表 14
約書 14
組成 14
給予 14
縮@@ 14
縮短 14
總處 14
續約 14
罐@@ 14
置@@ 14
翁@@ 14
職守 14
職時 14
腹@@ 14
與@@ 14
英語 14
董事@@ 14
薇@@ 14
薪級 14
藝@@ 14
藤 14
號誌 14
表意人 14
袁@@ 14
被告2 14
補假 14
覲@@ 14
診斷書 14
詢表 14
認真 14
認諾 14
說什 14
調度@@ 14
調查@@ 14
諉 14
證二 14
證明者 14
識 14
警察 14
警衛室 14
變態 14
變成 14
貳 14
贅述 14
越@@ 14
趨勢 14
軌@@ 14
輪@@ 14
轉訓 14
辦事@@ 14
迥然不同 14
追溯 14
退回 14
逐月 14
通話 14
速度 14
逼迫 14
運輸業 14
重點 14
鑫 14
開放@@ 14
附於 14
降薪 14
陳報狀 14
陳麗@@ 14
雙手 14
難信 14
電話費 14
露 14
非上訴人 14
非勞基法 14
領款 14
風俗 14
體力 14
鬱 14
 14
 14
! 13
018 13
026 13
097 13
2011年 13
218 13
223 13
239 13
241 13
284 13
291 13
295 13
2點 13
311 13
329 13
342 13
343 13
356 13
357 13
390 13
396 13
40萬 13
425 13
432 13
436 13
45分 13
47萬 13
488 13
495 13
498 13
501 13
517 13
523 13
527 13
594 13
5點 13
677 13
681 13
682 13
715 13
7500 13
758 13
776 13
797 13
816 13
817 13
852 13
912 13
914 13
940 13
982 13
985 13
In@@ 13
LINE@@ 13
MS@@ 13
Y@@ 13
en@@ 13
h 13
ter@@ 13
˙@@ 13
「於 13
「茲 13
「離職 13
上限 13
下半年 13
世界 13
中者 13
乃系 13
事理 13
事證者 13
五綜上所述 13
人壽 13
代理權 13
伺@@ 13
低落 13
作者 13
併發 13
例行 13
俸 13
假藉 13
停業 13
僱主經 13
允@@ 13
元予 13
先於 13
全權 13
全球 13
公序 13
共體 13
典@@ 13
制年 13
制服 13
加付 13
勘@@ 13
十幾 13
即便 13
卷宗 13
卻@@ 13
原告@@ 13
右手 13
向@@ 13
告固 13
唐 13
器具 13
嚴重性 13
回任 13
回國 13
國道 13
均@@ 13
坐@@ 13
執掌 13
墊償 13
夫@@ 13
契@@ 13
姿 13
客車 13
實難 13
審證 13
射 13
屋 13
工者 13
差距 13
帳款 13
平衡 13
序號 13
庚@@ 13
庫 13
影片 13
後方 13
得予 13
復職日 13
徵求 13
念 13
急迫 13
意義 13
懷疑 13
截圖 13
打瞌睡 13
承前所述 13
抑 13
拉 13
拒@@ 13
指出 13
按期 13
挑@@ 13
捐@@ 13
接收 13
提交 13
提供者 13
擇 13
操作員 13
擴@@ 13
敘 13
文化 13
新人 13
新聞 13
斷裂 13
旅行社 13
旋即 13
日薪@@ 13
書記 13
有所謂 13
期望 13
未定 13
桃@@ 13
梅@@ 13
梯 13
樑 13
櫃@@ 13
欠佳 13
歉@@ 13
正面 13
此段 13
歸於 13
死 13
每季 13
污@@ 13
決 13
決策@@ 13
汽 13
沿 13
法務部 13
法第 13
注@@ 13
洵堪 13
洵無足採 13
淡水 13
淨 13
淨@@ 13
淨利 13
淳 13
溪@@ 13
漲 13
潘曉嫈 13
然並 13
然按 13
煩@@ 13
爲人 13
爲期 13
王淑@@ 13
班日 13
理應 13
瑪 13
環瑋 13
生產部 13
用語 13
病情 13
病歷 13
痊癒 13
發予 13
白書 13
百分之百 13
百貨 13
盜@@ 13
看護費 13
眼 13
砂@@ 13
研究@@ 13
祐 13
究系 13
穿 13
突發 13
窗@@ 13
立刻 13
第0980@@ 13
第120 13
第138 13
第143 13
第144 13
第169 13
第185 13
第187 13
第189 13
第2012 13
第2465 13
第86 13
第889 13
簡單 13
糾正 13
紅利@@ 13
組織@@ 13
結帳 13
統籌 13
絹@@ 13
經營者 13
經辦 13
縱系 13
總經理室 13
缺失 13
義務云云 13
羽@@ 13
翻 13
聞 13
背 13
能@@ 13
自難 13
與會 13
航班 13
苗 13
藉@@ 13
處所 13
虛僞@@ 13
術@@ 13
表決 13
被迫 13
裁減 13
覆 13
角度 13
解時 13
計月者 13
設計@@ 13
詎@@ 13
試驗 13
該份 13
誤解 13
論是 13
貞@@ 13
財物 13
貨櫃 13
貼」 13
資爲 13
賓 13
賠償金 13
賺取 13
賺錢 13
贈品 13
超逾 13
足稽 13
踝 13
身分者 13
輔助 13
辛@@ 13
返@@ 13
迨 13
通告 13
逾越 13
遊戲 13
遑@@ 13
違抗 13
適 13
遭資 13
那@@ 13
鄉@@ 13
量權者 13
釘 13
銷售@@ 13
錩 13
鏡 13
長短 13
阻@@ 13
阻礙 13
陳情書 13
陵 13
陽@@ 13
集中 13
雋@@ 13
離職事 13
青 13
面前 13
預估 13
預防 13
頻@@ 13
題@@ 13
馬偕 13
駕@@ 13
鬱@@ 13
鵬 13
點效 13
查 13
依 13
﹞ 13
000× 12
037 12
066 12
077 12
096 12
19年 12
211 12
257 12
294 12
312 12
317 12
323 12
349 12
373 12
376 12
393 12
407 12
408 12
446 12
452 12
472 12
476 12
484 12
493 12
513 12
536 12
544 12
557 12
574 12
585 12
593 12
606 12
629 12
644 12
645 12
692 12
6款 12
706 12
708 12
722 12
741 12
746 12
75年 12
768 12
769 12
855 12
866 12
941 12
944 12
962 12
996 12
9年 12
AP@@ 12
O 12
Y 12
i 12
j@@ 12
r 12
re@@ 12
÷6 12
⑥ 12
」及 12
上半年 12
上訴人處 12
之中 12
之動機 12
之類 12
互動 12
交出 12
人者 12
人聲 12
付」 12
仟 12
任何人 12
企劃@@ 12
伯@@ 12
伴隨 12
佘@@ 12
作用 12
佰 12
併入 12
供應 12
保險卡 12
偏 12
傳喚 12
全員 12
八十一 12
兵 12
其時 12
冒 12
准@@ 12
刀 12
分娩 12
刊 12
利變 12
刪減 12
到底 12
制退休金 12
前一天 12
劑 12
勞調 12
勤表 12
南部 12
取決於 12
口氣 12
可考 12
同樣 12
吸@@ 12
味 12
四十九 12
地院 12
堪認@@ 12
墊 12
墜@@ 12
外側 12
夜@@ 12
大小 12
大門 12
天堂 12
套@@ 12
妳@@ 12
始得 12
始能 12
姐 12
嬰假 12
學歷 12
學者 12
宣導 12
害者 12
寧@@ 12
導 12
就算 12
層@@ 12
履歷 12
岸 12
峻@@ 12
峽 12
崗位 12
工會者 12
年紀 12
幸 12
庶符 12
廚@@ 12
延遲 12
彙@@ 12
忽略 12
思 12
急病 12
恭@@ 12
悖 12
應視 12
懲罰性 12
懷@@ 12
成長 12
戳 12
房@@ 12
拆 12
拍照 12
拾@@ 12
指受 12
指定者 12
掌控 12
掛 12
接續 12
提報 12
提領 12
損益表 12
撥打 12
教育@@ 12
敷 12
數位 12
數者 12
斯時 12
施行@@ 12
旅@@ 12
昭@@ 12
晉升 12
書證 12
本即 12
本票 12
材@@ 12
材料@@ 12
析述 12
架@@ 12
查證人 12
校長 12
核尚 12
核於 12
業務量 12
欲@@ 12
歷史 12
歷次 12
殊@@ 12
母@@ 12
永久 12
法性 12
法者 12
波@@ 12
洗@@ 12
浪費 12
澳@@ 12
烈 12
無庸@@ 12
無從屬 12
然兩 12
營業稅 12
營造 12
爐@@ 12
爲限 12
片@@ 12
牛@@ 12
獎@@ 12
率@@ 12
現有 12
理由者 12
理賠 12
琪@@ 12
琴 12
申報表 12
申請@@ 12
疼痛 12
療@@ 12
癒合 12
示「 12
社團 12
社會@@ 12
社會保險 12
票款 12
禁@@ 12
禁卡 12
私事 12
稅款 12
窗口 12
第1000@@ 12
第1010@@ 12
第141 12
第149 12
第201 12
第223 12
第255@@ 12
第369 12
第481 12
第90 12
第七十@@ 12
第三百@@ 12
範 12
簽字 12
紀 12
結構性 12
統 12
縱於 12
總務處 12
繕打 12
繼承人 12
續曠 12
罰金 12
罷 12
翌@@ 12
翡翠 12
翻@@ 12
職前 12
職務所 12
肢 12
背@@ 12
背於 12
腦@@ 12
臚列 12
自付額 12
自同 12
自生 12
良俗 12
苓 12
苟@@ 12
蘇 12
行程 12
被告所 12
被告林 12
被告發 12
被告迄 12
裁罰 12
規避法 12
角 12
言行 12
記錄@@ 12
該規 12
認上 12
認於 12
誣@@ 12
說明會 12
請辭 12
諒 12
諭 12
謀求 12
變換 12
豆@@ 12
象@@ 12
賢@@ 12
贈 12
起迄 12
路段 12
車損 12
車次 12
軍 12
輕鬆 12
辛 12
辦@@ 12
辦事處 12
辦公 12
送貨@@ 12
違反者 12
遭到 12
遴@@ 12
選「 12
酸 12
重視 12
金予 12
錦 12
閃@@ 12
開國 12
開期 12
開解 12
附隨 12
限者 12
陣@@ 12
階@@ 12
隸屬 12
雙重 12
面對 12
預支 12
願@@ 12
類@@ 12
顯爲 12
食品 12
駐@@ 12
駿 12
黎 12
＋資 12
－ 12
000000000 11
004 11
025 11
033 11
04 11
052 11
068 11
07 11
071 11
075 11
083 11
088 11
092 11
147 11
1600 11
162 11
1時 11
247 11
277 11
279 11
286 11
298 11
303 11
31萬 11
322 11
324 11
331 11
336 11
344 11
367 11
368 11
38萬 11
458 11
462 11
486 11
489 11
4年 11
564 11
565 11
578 11
582 11
616 11
618 11
622 11
633 11
638 11
707 11
719 11
749 11
778 11
791 11
796 11
79號 11
821 11
846 11
872 11
883 11
893 11
902 11
921 11
959 11
964 11
> 11
AC@@ 11
F 11
J 11
Le@@ 11
ch@@ 11
ha@@ 11
” 11
⑥@@ 11
「前 11
「查 11
「經 11
下旬 11
丙@@ 11
主委 11
主導 11
主席 11
之一@@ 11
之上訴人 11
乙○○證 11
云@@ 11
人事部門 11
人服 11
今日 11
以資 11
伍@@ 11
休假」 11
何須 11
供應商 11
依前所述 11
侵 11
侵害者 11
促進會 11
保承 11
做成 11
僞@@ 11
僱主@@ 11
僱員 11
優退 11
入股 11
全文 11
全行 11
其於 11
冊@@ 11
冠@@ 11
冷卻 11
出口 11
分開 11
刑@@ 11
列表 11
剛剛 11
加班費@@ 11
加班費」 11
勇 11
動產 11
動用 11
勞動局 11
勞工者 11
協進會 11
南區 11
原訴 11
反面@@ 11
叫@@ 11
吃@@ 11
各業 11
吊車 11
同意者 11
名譽@@ 11
吞 11
告訴人 11
和諧 11
員額 11
喜歡 11
嗣因 11
回收@@ 11
固定@@ 11
固屬 11
圖利 11
執行@@ 11
執行者 11
基本薪 11
基準@@ 11
報酬者 11
壬@@ 11
大多 11
奠儀 11
始符 11
始足稱 11
婚 11
婦@@ 11
定假日 11
寄存 11
審閱 11
專業@@ 11
尋求 11
屁@@ 11
屢屢 11
工作服 11
年假 11
年初 11
年資@@ 11
度@@ 11
度臺 11
庭卷 11
廉@@ 11
弊端 11
弟@@ 11
弱勢 11
律@@ 11
後果 11
復辯 11
怠@@ 11
悖於 11
惟此 11
惟經 11
慢@@ 11
憑據 11
憑條 11
懇@@ 11
成立者 11
打卡@@ 11
打開 11
折扣 11
抱@@ 11
抽 11
指揮@@ 11
授信 11
接送 11
推諉 11
措@@ 11
換班 11
揭情詞 11
擊 11
收支 11
改選 11
故僱 11
故受 11
敷@@ 11
新進 11
方俟 11
既得@@ 11
旦 11
明書 11
易言之 11
晨@@ 11
晰 11
曠工@@ 11
會談 11
有損 11
本俸 11
本得 11
杰 11
東會 11
林政@@ 11
柺@@ 11
核表 11
桌@@ 11
楷 11
槽 11
標案 11
樣子 11
樹 11
欺騙 11
款」 11
款人 11
正反面 11
此部 11
歸屬 11
母公司 11
毫@@ 11
氏 11
民事@@ 11
沙@@ 11
油費 11
法系 11
流 11
混淆 11
港@@ 11
源於 11
滯納金 11
澄清 11
無薪 11
然就 11
然未 11
然本 11
然經 11
煌 11
燦@@ 11
爲「 11
版@@ 11
獲@@ 11
理念 11
生效日 11
甫 11
申辦 11
當事@@ 11
疑 11
病房 11
登 11
相信 11
相差 11
看出 11
矧 11
研判 11
破@@ 11
磅@@ 11
礙 11
祕密@@ 11
禮拜@@ 11
秤@@ 11
移動 11
稱之勞工 11
第098@@ 11
第110 11
第115 11
第118 11
第128 11
第137 11
第140 11
第145 11
第159 11
第1631 11
第215 11
第271 11
第737 11
算是 11
篤@@ 11
練 11
繆@@ 11
繼 11
罹@@ 11
耳@@ 11
職假 11
職者 11
職能 11
腫@@ 11
腳 11
自知悉 11
自稱 11
自費 11
舉行 11
舍@@ 11
萄@@ 11
萬9@@ 11
葉 11
薪日 11
藥劑@@ 11
虛構 11
衆@@ 11
行事 11
行長 11
衛生署 11
衡諸@@ 11
裝設 11
規制 11
親籤 11
訓練費 11
註銷 11
評會 11
誤載 11
調閱 11
請假卡 11
謊@@ 11
謝謝 11
變異 11
負荷 11
貫徹 11
貶@@ 11
資字 11
資本額 11
超額 11
趣 11
躲 11
車速 11
輕便 11
近年 11
退職者 11
逐漸 11
這筆 11
運動 11
過剩 11
過度 11
遣 11
適逢 11
遷@@ 11
那些 11
配戴 11
醫治 11
針@@ 11
鉅 11
鋼 11
鑑於 11
開原 11
開工 11
開調 11
開請求 11
間服 11
間歇性 11
閱覽 11
阻止 11
除權 11
陳宜卓 11
陳情 11
陳英@@ 11
陳述@@ 11
隱瞞 11
雖@@ 11
項準 11
須合 11
須視 11
領薪資 11
題 11
類推 11
館 11
驊 11
高額 11
鬧 11
鶯@@ 11
麻@@ 11
黑@@ 11
﹝ 11
.. 10
056 10
14年 10
1800 10
214 10
21@@ 10
21年 10
251 10
281 10
309 10
318 10
354 10
358 10
361 10
371 10
378 10
3＋@@ 10
428 10
45萬 10
483 10
48萬 10
490 10
491 10
4款 10
505 10
611 10
612 10
623 10
663 10
671 10
683 10
694 10
698 10
700@@ 10
70萬 10
714 10
724 10
729 10
754 10
764 10
782 10
785 10
798 10
815 10
824 10
839 10
873 10
874 10
885 10
90日 10
910 10
925 10
926 10
938 10
955 10
981 10
992 10
AD@@ 10
IN@@ 10
OK 10
al 10
no@@ 10
ou@@ 10
un@@ 10
○○○○○○@@ 10
「委 10
」乙節 10
〔@@ 10
七年 10
三字經 10
上市 10
上方 10
下單 10
下次 10
下肢 10
且@@ 10
丟 10
丟@@ 10
中秋 10
乃是 10
乙○○所 10
乙○○系 10
亦證 10
人士 10
人工 10
人身 10
介入 10
他人者 10
以便 10
以爲斷 10
仲 10
任人處理 10
休假云云 10
估算 10
住宿 10
何需 10
何項 10
依本院 10
依職 10
保健 10
保申 10
信函予 10
倍@@ 10
借用 10
假卡 10
偶發 10
偷 10
備份 10
傭@@ 10
傳染病 10
優良 10
元÷ 10
兇 10
內湖 10
全勤@@ 10
全薪 10
出境 10
函查 10
分享 10
分店 10
判處 10
制止 10
刻 10
剛@@ 10
剛好 10
劉惠@@ 10
加害人 10
勉勵性 10
動手 10
務人 10
勞基@@ 10
化學 10
印文 10
取回 10
受僱者 10
受託 10
告於 10
告業 10
告系 10
喝 10
喝酒 10
嚴 10
嚴禁 10
回診 10
固證 10
國民身 10
埔@@ 10
報少 10
場合 10
墊@@ 10
增減 10
大客車 10
奇@@ 10
奈@@ 10
奉 10
契約權 10
妥當 10
妹@@ 10
姐@@ 10
姑@@ 10
委任人 10
委請 10
嫌@@ 10
孔@@ 10
容易 10
審勞 10
封@@ 10
射@@ 10
專科 10
就任 10
屬「 10
岳@@ 10
巡視 10
席@@ 10
幅度 10
幣 10
平臺 10
年前 10
幼 10
廠務 10
建築物 10
建設 10
弘@@ 10
徑 10
得利@@ 10
循 10
徵人 10
心態 10
忘 10
急 10
性質者 10
想法 10
應認 10
懲戒@@ 10
戒權 10
房貸 10
所在地 10
所爲 10
打架 10
扣除@@ 10
找@@ 10
承上 10
承包 10
承攬者 10
技@@ 10
技巧 10
投資@@ 10
拉@@ 10
拋@@ 10
拖@@ 10
拜託 10
拿走 10
持@@ 10
持續性 10
指控 10
捨棄 10
捷運 10
採行 10
採購@@ 10
接聽 10
接近 10
推展 10
推斷 10
插 10
搭 10
操作@@ 10
擔心 10
攣@@ 10
支薪 10
敘@@ 10
教授 10
數字 10
既@@ 10
日」 10
日共 10
日始 10
旨趣 10
明載 10
星期@@ 10
時日 10
時點 10
晟@@ 10
晶@@ 10
曰 10
曼@@ 10
最初 10
杖 10
林宗@@ 10
柄 10
某日 10
柒 10
核備@@ 10
核其 10
核可 10
桂 10
案子 10
業務處 10
標示 10
標誌 10
機動 10
檢查@@ 10
檢送 10
權者 10
歉 10
歡@@ 10
此次 10
殘@@ 10
每股 10
氣氛 10
水泥 10
求者 10
沒收 10
洋 10
浩@@ 10
消息 10
涉犯 10
淨額 10
溢扣 10
滅@@ 10
無勞基法 10
無可取 10
然於 10
爲佐 10
父親 10
牙 10
物流 10
特此 10
特殊性 10
獎勵性 10
班制 10
理法 10
理解 10
璇 10
生命 10
用者 10
用途 10
由@@ 10
甲○○所 10
男性 10
界 10
當之 10
疏 10
癌 10
百貨@@ 10
盡力 10
監工 10
監督權 10
看診 10
真實性 10
眷屬@@ 10
睛 10
確屬 10
確性 10
移轉 10
稱之工資 10
穩 10
竊 10
第097@@ 10
第105@@ 10
第119 10
第122 10
第131 10
第147 10
第155 10
第168 10
第171 10
第175 10
第191 10
第490 10
等同 10
箱@@ 10
節慶 10
簡易庭 10
簽收@@ 10
籤認 10
約談 10
終局 10
綠@@ 10
維修@@ 10
綿 10
緣@@ 10
縱經 10
績@@ 10
置之不理 10
置理 10
美商 10
美玲 10
翠@@ 10
翰@@ 10
聊 10
聽從 10
肢體 10
肯 10
腕 10
膳@@ 10
臣 10
自92年 10
自承其 10
自斯 10
自起 10
致受 10
與其 10
舜 10
航@@ 10
苛 10
落差 10
蔡 10
蔡孟@@ 10
蔡文惠 10
薪資」 10
表示者 10
衰退 10
被動 10
被告本 10
補償@@ 10
製造業 10
複雜 10
覈減 10
見聞 10
規定資遣 10
規程 10
親筆 10
觀點 10
解書 10
計薪 10
記者 10
設計師 10
註 10
詳實 10
詳見 10
認僱 10
調件 10
請示 10
論據 10
證八 10
譯 10
負擔者 10
貢獻度 10
販賣 10
責任」 10
資遺 10
賠 10
賠@@ 10
贅論 10
足堪 10
足夠 10
跑@@ 10
跨 10
路邊 10
身上 10
身份 10
車資 10
軟@@ 10
輒 10
輸入 10
轉職 10
辭呈 10
途@@ 10
通知函 10
通路 10
逢 10
進貨 10
逸@@ 10
遞 10
遭拒 10
遲延@@ 10
遵照 10
遵行 10
遷 10
遽予 10
避 10
還款 10
郵政 10
銅@@ 10
鍈 10
鐘@@ 10
開主 10
開所述 10
開請 10
開離 10
關聯性 10
防免 10
阻 10
附援引 10
附近 10
限」 10
院證 10
除別 10
陳月@@ 10
險 10
雪@@ 10
雯@@ 10
電機 10
革職 10
頓@@ 10
額@@ 10
食費 10
驗法 10
高興 10
鵬@@ 10
黃大@@ 10
黃秀@@ 10
默@@ 10
@@ 10
﹑ 10
％@@ 10
－2 10
｝@@ 10
000×6 9
013 9
027 9
031 9
070 9
084 9
0萬 9
237 9
271 9
289 9
29年 9
305 9
334 9
35萬 9
386 9
389 9
410 9
419 9
421 9
427 9
445 9
457 9
477 9
478 9
508 9
519 9
522 9
539 9
547 9
552 9
569 9
571 9
610 9
621 9
647 9
653 9
657 9
664 9
685 9
687 9
696 9
705 9
709 9
711 9
717 9
723 9
726 9
739 9
742 9
757 9
819 9
826 9
835 9
877 9
878 9
909 9
915 9
916 9
954 9
976 9
987 9
993 9
995 9
IS@@ 9
LI@@ 9
PS 9
Q 9
ard 9
co@@ 9
con@@ 9
ed 9
ine 9
ment 9
mp@@ 9
th@@ 9
˙ 9
「調 9
「資方 9
一體 9
上下@@ 9
世 9
丘 9
主任委員 9
乙○ 9
事業者 9
亦失所 9
亨 9
人才 9
令@@ 9
企業社 9
休息@@ 9
住所 9
併購 9
使@@ 9
依表 9
保退 9
信託 9
們 9
倒數 9
倘系 9
假別 9
假者 9
健康@@ 9
偶然 9
偷@@ 9
催促 9
傾@@ 9
免假 9
免稅 9
兔@@ 9
公司@@ 9
公法 9
其一 9
冷氣 9
凡@@ 9
出勤表 9
出資額 9
刑事@@ 9
刑事庭 9
前條 9
勒@@ 9
務局 9
勞基 9
午節 9
協 9
卡片 9
卸責 9
參諸@@ 9
參酌證人 9
召@@ 9
同意@@ 9
同者 9
吸收 9
告終 9
嘉 9
嘉獎 9
噴@@ 9
因認 9
固然 9
國內外 9
國民@@ 9
團 9
在先 9
坊 9
坦@@ 9
埔 9
執意 9
堆 9
堆高機 9
堤 9
報經 9
塵@@ 9
墊付 9
墓 9
壞@@ 9
契約@@ 9
女工 9
好好 9
嬉@@ 9
字眼 9
字跡 9
學期 9
定時 9
定者 9
客戶@@ 9
室@@ 9
尚非有據 9
局部 9
屏@@ 9
履約 9
差費 9
年計 9
庚 9
庫存@@ 9
庭具 9
庭結證 9
廖 9
延期 9
復原 9
德州 9
思考 9
怠工 9
恆 9
情事云云 9
情以觀 9
惟觀 9
愉快 9
愛 9
態@@ 9
慎@@ 9
憂@@ 9
應用 9
戳@@ 9
手上 9
抗辯系 9
抽象 9
拍攝 9
拖 9
挑 9
捐 9
掃墓節 9
掛名 9
接替 9
控制@@ 9
提撥@@ 9
換取 9
揭露 9
摺合 9
擋 9
支持 9
政院 9
教育部 9
斟酌@@ 9
新職 9
旨可資 9
明細單 9
昭 9
昶 9
時限 9
晚@@ 9
普遍 9
暈@@ 9
替代 9
有發 9
有限 9
未符 9
枝 9
核並 9
業績@@ 9
極大 9
榔@@ 9
標籤 9
機制 9
機電 9
檳 9
權力 9
歐@@ 9
正確性 9
此業 9
武 9
殘廢者 9
毀@@ 9
毋@@ 9
民營 9
水電 9
求職者 9
沄 9
沒@@ 9
法制 9
法定@@ 9
法所定 9
法文 9
注欄 9
津@@ 9
派出所 9
清水 9
滯 9
無效@@ 9
無明文禁止 9
無非@@ 9
然系 9
燕@@ 9
爰請求 9
爲何人 9
獎金系 9
獲悉 9
現今 9
現代 9
現職 9
球@@ 9
球場 9
理事會 9
理性 9
甚鉅 9
甲○○證 9
申報@@ 9
畢@@ 9
當之動機 9
當作 9
癒 9
百分之60 9
的@@ 9
直 9
看見 9
硬 9
磊@@ 9
禁 9
福利部 9
稍 9
稱系 9
稽覈室 9
立案 9
童 9
竹 9
第0000000 9
第099@@ 9
第108 9
第121 9
第139 9
第156 9
第163 9
第173 9
第182 9
第186 9
第192 9
第217 9
第26@@ 9
第279 9
第496 9
第762 9
答稱 9
管轄 9
管部 9
簽證 9
簽退 9
籌@@ 9
粗重 9
系欲 9
約定@@ 9
紐@@ 9
純@@ 9
索@@ 9
經核 9
經濟@@ 9
綠 9
綦詳 9
緩 9
縱上訴人 9
總統 9
繳回 9
耗@@ 9
聲請@@ 9
膝@@ 9
臨時工 9
自民事 9
自然人 9
自難@@ 9
至今 9
航空@@ 9
艙 9
芯@@ 9
荷@@ 9
菲 9
落@@ 9
蔡建@@ 9
藏@@ 9
蘋@@ 9
虛報 9
虞@@ 9
虧損」 9
血@@ 9
行銷@@ 9
衡@@ 9
衡酌 9
被告逕 9
裁處 9
複覈 9
覺 9
角@@ 9
計發 9
計算之 9
訊@@ 9
訖@@ 9
訟標 9
訴外 9
詐 9
誤餐費 9
調卷 9
調查表 9
請訊 9
論究 9
諱 9
謠 9
證七 9
警惕 9
議權 9
護理 9
象 9
貫 9
賄@@ 9
贈送 9
起因 9
跳 9
蹠@@ 9
蹤 9
身分之證件 9
車號 9
載貨 9
轄 9
轉入 9
轉告 9
轉嫁 9
轉讓@@ 9
辦事 9
迄至 9
迥異 9
迫性 9
迴歸 9
逐@@ 9
途徑 9
逕依 9
進出 9
遂行性 9
達「 9
遣散費 9
適格性 9
選擇@@ 9
酒測 9
釋字 9
金云云 9
金屬 9
金系 9
錶 9
鍾 9
鐵路 9
閉 9
開函文 9
開啓 9
閘門 9
阮氏 9
院99 9
除去者 9
陪 9
陳慧@@ 9
險@@ 9
雨@@ 9
雲林縣 9
震@@ 9
非工資 9
革 9
預付 9
風 9
食譜 9
香@@ 9
騰 9
驗證 9
齊@@ 9
 9
@@ 9
Ｄ@@ 9
Ｉ@@ 9
...@@ 8
00萬 8
010 8
072 8
150萬 8
159 8
16時 8
231 8
234 8
23萬 8
242 8
259 8
26萬 8
327 8
337 8
366 8
379 8
381 8
415 8
465 8
503 8
509 8
586 8
592 8
595 8
60日 8
615 8
617 8
655 8
662 8
676 8
6日者 8
704 8
712 8
71年 8
721 8
737 8
777 8
787 8
810 8
834 8
869 8
888 8
922 8
936 8
939 8
978 8
< 8
ER@@ 8
St@@ 8
ab@@ 8
as@@ 8
it@@ 8
of 8
st@@ 8
④@@ 8
⑦ 8
《 8
》 8
「自 8
「資 8
一０ 8
上車 8
不可@@ 8
世傑 8
丙○○之@@ 8
丙○○系 8
並無二致 8
中壢 8
中央目 8
中山 8
主張其自 8
主非 8
乙情 8
亡 8
京@@ 8
人民@@ 8
代理商 8
代表大會 8
代表權 8
伶 8
似@@ 8
作法 8
依循 8
信譽 8
俾@@ 8
候@@ 8
倫理 8
假云云 8
偶 8
偷竊 8
備忘錄 8
債@@ 8
傷口 8
僱主經營 8
僱於 8
儒 8
優勢 8
元及 8
兄弟 8
光復@@ 8
免費 8
全程 8
八年 8
公益 8
公訴 8
准此@@ 8
出者 8
函知 8
分工 8
分發 8
切割 8
切結 8
刊@@ 8
判定 8
到任 8
刻@@ 8
剎@@ 8
劉 8
劑@@ 8
勉@@ 8
務員 8
勞工處 8
勞退專戶 8
十分 8
升遷 8
即告 8
即屬 8
即足 8
卷證 8
原職 8
受償 8
受自 8
另證人 8
召集 8
可謂 8
可資 8
合法性 8
吊@@ 8
周惠翼 8
哥@@ 8
商店 8
商銀 8
善盡 8
喔 8
喜慶 8
喪@@ 8
嗣上訴人 8
噸@@ 8
回饋 8
國防部 8
執行法 8
基金會 8
報復 8
報紙 8
塗 8
增列 8
外科 8
大小@@ 8
太@@ 8
失爲 8
契約目 8
妥適 8
始於 8
始爲 8
始負 8
定資 8
宣示 8
容忍 8
密集 8
實質性 8
將近 8
專用 8
尋@@ 8
小心 8
就是說 8
屆@@ 8
屏東 8
岑 8
工讀生 8
巧 8
巴@@ 8
市○○路 8
平原 8
平均@@ 8
年中 8
年加 8
序@@ 8
座 8
座位 8
廈 8
廢 8
建築@@ 8
張寶@@ 8
強行 8
影像 8
役@@ 8
彼 8
徐 8
復據 8
復證 8
快@@ 8
怨 8
怪@@ 8
悔 8
情理 8
惡化 8
意人 8
慣@@ 8
懲處@@ 8
戊○○於 8
或@@ 8
房租 8
打字 8
托@@ 8
扣發 8
批發 8
技術@@ 8
抗議 8
拆除 8
拖延 8
拘束性 8
拜 8
括@@ 8
拯@@ 8
指標 8
指述 8
捌 8
捷@@ 8
掃@@ 8
授@@ 8
採認 8
探 8
探究 8
搞 8
搬遷 8
撫 8
撫@@ 8
擷取 8
攤 8
故於 8
效」 8
敍明 8
敬業 8
整合 8
數次 8
施予 8
日方 8
日計酬 8
時間點 8
景 8
曆@@ 8
會計@@ 8
月數 8
月薪制 8
有權 8
有點 8
服務站 8
服務處 8
服用 8
本諸 8
杞@@ 8
查帳 8
查知 8
核章 8
核閱 8
棄 8
棉 8
椅子 8
植 8
業社 8
樂 8
樂福 8
止」 8
殘障 8
毋 8
每期 8
毒@@ 8
毛利 8
氣體 8
永安 8
污水 8
油品 8
洛@@ 8
消費者 8
清償@@ 8
清明節 8
清潔@@ 8
清算人 8
渝@@ 8
溢付 8
滿意 8
漫@@ 8
潤@@ 8
潭 8
灼然 8
炫 8
炳@@ 8
無償 8
無力 8
無足取 8
然亦 8
煮 8
特色 8
犯行 8
玖 8
玩@@ 8
珮 8
琍 8
甚詳 8
生者 8
甲○○○@@ 8
甲○○之 8
甲等 8
申覆 8
男@@ 8
界定 8
當中 8
當於 8
症 8
症@@ 8
益見 8
眩 8
破裂 8
硬體 8
碎@@ 8
碰@@ 8
碰到 8
碳 8
磁@@ 8
祺 8
科目 8
稽覈@@ 8
窘@@ 8
第106@@ 8
第124 8
第1240 8
第136 8
第160 8
第164 8
第165 8
第199 8
第209 8
第213 8
第218 8
第246 8
第252 8
第44064 8
第549 8
筆記本 8
筋 8
答覆 8
策 8
管道 8
糾@@ 8
紀錄器 8
細繹 8
終止@@ 8
經徵 8
經理@@ 8
縣@@ 8
縱原告 8
總行 8
繳款 8
繳款單 8
續聘 8
翌 8
翻譯 8
耀@@ 8
職原 8
肇 8
肩 8
背景 8
胞@@ 8
脫離 8
膜 8
臨 8
自治 8
臺南縣 8
臼@@ 8
舒服 8
航線 8
茹 8
董監事 8
蓮@@ 8
薄 8
薪休 8
藏 8
蛋 8
衛生@@ 8
衣服 8
袋@@ 8
被告即 8
被告如 8
被告服 8
被告辯 8
複稱 8
褲@@ 8
規範@@ 8
訓@@ 8
評鑑 8
詩@@ 8
該行 8
認同 8
誘@@ 8
誣告 8
調移 8
謀@@ 8
謂@@ 8
譽@@ 8
變更@@ 8
變相 8
變造 8
貢獻 8
販 8
貪@@ 8
責事 8
貳@@ 8
貿@@ 8
貿易 8
賀禮 8
資遣」 8
質問 8
趨 8
足佐 8
趴 8
較@@ 8
辜@@ 8
辯狀 8
農@@ 8
迅 8
迎 8
迪@@ 8
退出 8
逃@@ 8
通聯 8
造業 8
遇到 8
運輸@@ 8
遍 8
違勞 8
適時 8
遺症 8
邦@@ 8
鄉長 8
鄭 8
配方 8
酬」 8
酬金 8
酵@@ 8
金者 8
錄音@@ 8
鐘 8
開規 8
闡@@ 8
附上 8
附加 8
降調 8
陳振@@ 8
陳文@@ 8
陳秀@@ 8
隊 8
隔月 8
雄@@ 8
雙務 8
難堪 8
非依 8
類型 8
飲@@ 8
飲酒 8
餐@@ 8
餘款 8
首都 8
騰@@ 8
魚@@ 8
龐大 8
 8
Ｏ@@ 8
015 7
022 7
042 7
053 7
094 7
09@@ 7
13年 7
20分 7
22時 7
283 7
32萬 7
36萬 7
385 7
399 7
423 7
434 7
443 7
464 7
492 7
507 7
515 7
577 7
598 7
609 7
631 7
649 7
654 7
661 7
669 7
678 7
690 7
716 7
751 7
753 7
763 7
766 7
772 7
781 7
786 7
813 7
828 7
861 7
865 7
896 7
905 7
90萬 7
956 7
965 7
983 7
Co@@ 7
an 7
ation 7
ho@@ 7
ri@@ 7
×9 7
≒@@ 7
③@@ 7
「代 7
「第 7
「離 7
」原 7
」此 7
一次性 7
上去 7
上訴@@ 7
上訴狀 7
上訴論 7
下述 7
中班 7
中興 7
主辦 7
乃指 7
之所得 7
九年 7
事者 7
交岔 7
亦堪 7
享 7
亭@@ 7
人事部 7
人壽保險 7
付99年 7
企字 7
佰@@ 7
使用@@ 7
例示 7
供述 7
係指非 7
促使 7
促銷 7
俗@@ 7
保險失 7
俟 7
信函@@ 7
信實 7
修正@@ 7
修繕 7
個半 7
個性 7
倒閉 7
健康者 7
偶@@ 7
傍@@ 7
僱權 7
克 7
兌@@ 7
兌現 7
免扣 7
兒 7
兒童 7
全國 7
全業 7
全盤 7
公告欄 7
公營 7
公路 7
函令 7
刁難 7
分之@@ 7
初步 7
券 7
前詞 7
剩餘@@ 7
創造 7
務部 7
勞務者 7
勞工法 7
勞工資 7
勞簡 7
北勞 7
協同 7
危險性 7
即堪 7
參原 7
參展 7
叉 7
友@@ 7
友人 7
反悔 7
史@@ 7
吊 7
否則@@ 7
吳 7
吵 7
味@@ 7
呼 7
和平 7
品德 7
問卷 7
啓事 7
喪假@@ 7
單純@@ 7
喻@@ 7
器@@ 7
嚴厲 7
嚼 7
囑 7
困境 7
國慶日 7
園長 7
基層 7
堡@@ 7
報單 7
場長 7
塑膠@@ 7
塗改 7
壁 7
士林 7
大型 7
大於 7
夾 7
奉@@ 7
始知 7
始足稱之 7
姨 7
姿@@ 7
娘@@ 7
娩@@ 7
婆 7
婚假 7
媳@@ 7
嬌 7
存放 7
存貨 7
安狀態 7
宋 7
完工 7
定期性 7
定額 7
宣 7
宮 7
宵@@ 7
實情 7
審判@@ 7
將@@ 7
專人 7
尋找 7
對帳 7
小朋友 7
崙 7
工業區 7
市○○@@ 7
席 7
帳簿 7
幫助 7
干@@ 7
年節 7
序 7
廁 7
廣播 7
廷 7
建築 7
弄@@ 7
弊 7
弱@@ 7
彙整 7
彰@@ 7
彰化 7
律 7
後認 7
循@@ 7
忙@@ 7
快速 7
悅@@ 7
患@@ 7
情境 7
惟勞 7
慈@@ 7
慮@@ 7
懼 7
戲 7
房務 7
手部 7
打算 7
抄 7
括 7
指委 7
指訴 7
指責 7
掌 7
採計 7
提請 7
插@@ 7
揭事 7
揮@@ 7
援 7
損傷 7
摘 7
撤 7
擦@@ 7
效益 7
救@@ 7
敗 7
散佈 7
斡@@ 7
斥 7
新加坡 7
旬 7
旭@@ 7
明文禁止 7
星期五 7
昶@@ 7
曹@@ 7
曼 7
會後 7
有害 7
朝 7
本屬 7
本次 7
杆 7
杏@@ 7
杞 7
架構 7
查看 7
核系 7
桃園縣 7
森@@ 7
椎 7
楊國@@ 7
業務行銷 7
業界 7
標題 7
模擬 7
機具 7
橫@@ 7
歌@@ 7
正職 7
歷 7
死@@ 7
污 7
決定書 7
沙 7
泄@@ 7
波 7
浩 7
浮@@ 7
涵蓋 7
淺 7
添@@ 7
清點 7
減免 7
溫 7
滄@@ 7
潘 7
潛在 7
潢 7
激@@ 7
灌@@ 7
災@@ 7
烽 7
無礙於 7
無罪 7
焦@@ 7
然仍 7
然揆 7
煙@@ 7
燒@@ 7
營運@@ 7
爭離 7
版本 7
特質 7
狗 7
猛@@ 7
獲准 7
玫@@ 7
班別 7
現實@@ 7
瑕@@ 7
甚者 7
生存權 7
生病 7
疑慮 7
百分之六十@@ 7
盒@@ 7
監 7
監造 7
相悖 7
真僞 7
真相 7
短缺 7
碧@@ 7
碳@@ 7
磊 7
磋商 7
社會性 7
祕@@ 7
禾 7
稔 7
究屬 7
窯@@ 7
竊@@ 7
竟@@ 7
童@@ 7
第00000000000 7
第0960@@ 7
第0970@@ 7
第154 7
第157 7
第176 7
第183 7
第688 7
第二@@ 7
策@@ 7
筱@@ 7
篇 7
簽報 7
簾@@ 7
籤立@@ 7
米@@ 7
粉塵 7
系委 7
累@@ 7
細節 7
結構@@ 7
絜 7
經紀@@ 7
經銷 7
縫@@ 7
縱屬 7
縱未 7
繁忙 7
繪 7
續性 7
習慣@@ 7
考成 7
耗損 7
聘請 7
肯認 7
肺@@ 7
腿 7
臉@@ 7
臉書 7
自不待言 7
自認者 7
自負有 7
自非有據 7
至99年 7
致者 7
航 7
若是 7
茍 7
莉 7
菇 7
菊 7
葬 7
葬@@ 7
蒂 7
薪資5 7
虛妄 7
螺@@ 7
行字 7
行政處分 7
表系 7
被告嗣 7
被告會 7
被告未 7
裁判者 7
裂@@ 7
補救 7
裝卸 7
製造部 7
覈 7
覈銷 7
規劃@@ 7
覺@@ 7
覽 7
計算書 7
託兒所 7
記憶@@ 7
訴者 7
註@@ 7
詞辯 7
試算表 7
該時 7
該處 7
認「 7
認證人 7
誣陷 7
誤認 7
說話 7
諾@@ 7
謹慎 7
證人所述 7
警詢 7
議處 7
議題 7
豈@@ 7
負面 7
財務部 7
資力 7
賣場 7
贏@@ 7
起因性 7
跌 7
輝@@ 7
轉知 7
轉讓」 7
辛勞 7
辨 7
迫@@ 7
退費 7
週報 7
過者 7
遣」 7
遣事 7
選舉 7
邦 7
邱 7
部位 7
都@@ 7
鄒@@ 7
配送 7
重整 7
鈺 7
鉅@@ 7
銷者 7
鋁@@ 7
鋒 7
鑄 7
門禁卡 7
開2 7
開事證 7
開刀 7
開抗 7
閒@@ 7
間確 7
間究 7
限度 7
陳美@@ 7
雷@@ 7
電器 7
電源 7
霸@@ 7
韻@@ 7
頒 7
頤@@ 7
飯店 7
飽@@ 7
駁@@ 7
騙 7
髒@@ 7
高雄市 7
鮑@@ 7
麥 7
點數 7
臺 7
 7
@@ 7
﹪ 7
０ 7
Ｃ@@ 7
Ｉ 7
# 6
002 6
005 6
016 6
078 6
089 6
090 6
100萬 6
17時 6
18時 6
2010年 6
2014年 6
2時 6
306 6
359 6
37萬 6
382 6
392 6
395 6
3時 6
400@@ 6
435 6
451 6
453 6
479 6
482 6
485 6
487 6
551 6
572 6
591 6
637 6
665 6
674 6
699 6
713 6
732 6
736 6
838 6
842 6
848 6
853 6
881 6
895 6
934 6
IC@@ 6
Line 6
SO@@ 6
TE@@ 6
\ 6
and 6
es@@ 6
lo@@ 6
se@@ 6
tion 6
u 6
us@@ 6
‧@@ 6
一百 6
一覽表 6
三十六 6
不同 6
丙○○之 6
中小@@ 6
中山@@ 6
中止 6
中華@@ 6
中部 6
主管@@ 6
之月份 6
予資 6
二事 6
交談 6
京 6
人事室 6
件人 6
任天堂 6
任用法 6
伊有 6
伏 6
休息室 6
休特 6
休閒 6
伸@@ 6
佛@@ 6
作業@@ 6
併購法 6
使用者 6
依債 6
侮辱@@ 6
便當 6
俄@@ 6
俗 6
保障@@ 6
做事 6
傅 6
傲@@ 6
傳染@@ 6
傳統 6
僅@@ 6
僑 6
僞證 6
兒子 6
內外 6
內心 6
全日@@ 6
全日制 6
公園 6
共事 6
其因 6
冀 6
再行主張 6
出租 6
出資@@ 6
刀@@ 6
刑事訴訟法 6
初三 6
到庭 6
刷@@ 6
劇 6
加油 6
加班」 6
務處 6
勞務性 6
勞工系 6
募 6
午 6
半年計 6
即刻 6
參本院 6
及「 6
取款 6
可行 6
合格者 6
合理化 6
吊扣 6
同業公會 6
同等 6
名華 6
呈@@ 6
呼@@ 6
咖啡@@ 6
啥 6
喬@@ 6
嘗@@ 6
器材 6
嚼@@ 6
回證 6
固定性 6
固須 6
圖檔 6
地下 6
坪 6
執行長 6
堪認系 6
壬 6
夜點費 6
夥@@ 6
失去 6
失衡 6
奪 6
如上所述 6
如實 6
始予 6
始屬 6
委任者 6
委託@@ 6
姵@@ 6
婿 6
媒@@ 6
孔 6
字第 6
孩@@ 6
它 6
室內 6
害@@ 6
審事 6
審慎 6
審調 6
寵@@ 6
封面 6
尚非 6
屆時 6
屋@@ 6
屏 6
展示 6
屬委 6
屬實者 6
峽@@ 6
崑@@ 6
川@@ 6
巡邏 6
工務 6
工程部 6
巨 6
帶走 6
幫@@ 6
年0@@ 6
幼@@ 6
庶@@ 6
廚房 6
廳 6
建物 6
張志@@ 6
彈 6
影印 6
徒手 6
必發 6
忽@@ 6
怎樣 6
怒@@ 6
思者 6
恐怖 6
恝@@ 6
情事@@ 6
情事者 6
惟本院 6
意識 6
愷 6
慰 6
應解 6
手段@@ 6
扣留 6
承諾@@ 6
投標 6
押@@ 6
拔@@ 6
拷@@ 6
捏造 6
推動 6
提議 6
揭「 6
搜@@ 6
搬@@ 6
撕裂@@ 6
撞擊 6
撥金 6
撫金 6
撰 6
擅離 6
擅離職守 6
操控 6
據此@@ 6
擺@@ 6
攜@@ 6
攤@@ 6
攷勤表 6
改正 6
攻@@ 6
敬 6
敵@@ 6
數日 6
文規定 6
斐@@ 6
斗@@ 6
方允 6
施者 6
旋@@ 6
旨指 6
映@@ 6
晶 6
智識 6
曉得 6
曲 6
書人 6
有事 6
有什 6
有利益 6
本系 6
李淑@@ 6
杏 6
核無必要 6
根 6
格者 6
植@@ 6
樓梯 6
橋 6
機型 6
檔@@ 6
櫃員 6
櫻@@ 6
欺@@ 6
欺瞞 6
歧 6
永續 6
汀 6
沅@@ 6
沒關係 6
油漆 6
泄 6
法務 6
注意@@ 6
洋@@ 6
津貼系 6
洪志@@ 6
洺 6
活動@@ 6
浙@@ 6
淡 6
混 6
清潔工 6
溪 6
滅 6
演@@ 6
漸 6
漸@@ 6
濟 6
濟@@ 6
濱 6
炫@@ 6
無視 6
然非 6
燃@@ 6
燙 6
爬 6
物件 6
犯意 6
獅 6
獨自 6
玄@@ 6
王秀@@ 6
玻@@ 6
琛 6
琦 6
璜 6
生產力 6
用戶 6
留言 6
疋 6
疫@@ 6
疵@@ 6
病者 6
痊@@ 6
痕 6
痛@@ 6
療養 6
癒@@ 6
發覺 6
盜用 6
監督@@ 6
盧 6
盧@@ 6
相似 6
相距 6
相較 6
眉@@ 6
睡眠 6
督促 6
研究員 6
碧玉 6
祕書@@ 6
祖@@ 6
神 6
禮 6
禮金 6
稱之 6
穿@@ 6
穿著 6
竄 6
竣 6
第1018 6
第161 6
第194 6
第207 6
第208 6
第211 6
第214 6
第225 6
第226 6
第231 6
第242 6
第250 6
第259 6
第447 6
第488 6
第573 6
第801 6
管字 6
管理局 6
簡化 6
簡卷 6
籤請 6
約明 6
紙箱 6
紡 6
終身 6
經報 6
經臺 6
綻 6
緣由 6
緯 6
縱原 6
縱如 6
總務@@ 6
罩 6
羅@@ 6
翼 6
耗費 6
聖 6
聚 6
聯絡@@ 6
職書 6
肉 6
腰@@ 6
臆測 6
臥@@ 6
自須 6
臺語 6
舉發 6
苑 6
若非 6
菲@@ 6
萎縮 6
萱 6
蔣 6
藉 6
藉金 6
處理@@ 6
虧損@@ 6
行」 6
行政訴訟 6
衡諸常情 6
表列 6
被告「 6
被告始 6
裏@@ 6
補繳 6
補辦 6
見證人 6
親友 6
親屬 6
親班 6
計算云云 6
訓練」 6
訟@@ 6
訢@@ 6
評估@@ 6
詩 6
該「 6
誓 6
誠屬 6
誹謗 6
誹謗罪 6
調班 6
調貨 6
諒@@ 6
諮@@ 6
諾 6
謾罵 6
證者 6
議事錄 6
議會 6
護人 6
負債@@ 6
財產@@ 6
販售 6
費」 6
費率 6
貿 6
賓@@ 6
賦 6
贊@@ 6
起因@@ 6
跗@@ 6
跟伊 6
車牌 6
辦公桌 6
迄未 6
迴@@ 6
通訊@@ 6
逢@@ 6
連@@ 6
逸 6
逼@@ 6
遙@@ 6
遣費者 6
適度 6
遮@@ 6
遵 6
遽信 6
邀 6
邊@@ 6
酌@@ 6
里 6
鈴 6
鈴@@ 6
銀 6
銜接 6
錚 6
錢@@ 6
鑄@@ 6
開銷 6
閱讀 6
關係@@ 6
關鍵 6
闡 6
阮@@ 6
降@@ 6
陪同 6
陳弘@@ 6
陷入 6
障 6
隨後 6
霍夫@@ 6
非可歸責 6
非繼續性 6
靠@@ 6
面額 6
革@@ 6
鞋 6
韋@@ 6
韓@@ 6
頓 6
頗 6
養護 6
餐店 6
餐飲 6
馮@@ 6
騷擾 6
驅@@ 6
驗收 6
驟 6
驟@@ 6
骨科 6
體恤 6
體檢 6
高機 6
默 6
４@@ 6
Ｂ 6
Ｐ 6
ｘ 6
' 5
....@@ 5
..@@ 5
028 5
041 5
095 5
2009年 5
21時 5
25年 5
2×1 5
321 5
33萬 5
341 5
369 5
449 5
459 5
499 5
50％ 5
514 5
526 5
537 5
689 5
70％ 5
759 5
774 5
814 5
823 5
849 5
856 5
876 5
906 5
907 5
911 5
924 5
927 5
969 5
AB@@ 5
CO@@ 5
IC 5
LE@@ 5
Li@@ 5
el@@ 5
en 5
ent 5
il 5
or 5
ry 5
the 5
ur@@ 5
z 5
×7 5
②@@ 5
「夥 5
「病 5
「能 5
」同法 5
上下 5
上個@@ 5
並舉 5
中小企業 5
串 5
主張渠 5
之內部 5
事云云 5
事實@@ 5
事會 5
事業處 5
交往 5
交待 5
人手 5
人評會 5
仔細 5
休」 5
佈 5
佔有 5
余@@ 5
佩妤 5
例休 5
侖@@ 5
依委 5
係數 5
保法 5
保證金 5
俞@@ 5
信性 5
候 5
候羣 5
偏離 5
偕 5
停薪@@ 5
傷字 5
僵@@ 5
充其量 5
兒@@ 5
全職 5
公出 5
公平@@ 5
其說 5
凍@@ 5
凱翔 5
出言 5
函件 5
分層 5
分校 5
分者 5
分配表 5
制前 5
制度@@ 5
剩@@ 5
剩餘月數 5
剪@@ 5
創傷 5
劇@@ 5
劉秀@@ 5
功 5
加註 5
動搖 5
勤勉 5
北市 5
匿@@ 5
午餐 5
危及 5
卷可@@ 5
卸 5
原系 5
參諸證人 5
參酌@@ 5
反舍 5
受命 5
只好 5
叭@@ 5
可參 5
君@@ 5
含有 5
吵@@ 5
吾 5
吾@@ 5
命令@@ 5
哨@@ 5
唆 5
商量 5
善意 5
固於 5
固辯 5
圳@@ 5
坑@@ 5
垃圾@@ 5
城 5
域 5
基本@@ 5
基準日 5
堂@@ 5
堪可採信 5
報廢 5
塞 5
塞@@ 5
境內 5
壢 5
壽@@ 5
夾@@ 5
契約法 5
她們 5
妊娠 5
妻@@ 5
始行 5
始足@@ 5
委外 5
委無足採 5
委託書 5
娥@@ 5
婷@@ 5
媛 5
嬰@@ 5
存卷 5
孝 5
安心 5
宿 5
宿費 5
寅@@ 5
富羣 5
實屬 5
專利 5
專職 5
小章 5
小組 5
尚且 5
尺 5
展覽 5
岡@@ 5
島 5
崇@@ 5
工商 5
己@@ 5
幹@@ 5
幼兒 5
店面 5
廂 5
廊 5
廢棄物 5
延至 5
引發 5
張秀@@ 5
強調 5
形云云 5
彼@@ 5
後始 5
復以 5
微 5
徹@@ 5
患者 5
惰 5
愈@@ 5
意涵 5
憑取 5
憤 5
憲@@ 5
憶 5
應計 5
懋 5
懸@@ 5
戚 5
房間 5
扣取 5
承作 5
承租 5
技術性 5
把@@ 5
抓 5
投票 5
抗力 5
抱 5
抽屜 5
抽成 5
掌@@ 5
握 5
握@@ 5
搶 5
搶@@ 5
摘要 5
撤職 5
撥貸 5
操守 5
據實 5
據者 5
救護車 5
敦@@ 5
於本院 5
旨可參 5
昇@@ 5
昨@@ 5
昱 5
時間表 5
暴@@ 5
會館 5
有所@@ 5
有礙 5
本意 5
本規 5
本院證 5
束@@ 5
東縣 5
枉@@ 5
柱 5
案卷 5
桌上 5
桐 5
械 5
椎@@ 5
楨@@ 5
概 5
機械@@ 5
檢具 5
檢查處 5
檢驗@@ 5
櫫 5
權衡 5
歧異 5
殘 5
殘廢@@ 5
毆@@ 5
毫 5
永傑 5
汶 5
河@@ 5
法」 5
泡@@ 5
消防 5
渡@@ 5
測驗 5
漳 5
灌 5
焊@@ 5
焚@@ 5
無所據 5
然參 5
煜 5
煤@@ 5
照護 5
熄@@ 5
營業處 5
爆@@ 5
犧牲 5
猜@@ 5
猶執 5
獨 5
王天@@ 5
珍@@ 5
班」 5
現況 5
璃@@ 5
璨@@ 5
甘 5
甘@@ 5
甡@@ 5
甩 5
男女 5
異動@@ 5
疾@@ 5
病症 5
療 5
發性 5
發言 5
白天 5
百萬 5
皆@@ 5
皮 5
相近 5
睦 5
睿 5
知之@@ 5
矧@@ 5
短繳 5
研究會 5
碌 5
碩 5
確切 5
碼@@ 5
礙於 5
祁@@ 5
祖 5
祝 5
禎 5
福利@@ 5
福利金 5
禮貌 5
私文 5
秩 5
種@@ 5
種種 5
稱略 5
突 5
窺@@ 5
立榮 5
端@@ 5
符解僱 5
第096@@ 5
第151 5
第162 5
第166 5
第172 5
第174 5
第177 5
第178 5
第181 5
第205 5
第400 5
第528 5
第l 5
第四百七十@@ 5
算書 5
管理課 5
籤離 5
約束 5
納稅 5
紡@@ 5
絡@@ 5
維繫 5
綽@@ 5
緣 5
總機 5
繡@@ 5
繩@@ 5
繳交 5
繼@@ 5
纔@@ 5
罪責 5
翠 5
耐@@ 5
耽@@ 5
職司 5
肇因 5
肌腱 5
胸@@ 5
脊@@ 5
腦 5
腫 5
腰椎 5
自主權 5
自承系 5
自治@@ 5
自負 5
致電 5
興業 5
艱@@ 5
茂 5
華南 5
萌 5
萬8 5
萬9 5
著重 5
董@@ 5
葦@@ 5
蒸氣 5
蓄意 5
蕊 5
薦@@ 5
薪云云 5
處分之@@ 5
號碼@@ 5
虧@@ 5
蛋@@ 5
蠻 5
街@@ 5
被告欲 5
補助@@ 5
補提 5
製造@@ 5
覆核 5
規律 5
覽@@ 5
訃@@ 5
許文@@ 5
訴意 5
訴願 5
詐欺@@ 5
評審 5
誌@@ 5
誡 5
說明@@ 5
說法 5
課予 5
調動@@ 5
謜 5
謠言 5
識@@ 5
警方 5
貌 5
負責@@ 5
貫@@ 5
費用@@ 5
貿然 5
賃@@ 5
資歷 5
資遣事 5
資遣費者 5
賞 5
購單 5
賽 5
趣@@ 5
足憑 5
路○ 5
身分之@@ 5
身心@@ 5
車馬費 5
載送 5
輪調 5
轉介 5
轉移 5
轉述 5
辛苦 5
辨識 5
辯論@@ 5
農 5
迎@@ 5
迪 5
迫 5
追求 5
追訴 5
退保@@ 5
退化性 5
逐步 5
速限 5
進口 5
遊 5
運費 5
遵從 5
選擇權 5
酌減 5
配件 5
酗@@ 5
釐@@ 5
釘@@ 5
鉤@@ 5
銓 5
銷權 5
錄用 5
錨 5
錶@@ 5
鍋@@ 5
鍋爐 5
鍰@@ 5
鍵@@ 5
鎮@@ 5
鐘點費 5
鐲 5
鑾 5
門禁 5
開約 5
間隔 5
間非 5
關係業 5
關心 5
附註 5
院長 5
陳志@@ 5
陳稱@@ 5
隊長 5
隙 5
際@@ 5
隧道症 5
電梯 5
靈 5
韻 5
頂 5
預 5
預告@@ 5
頒@@ 5
頗@@ 5
頸部 5
顆 5
願性 5
風暴 5
飯@@ 5
養費 5
餽贈 5
饋@@ 5
高中 5
鮮@@ 5
鳴 5
麻煩 5
黃淑@@ 5
點」 5
鼓@@ 5
齒@@ 5
齡 5
龜@@ 5
 5
0 5
．．．@@ 5
．．．」 5
Ｍ 5
ＯＯ 5
Ｒ@@ 5
ｃ@@ 5
～@@ 5
0000000000 4
017 4
034 4
038 4
061 4
10％ 4
1億 4
2008年 4
20％ 4
261 4
269 4
300萬 4
364 4
3號 4
40分 4
42@@ 4
44萬 4
46萬 4
494 4
497 4
531 4
562 4
688 4
718 4
734 4
779 4
795 4
836 4
963 4
984 4
@ 4
AT@@ 4
IP@@ 4
MR@@ 4
SMT 4
U 4
Z 4
ai@@ 4
all 4
el 4
li@@ 4
ou 4
①@@ 4
⑧@@ 4
⑨ 4
─@@ 4
「除 4
上卷 4
上易字 4
上華 4
下面 4
中區 4
中風 4
主張@@ 4
主持人 4
之99年 4
乖 4
乙○○○@@ 4
也@@ 4
乳@@ 4
乾 4
事業部 4
交接@@ 4
人壽@@ 4
人字 4
人生 4
仟@@ 4
代工 4
代理@@ 4
以爲@@ 4
任者 4
伊於 4
佑@@ 4
佯@@ 4
侑 4
供應@@ 4
依賴 4
係指@@ 4
俐 4
保安 4
保育@@ 4
俟@@ 4
信託@@ 4
俱@@ 4
偵訊 4
僱時 4
儒@@ 4
儘@@ 4
儘快 4
優 4
兄 4
全案 4
公事 4
公佈欄 4
公教 4
其自 4
冤@@ 4
冬@@ 4
冷 4
分支 4
初犯 4
別事 4
利勞工 4
刪 4
到時 4
刺 4
削 4
削@@ 4
劃分 4
務必 4
勞務之@@ 4
勢@@ 4
匝@@ 4
匿 4
即生 4
即非 4
卵@@ 4
厲 4
古 4
吳宗@@ 4
咐 4
品牌 4
商標 4
商號 4
商談 4
嗯 4
嚷 4
囊 4
困@@ 4
固堪 4
固非 4
國人 4
國小 4
團@@ 4
地下@@ 4
培 4
基地 4
堡 4
報告單 4
報案 4
報酬@@ 4
墩 4
壓迫 4
壽 4
大慶 4
失控 4
奔@@ 4
妨 4
姜@@ 4
姻 4
婕 4
媒 4
嫂 4
孤@@ 4
宕@@ 4
定之 4
定書 4
宜蘭@@ 4
害人 4
害怕 4
宸 4
寒@@ 4
實者 4
實驗室 4
尊@@ 4
對抗 4
小結 4
屏東縣 4
展延 4
屯 4
島@@ 4
崁 4
崗@@ 4
崙@@ 4
川 4
工程款 4
已然 4
希@@ 4
幅 4
幻@@ 4
府@@ 4
張聰傑 4
強制@@ 4
強制性 4
影響者 4
得標 4
得視 4
復觀 4
心情 4
志宏 4
怠 4
性者 4
恥@@ 4
恫@@ 4
恿 4
惜 4
惡 4
態性 4
慫@@ 4
應對 4
戊 4
扇 4
手續費 4
才@@ 4
扭@@ 4
承辦人 4
抄@@ 4
抵扣 4
抽菸 4
拓展 4
拘 4
拘@@ 4
招待 4
拳 4
按勞工 4
捌@@ 4
採訪 4
探求者 4
掩@@ 4
描述 4
援@@ 4
搭配 4
摔 4
摩@@ 4
擔保@@ 4
擡 4
攬 4
支費 4
收繳 4
收費@@ 4
效日 4
效能 4
救 4
敘薪 4
料件 4
新竹縣 4
新聞@@ 4
旅 4
旅費 4
旋於 4
昨天 4
時始 4
時程 4
晏 4
暑假 4
曲解 4
曳 4
更名 4
書系 4
服務員 4
服務部 4
服員 4
期性 4
枉 4
枋@@ 4
林建@@ 4
林文@@ 4
枝@@ 4
柒@@ 4
栽@@ 4
桃園@@ 4
棧@@ 4
極爲 4
榛@@ 4
樊@@ 4
模糊 4
此情 4
此際 4
歷表 4
民航局 4
汁@@ 4
汐止 4
汪 4
汰 4
沐@@ 4
況查 4
活@@ 4
海嘯 4
涵@@ 4
淋 4
淘@@ 4
渣 4
渥 4
游 4
湛 4
滐 4
漂@@ 4
演 4
漫 4
漿@@ 4
澤 4
激 4
濃度 4
瀏@@ 4
瀞@@ 4
火災 4
烤@@ 4
無從據 4
無必要 4
無稽 4
然衡 4
熊@@ 4
爭合 4
物業 4
牽涉 4
獎勵@@ 4
獨@@ 4
獨立性 4
獻@@ 4
王文@@ 4
玟@@ 4
珠@@ 4
球 4
琇瑩 4
瓣 4
產能 4
田 4
畏@@ 4
當性 4
瘀@@ 4
盡善良 4
目睹 4
矩 4
研 4
破 4
確定者 4
確知 4
碼頭 4
磚 4
磨 4
祇@@ 4
禮拜六 4
私用 4
秩@@ 4
稅金 4
窒礙 4
竣@@ 4
第0000000000號函 4
第00000000@@ 4
第059605 4
第1031 4
第1118 4
第1301 4
第152 4
第1696 4
第190 4
第198 4
第220 4
第221 4
第222 4
第249 4
第260 4
第489 4
筆記@@ 4
等候 4
籤具 4
糕 4
系「 4
約金 4
紅包 4
紊@@ 4
紋 4
紛 4
紛@@ 4
紫@@ 4
組織者 4
結算@@ 4
絨 4
維護@@ 4
緊張 4
緒@@ 4
締@@ 4
縱依 4
總務部 4
繁 4
繩 4
繳付 4
纔 4
罔@@ 4
罪@@ 4
翊@@ 4
習@@ 4
翻拍 4
耀 4
耕 4
耗 4
聚餐 4
聯結車 4
聲稱 4
職務@@ 4
職金 4
聿 4
肄@@ 4
股長 4
肩@@ 4
背信 4
脫 4
腹 4
臂 4
臨牀 4
自91年 4
自始@@ 4
臺灣@@ 4
舖 4
艱 4
芷@@ 4
草 4
菁@@ 4
菸 4
萃@@ 4
萍@@ 4
董 4
蕙@@ 4
薛@@ 4
蜂@@ 4
融 4
行主張 4
行李 4
行走 4
衍 4
衍@@ 4
衡以 4
表面 4
被告處 4
補助款 4
複製 4
規勸 4
規章@@ 4
規範目 4
觸犯 4
計劃@@ 4
訴部 4
認證 4
誘 4
說明欄 4
調解會 4
請休 4
論期 4
諺 4
謠@@ 4
謫 4
謬@@ 4
證五 4
譚@@ 4
谷 4
豁@@ 4
貝 4
負重 4
貧@@ 4
貪污 4
資源@@ 4
資部 4
賸 4
足據 4
跡@@ 4
踩 4
躺 4
軸 4
輕易 4
轄@@ 4
辭職書 4
迫使 4
逃避 4
透@@ 4
逗@@ 4
進修 4
過戶 4
還@@ 4
邑 4
部屬 4
郭 4
郵 4
酒精 4
酬@@ 4
醉@@ 4
金管會 4
銓@@ 4
鑽@@ 4
鑿 4
長久 4
開薪資 4
閻@@ 4
闖@@ 4
附計 4
除此之外 4
陪@@ 4
陳世@@ 4
陳榮@@ 4
隨之 4
隨同 4
隻@@ 4
難行者 4
雲雲 4
零售@@ 4
電子@@ 4
靖@@ 4
非委 4
靡@@ 4
韌@@ 4
韞@@ 4
頁正 4
項」 4
頒訂 4
頸 4
頻 4
類別 4
飾 4
餉@@ 4
香 4
馨 4
駒 4
騷@@ 4
高速@@ 4
高雄@@ 4
鬥@@ 4
魚 4
鸞 4
麟@@ 4
麪@@ 4
黃玉@@ 4
鼠 4
ꆼ@@ 4
︰ 4
﹍ 4
﹕ 4
﹖ 4
＃ 4
９@@ 4
Ｓ@@ 4
 3
045 3
046 3
064 3
065 3
12點 3
19時 3
347 3
426 3
474 3
641 3
684 3
695 3
701 3
731 3
80萬 3
811 3
928 3
932 3
958 3
APQ 3
IP 3
TA@@ 3
TC 3
ag@@ 3
ce 3
es 3
ev@@ 3
ll 3
ma@@ 3
min@@ 3
mplo@@ 3
z@@ 3
“ 3
‧」 3
⑤@@ 3
⑦@@ 3
○○年 3
「一 3
「上訴人 3
「凡 3
「特定性 3
「知 3
「臺 3
」一@@ 3
㠏@@ 3
丙○○所 3
並予 3
中文 3
主持 3
乏@@ 3
九十六@@ 3
亂@@ 3
予伊 3
事業@@ 3
事錄 3
二級 3
亙 3
亙@@ 3
亡者 3
交通局 3
亳 3
人選 3
付金 3
代替性 3
代表@@ 3
任意性 3
企劃 3
伊系 3
休假權 3
伙@@ 3
伴 3
佐以 3
佔@@ 3
何處 3
你@@ 3
例者 3
侖 3
依聘 3
依誠 3
便於 3
保守 3
保職 3
保護@@ 3
信用@@ 3
信者 3
倦@@ 3
偏袒 3
偵卷 3
傻@@ 3
優劣 3
允當 3
兆 3
兌換 3
公正 3
其所述 3
冠 3
分之一 3
分之二 3
分攤 3
初期 3
刮 3
制式 3
刷卡 3
剝@@ 3
劉文@@ 3
劍@@ 3
劣@@ 3
勉 3
務所 3
勞工所 3
勵@@ 3
包裝@@ 3
匙@@ 3
匹 3
升訓 3
危@@ 3
厚@@ 3
厝@@ 3
原議 3
叉@@ 3
友 3
友達 3
只@@ 3
各位 3
各別 3
吻合 3
吼 3
呀 3
哩 3
哭@@ 3
哺@@ 3
嗆 3
嘉義@@ 3
嚴謹 3
嚴重@@ 3
囊@@ 3
固主 3
在職者 3
地勤 3
坊@@ 3
坦 3
垂 3
型號 3
垣@@ 3
埸 3
堅決 3
報告@@ 3
堵 3
塑 3
塑@@ 3
塔 3
墘 3
墨 3
墾@@ 3
壕 3
壢@@ 3
壺 3
外場 3
失當 3
奈 3
奎 3
契約工 3
妝@@ 3
妤 3
姊@@ 3
姦 3
婊@@ 3
嫺@@ 3
學會 3
學科 3
學術 3
學院 3
定發 3
客艙 3
宸@@ 3
富邦 3
實發 3
審酌@@ 3
寮 3
專屬 3
小字 3
小額 3
尖 3
尖@@ 3
尹@@ 3
尺@@ 3
尺寸 3
屈 3
屈@@ 3
履歷表 3
峨@@ 3
嶽 3
巢 3
差勤 3
巴 3
巾 3
市○○區@@ 3
幕 3
干 3
幼兒園 3
广@@ 3
庸 3
廁@@ 3
廉 3
廚餘 3
弊@@ 3
張德@@ 3
張文@@ 3
彬@@ 3
彰化縣 3
影響@@ 3
徒刑 3
必要@@ 3
必要云云 3
怒 3
怠忽@@ 3
急性 3
恪@@ 3
恰 3
恰@@ 3
悠@@ 3
您@@ 3
悲 3
悶@@ 3
情形@@ 3
感謝 3
憶@@ 3
懲罰@@ 3
懸 3
戲@@ 3
所在@@ 3
扞@@ 3
抓@@ 3
拌 3
招 3
招標 3
拜@@ 3
拼 3
挪 3
挪@@ 3
挽@@ 3
捍@@ 3
掌管 3
接管 3
措 3
揭存證 3
摘@@ 3
撐 3
撙@@ 3
撰@@ 3
撿 3
擠 3
攀 3
攏 3
改用 3
攻 3
敗@@ 3
敲@@ 3
斗 3
斡 3
旁@@ 3
易科 3
星@@ 3
時代 3
晉 3
晨 3
暢 3
暴露 3
暸@@ 3
曄 3
曉 3
曝@@ 3
會議@@ 3
有疑 3
有餘 3
本合 3
本部 3
杉@@ 3
李彥@@ 3
李祥@@ 3
李美@@ 3
村 3
村@@ 3
杜 3
束 3
析 3
柴@@ 3
桃園市 3
案」 3
梧@@ 3
梯@@ 3
棄@@ 3
棕 3
棧 3
棱@@ 3
棲@@ 3
構 3
樓層 3
檢測 3
檳@@ 3
檻 3
權」 3
欺 3
歐 3
正常@@ 3
正本系 3
歧@@ 3
歲@@ 3
殆 3
毆 3
比例者 3
民間 3
汁 3
決定@@ 3
沖@@ 3
沿用 3
泉@@ 3
泓@@ 3
液@@ 3
深 3
混合 3
清潔員 3
渝 3
渠@@ 3
測量 3
湊 3
湘 3
溶@@ 3
滌@@ 3
滾@@ 3
漆 3
漢@@ 3
漿 3
潛@@ 3
潮 3
澈 3
濂@@ 3
濃@@ 3
瀅 3
瀆 3
炯@@ 3
烏@@ 3
焊 3
焊接 3
無待 3
然前 3
然尚 3
然由 3
煉@@ 3
煞@@ 3
煽@@ 3
熊 3
熹@@ 3
營業部 3
營私舞弊 3
爍 3
爭執@@ 3
爽 3
牟 3
牽 3
牽@@ 3
狹@@ 3
狼@@ 3
獅@@ 3
獨立@@ 3
獻 3
王明@@ 3
玟 3
珊 3
珩 3
現任 3
理由@@ 3
瑰 3
環保 3
瓔 3
瓶 3
甜 3
生日 3
產物 3
用期 3
由此可見 3
甲○ 3
畔 3
畫@@ 3
疊 3
疤@@ 3
痕@@ 3
登記簿 3
發包 3
皇@@ 3
益者 3
益表 3
盟@@ 3
相合 3
相片 3
眠 3
睡 3
督 3
睦@@ 3
矇@@ 3
矚@@ 3
矢@@ 3
短領 3
砍 3
碎 3
碟 3
碟@@ 3
確信者 3
磯 3
礦@@ 3
祀 3
祗@@ 3
神@@ 3
祭@@ 3
祿 3
福士 3
福祉 3
秉 3
科學 3
稱之非 3
穩@@ 3
窗 3
窺 3
竄@@ 3
竊盜 3
笨 3
第158 3
第200 3
第204 3
第206 3
第219 3
第228 3
第238 3
第328@@ 3
第4款 3
第502 3
筋@@ 3
簡報 3
簽 3
簽到@@ 3
籬 3
粘@@ 3
糖@@ 3
結合 3
給@@ 3
絲 3
絲@@ 3
經理室 3
經銷@@ 3
綜此 3
維生 3
綸 3
綸@@ 3
綺 3
綺@@ 3
締 3
編列 3
緯@@ 3
繕@@ 3
繪@@ 3
繫@@ 3
纂 3
缺席 3
罐 3
罰@@ 3
美元 3
美容師 3
羿 3
翼@@ 3
耕@@ 3
聊@@ 3
聘約 3
聞@@ 3
職事 3
肅@@ 3
肆@@ 3
肢@@ 3
胃@@ 3
脅 3
腔 3
膏 3
膜@@ 3
臆@@ 3
臨@@ 3
自次月 3
自由權 3
臺南市 3
臺塑 3
臻@@ 3
舉出 3
舞@@ 3
舟@@ 3
艙@@ 3
色@@ 3
艾@@ 3
花蓮 3
苦 3
茍@@ 3
莘 3
菀 3
葳@@ 3
蒸@@ 3
蓁 3
蔑 3
蕙 3
薦 3
藍 3
藥費 3
蘭@@ 3
處分@@ 3
蛇@@ 3
蛛@@ 3
螢@@ 3
血 3
行員 3
衡平 3
衹 3
被上訴人@@ 3
裝備 3
褲 3
覈定@@ 3
見到 3
見本院 3
見面 3
計程@@ 3
計酬@@ 3
該會 3
誇@@ 3
誌 3
認勞 3
認此 3
誡@@ 3
誥 3
誼@@ 3
諉@@ 3
謗 3
謹@@ 3
證件 3
譯@@ 3
議書 3
議決 3
譽 3
變賣 3
豆 3
豫 3
財務長 3
責任額 3
買@@ 3
貽@@ 3
資佐證 3
賈@@ 3
賜@@ 3
賞@@ 3
賴美@@ 3
贅@@ 3
趁 3
趙 3
趙文@@ 3
踐@@ 3
躍 3
軌 3
軟 3
輔導@@ 3
輪胎 3
輾@@ 3
轄市 3
辣 3
辦公處 3
辱@@ 3
迄99年 3
迥然@@ 3
迭@@ 3
迴護 3
迷@@ 3
進出口 3
遂@@ 3
過之處分 3
遣散@@ 3
適宜 3
邁 3
邱平@@ 3
酒後 3
醉 3
醒 3
醫事 3
醫療@@ 3
釀@@ 3
鉛@@ 3
銜 3
銳@@ 3
錫 3
鍈@@ 3
鍋 3
鐲@@ 3
鑰@@ 3
開戶 3
開放 3
間者 3
闆@@ 3
闔 3
闕@@ 3
防 3
阿@@ 3
陳報@@ 3
陳情@@ 3
陳淑@@ 3
陳癸銘 3
陷 3
陽明 3
隋 3
隨身 3
隱 3
隸 3
雞@@ 3
離職止 3
零售 3
電臺 3
響 3
須知 3
領月 3
頸椎 3
顗@@ 3
飯 3
飲料 3
餐飲@@ 3
餐點 3
餬@@ 3
駁回@@ 3
驚@@ 3
骸@@ 3
髒 3
髓 3
髖 3
髖@@ 3
髮@@ 3
鬥 3
麒 3
黃明@@ 3
鼻@@ 3
齟@@ 3
齬 3
@@ 3
 3
@@ 3
@@ 3
@@ 3
@@ 3
@@ 3
@@ 3
﹔ 3
．．@@ 3
１@@ 3
３@@ 3
Ａ 3
Ａ@@ 3
Ｓ 3
Ｔ@@ 3
Ｚ@@ 3
....」 2
00號函 2
012 2
01日 2
01月 2
069 2
085 2
14時 2
437 2
454 2
463 2
49萬 2
548 2
566 2
599 2
799 2
803 2
843 2
899 2
919 2
972 2
AN@@ 2
IT 2
PI 2
ase 2
for@@ 2
q@@ 2
ra@@ 2
÷@@ 2
ˇ@@ 2
‧‧‧ 2
→@@ 2
⑧ 2
〤 2
上訴者 2
世賢 2
主訴 2
乎@@ 2
云 2
五年 2
亞洲 2
什@@ 2
仍@@ 2
仕@@ 2
付費 2
付量 2
任用@@ 2
仿 2
休憩 2
佘 2
作人 2
併@@ 2
佶@@ 2
來不@@ 2
例行性 2
侑@@ 2
依一 2
依首 2
侯 2
侯@@ 2
侷@@ 2
係 2
係@@ 2
俇@@ 2
保員 2
保證@@ 2
保險費用 2
信義 2
修法 2
倚@@ 2
值日 2
偕@@ 2
健保@@ 2
偵 2
偵續 2
傳播 2
僞 2
僱合 2
元 2
兌 2
免予 2
公務@@ 2
公衆 2
公關 2
其系 2
冬 2
冰@@ 2
凃 2
凃@@ 2
凰@@ 2
函附 2
刑案 2
判字 2
刪@@ 2
券@@ 2
前所述 2
剖@@ 2
劉碧@@ 2
加班單 2
勁 2
勇@@ 2
勳@@ 2
勿@@ 2
匈@@ 2
匙 2
匠 2
午休 2
卯@@ 2
印鑑 2
即月 2
卷可參 2
卷可考 2
卷足參 2
卹@@ 2
反應@@ 2
反觀 2
受任人 2
口腔 2
可得而知 2
史 2
合理@@ 2
同仁@@ 2
吐@@ 2
吝 2
吻 2
呆帳 2
咄@@ 2
咆@@ 2
咎 2
哦 2
哭 2
唆@@ 2
唐@@ 2
商行 2
喉 2
喙 2
喳 2
嘉義市 2
嚇@@ 2
囂 2
困 2
圈 2
國軍 2
國都 2
地上 2
址@@ 2
坡 2
坳@@ 2
基本原 2
基準法所定 2
堆@@ 2
堯@@ 2
場地 2
墓@@ 2
壁@@ 2
壯@@ 2
夙@@ 2
夥伴 2
太平@@ 2
奮 2
妄@@ 2
妏 2
妝 2
妨@@ 2
姍@@ 2
姓@@ 2
姪@@ 2
姬 2
娶 2
孕 2
孟 2
宅@@ 2
安胎 2
定型 2
宜蘭 2
宮@@ 2
宴@@ 2
寓 2
寡@@ 2
寢 2
寥@@ 2
寸 2
專任 2
尬 2
尷@@ 2
屍@@ 2
層級 2
岑@@ 2
崖@@ 2
崗 2
嵌 2
巢@@ 2
工安 2
工業@@ 2
巳 2
巳@@ 2
幕@@ 2
幼童 2
店員 2
廚師 2
廟@@ 2
弓 2
張明@@ 2
張玉@@ 2
很@@ 2
徐瑞其 2
徐美@@ 2
徒@@ 2
忽 2
怨@@ 2
恃 2
恣 2
恨 2
恬 2
恭 2
悉」 2
悵 2
情詞 2
惆@@ 2
愔@@ 2
慘@@ 2
慾 2
憂 2
憤@@ 2
憩 2
應堪信 2
懼@@ 2
懿@@ 2
戊@@ 2
戌@@ 2
截 2
戰@@ 2
所長 2
托兒 2
扛 2
扯 2
扶 2
抂@@ 2
抨@@ 2
拉扯 2
拋 2
招聘 2
拼@@ 2
挾 2
掀@@ 2
掉@@ 2
掐 2
控股 2
推測 2
推薦 2
推銷 2
描 2
揭證人 2
搖@@ 2
摩 2
撐@@ 2
撕 2
擁@@ 2
擊@@ 2
操@@ 2
擡@@ 2
擱@@ 2
擴 2
擺 2
攔 2
攜 2
攝@@ 2
攝影@@ 2
攬@@ 2
收費員 2
攸@@ 2
敦 2
斜 2
斥@@ 2
既定 2
旻@@ 2
昊 2
易字 2
昔@@ 2
春榮 2
時準 2
時間@@ 2
晝@@ 2
晴@@ 2
暄 2
暇 2
暈 2
暑@@ 2
暗@@ 2
曲@@ 2
有利@@ 2
朋 2
服本 2
服藥 2
本件@@ 2
李榮@@ 2
杭@@ 2
林永@@ 2
柄@@ 2
柑 2
柑@@ 2
柔 2
柯 2
柳@@ 2
格權 2
桿 2
械@@ 2
椿@@ 2
楣 2
榴 2
槽@@ 2
樺@@ 2
機房 2
橫 2
檢員 2
歇@@ 2
正輝 2
殆@@ 2
殺 2
毛 2
氏@@ 2
汐@@ 2
汝@@ 2
池@@ 2
汶@@ 2
決策權 2
沈 2
泙 2
泛稱 2
泳@@ 2
洞 2
活 2
派任 2
浮報 2
消 2
淋@@ 2
淚 2
淮@@ 2
混凝土 2
清算@@ 2
渴 2
溜@@ 2
溼 2
滄 2
漁 2
演出 2
漠@@ 2
潑 2
潮@@ 2
澤@@ 2
澹@@ 2
濫 2
瀅@@ 2
瀧 2
灑 2
灣 2
灼 2
炎@@ 2
烊 2
烘@@ 2
焄 2
焙 2
無所@@ 2
然已 2
然本院 2
煌@@ 2
煜@@ 2
燊 2
燬 2
燴 2
爭訟 2
爽@@ 2
牟@@ 2
牧@@ 2
犒@@ 2
犬@@ 2
狗@@ 2
狹 2
猷@@ 2
珀@@ 2
珊@@ 2
珒 2
班機 2
琇 2
琦@@ 2
瑛@@ 2
瑩@@ 2
璉 2
璟@@ 2
瓊 2
瓶@@ 2
瓷 2
生活@@ 2
甡 2
產量 2
產險 2
用金 2
甫@@ 2
由此@@ 2
申覆@@ 2
申訴書 2
略@@ 2
番@@ 2
疊@@ 2
疲 2
疲@@ 2
疼@@ 2
疾 2
疾患 2
痂@@ 2
瘋 2
療程 2
癌@@ 2
皖@@ 2
盜 2
監理 2
盯@@ 2
盲@@ 2
相機 2
看護@@ 2
眠@@ 2
睬 2
瞌 2
瞪 2
瞬 2
知之甚詳 2
知會 2
砸 2
碑 2
碰撞 2
社會局 2
祈@@ 2
祕 2
祕書長 2
禕@@ 2
禪 2
私權 2
秤 2
稍@@ 2
空勤 2
窩@@ 2
窮 2
竇 2
立證 2
竹北 2
第00000000 2
第1868 2
第202 2
第210 2
第216 2
第224 2
第251 2
第335 2
第497 2
第七十九 2
筠@@ 2
箋 2
管理室 2
管理權 2
管理費 2
節性 2
篡@@ 2
簷 2
籃@@ 2
籠 2
籠@@ 2
糊@@ 2
糟 2
紗 2
紗@@ 2
結清@@ 2
絛 2
絛@@ 2
統聯 2
絹 2
經營@@ 2
綜據 2
綱 2
綾 2
緊@@ 2
緗 2
緗@@ 2
總監 2
織@@ 2
續期 2
纖@@ 2
罵@@ 2
美容@@ 2
翹@@ 2
考覈@@ 2
耐 2
耳 2
耶 2
聰 2
肅 2
肋@@ 2
肌@@ 2
肌肉 2
肘@@ 2
肚@@ 2
肝@@ 2
肱 2
肱@@ 2
背痛 2
胡 2
能性 2
脅@@ 2
脈 2
脖@@ 2
脛 2
脾@@ 2
腳踏車 2
膠@@ 2
臟 2
臨時@@ 2
自主@@ 2
自動化 2
臭 2
致伊 2
臺中縣 2
臺南@@ 2
臺東 2
臺電 2
興建 2
舜@@ 2
舞 2
般@@ 2
船@@ 2
芙@@ 2
芝@@ 2
芭@@ 2
芽@@ 2
苑@@ 2
苗栗 2
苦@@ 2
茶 2
茶@@ 2
荒@@ 2
莞@@ 2
菜@@ 2
菸區 2
葳 2
葸 2
蒂@@ 2
蒐集 2
蒙@@ 2
蒜 2
蒼 2
蓁@@ 2
蓉@@ 2
蓓 2
蔆 2
蔽 2
藐@@ 2
蜂 2
蜜@@ 2
蠻@@ 2
衊 2
行政局 2
衛室 2
衷 2
袖@@ 2
裝載 2
襄@@ 2
襲 2
西北 2
規定@@ 2
規避@@ 2
覓@@ 2
角色 2
觸 2
觸@@ 2
訐 2
訛 2
訛@@ 2
許金@@ 2
詠@@ 2
該名 2
詹 2
誆 2
誆@@ 2
認股 2
誕 2
誣 2
諭@@ 2
諱@@ 2
謊 2
講師 2
讚@@ 2
豔@@ 2
貝@@ 2
財務@@ 2
販@@ 2
貸@@ 2
費者 2
質性 2
贅 2
贈與 2
贊 2
贓 2
起始 2
跌@@ 2
路0 2
踏@@ 2
蹟 2
蹲 2
蹲@@ 2
躲@@ 2
車票 2
軸@@ 2
輛@@ 2
輸@@ 2
輻@@ 2
轎@@ 2
辦公@@ 2
辯詞 2
迴 2
迷 2
通用 2
過於 2
違反@@ 2
遵@@ 2
邀請 2
邏@@ 2
邕 2
郊@@ 2
鄔 2
鄙 2
鄰 2
酉@@ 2
酬勞 2
酸@@ 2
醫理 2
重慶 2
金門 2
鈕 2
鉗 2
鉚@@ 2
鉢@@ 2
銑@@ 2
銲@@ 2
鋪@@ 2
錡 2
鍛@@ 2
鏘 2
鏡@@ 2
鐸 2
鐿 2
鑿@@ 2
開二 2
開條 2
閒 2
閔 2
閔@@ 2
關係究 2
闢 2
附繕 2
陣 2
除此@@ 2
陳國@@ 2
陳詞 2
障@@ 2
集體 2
電磁 2
電話@@ 2
霑 2
霖@@ 2
露@@ 2
靆@@ 2
頷 2
頷@@ 2
顎 2
顱@@ 2
顳@@ 2
顴 2
顴@@ 2
飼@@ 2
飽 2
飾@@ 2
饗@@ 2
首揭 2
馨@@ 2
駒@@ 2
駕照 2
骼 2
髕@@ 2
高層 2
高血壓 2
鬧@@ 2
鱉@@ 2
鳥 2
鹹 2
鹹@@ 2
鹿 2
麗玲 2
黃國@@ 2
黃瑞@@ 2
鼻 2
 2
 2
 2
@@ 2
 2
﹑@@ 2
﹝@@ 2
．． 2
／@@ 2
０@@ 2
２@@ 2
５ 2
Ｂ@@ 2
Ｄ 2
Ｅ 2
Ｇ@@ 2
Ｈ@@ 2
Ｋ@@ 2
Ｍ@@ 2
Ｑ@@ 2
Ｒ 2
Ｔ 2
Ｖ@@ 2
 1
/@@ 1
126@@ 1
1776 1
442 1
587 1
589 1
829 1
887 1
CA@@ 1
MT 1
ND 1
PC@@ 1
\@@ 1
^ 1
` 1
`@@ 1
v 1
will 1
wit@@ 1
ˇ 1
— 1
’ 1
→ 1
≧ 1
⑨@@ 1
⑩ 1
⑩@@ 1
── 1
□ 1
▲ 1
☆ 1
〉@@ 1
ㄍ@@ 1
ㄢ@@ 1
ㄧ 1
ㄧ@@ 1
一百零一 1
下載 1
丙方 1
中央@@ 1
中油 1
串@@ 1
丸@@ 1
丹 1
了@@ 1
于@@ 1
井@@ 1
亡@@ 1
交通車 1
亭 1
仇@@ 1
仔@@ 1
仗@@ 1
仙@@ 1
仰@@ 1
任意@@ 1
任書 1
企 1
休養@@ 1
伙 1
但@@ 1
住宅 1
住院@@ 1
作息@@ 1
佣@@ 1
佩 1
侈@@ 1
依下列 1
侮 1
保書 1
保誠 1
保險業 1
倖 1
倦 1
倨@@ 1
健全 1
偲@@ 1
傲 1
像@@ 1
僚 1
僚@@ 1
僥@@ 1
僵 1
儲 1
儷@@ 1
元大 1
兇@@ 1
光電 1
公分 1
冀@@ 1
冰箱 1
冶@@ 1
准 1
凍 1
出廠 1
出所 1
刃@@ 1
刑責 1
判費 1
別證 1
刺@@ 1
則@@ 1
劉明@@ 1
努 1
勘 1
匆@@ 1
化工 1
匠@@ 1
匡 1
匪 1
匪@@ 1
卑@@ 1
協調@@ 1
南市 1
南投@@ 1
南投縣 1
危 1
危險@@ 1
卷二 1
卿@@ 1
厭@@ 1
厲@@ 1
參本 1
叡 1
叮@@ 1
可歸責 1
可認 1
叱 1
叵@@ 1
司北勞 1
合夥@@ 1
合庫 1
吐 1
吳雅@@ 1
吸 1
呂 1
呵 1
呼吸 1
咬 1
咬@@ 1
咳@@ 1
哀@@ 1
哈 1
哈@@ 1
員會 1
哦@@ 1
哪@@ 1
唁@@ 1
唱@@ 1
唸@@ 1
啓 1
啡 1
啤@@ 1
啪 1
啻 1
喂 1
喉@@ 1
喚 1
喧@@ 1
嗆@@ 1
嗜 1
嗨 1
嗯@@ 1
嗽 1
嘆 1
嘉義縣 1
嘯 1
嘲@@ 1
嘻@@ 1
噪@@ 1
噴 1
噹 1
嚨 1
囂@@ 1
圈@@ 1
國防@@ 1
圜 1
地面 1
圳 1
坑 1
垣 1
埋@@ 1
堪可 1
報名 1
塌 1
境@@ 1
墜 1
墨@@ 1
墬@@ 1
墾 1
壓縮 1
壤@@ 1
夕 1
天然@@ 1
央@@ 1
奢@@ 1
奪@@ 1
奮@@ 1
奴@@ 1
奶 1
妄 1
妍@@ 1
妏@@ 1
姆 1
委任人@@ 1
委會 1
姚@@ 1
姝@@ 1
姪 1
姵 1
娃 1
娃@@ 1
娛@@ 1
娜@@ 1
娟@@ 1
娢@@ 1
婆@@ 1
婊 1
婕@@ 1
婿@@ 1
媳 1
嫁 1
嫦@@ 1
嬰 1
孚 1
孰 1
孰@@ 1
宅 1
安泰 1
完善 1
宏恩 1
宏達 1
定目 1
宛@@ 1
宿@@ 1
寄予 1
寒 1
實系 1
審裁 1
寬裕 1
專車 1
尊 1
尼@@ 1
屢@@ 1
屹@@ 1
峯@@ 1
崩@@ 1
嵐 1
嶸 1
工程行 1
巫 1
巴士 1
巿 1
巿@@ 1
市○○○@@ 1
帆@@ 1
希 1
帑 1
帖 1
帛@@ 1
帝@@ 1
帥 1
師法 1
帽@@ 1
平法 1
幸福 1
庫@@ 1
庶 1
康寧 1
廚 1
廟 1
廢棄@@ 1
建案 1
廿 1
廿@@ 1
引進 1
弭@@ 1
張雅@@ 1
強化 1
強烈 1
彈@@ 1
彌 1
彌@@ 1
彤 1
彩 1
彪@@ 1
徐瑞@@ 1
得而@@ 1
徙@@ 1
復主 1
復健科 1
復興 1
徵收 1
徹 1
忌 1
忌@@ 1
志願 1
念@@ 1
怖 1
恝 1
恢@@ 1
恣@@ 1
恤 1
恫 1
悍 1
悖@@ 1
悟 1
惜@@ 1
惶 1
惶@@ 1
惹 1
惹@@ 1
愆 1
愉 1
愉@@ 1
愎 1
愕 1
愚 1
愚@@ 1
感到 1
感情 1
愧@@ 1
慌 1
慌@@ 1
慚@@ 1
慣 1
慧玲 1
慨 1
慷@@ 1
慼@@ 1
憎@@ 1
憚 1
憫 1
憾 1
懂@@ 1
懇 1
應行 1
應非 1
懊@@ 1
懟 1
懶@@ 1
戎@@ 1
戮@@ 1
戰 1
房地 1
扈 1
扭傷 1
扮@@ 1
扺@@ 1
抉@@ 1
抖@@ 1
抹 1
拌@@ 1
拓 1
拔 1
拮@@ 1
挌 1
挫 1
挺 1
挺@@ 1
捕 1
捨@@ 1
据 1
捻 1
掉落 1
掏@@ 1
採爲 1
揆@@ 1
描@@ 1
揮 1
揹@@ 1
搖 1
搜 1
搪@@ 1
摒@@ 1
摔@@ 1
摭@@ 1
撈@@ 1
撓 1
撞@@ 1
撤櫃 1
擇@@ 1
擋@@ 1
擎 1
擱 1
攀@@ 1
攝影 1
攪@@ 1
攷 1
攸 1
教練 1
敝 1
斐 1
斑 1
斑@@ 1
斜@@ 1
斟@@ 1
斬@@ 1
於95年 1
日間 1
旻 1
昆 1
昏@@ 1
昧 1
昧@@ 1
是說 1
晤@@ 1
晴 1
暐 1
暐@@ 1
暔 1
暗 1
暸 1
曖@@ 1
曛 1
曩 1
曬 1
曳@@ 1
曾明@@ 1
會者 1
木工 1
本行 1
杆@@ 1
杖@@ 1
杯 1
東南 1
東安 1
東森 1
枕@@ 1
林志@@ 1
林淑敏 1
柏 1
查上訴人 1
柬 1
柬@@ 1
柱@@ 1
柳 1
柵 1
栩@@ 1
核非 1
格性 1
栽 1
桐@@ 1
桶 1
梗@@ 1
條列 1
條第 1
棉@@ 1
棍 1
棒@@ 1
棚 1
棠 1
楊國祥 1
楓@@ 1
楞 1
楠@@ 1
榆 1
榕 1
榨 1
榷 1
榽 1
槌 1
槍 1
樞@@ 1
模擬@@ 1
橘@@ 1
機隊 1
橢@@ 1
檢定 1
檢察@@ 1
檯 1
權利@@ 1
此據 1
此等 1
歸咎 1
殷@@ 1
殺@@ 1
毅@@ 1
毒 1
毓@@ 1
民航@@ 1
氧@@ 1
汰@@ 1
決於 1
沅 1
沉@@ 1
沾 1
沾@@ 1
沿@@ 1
泉 1
法所 1
泗 1
泡 1
泣 1
泣@@ 1
泥 1
泥@@ 1
泰國 1
泱 1
泱@@ 1
浤@@ 1
涇@@ 1
涌 1
涌@@ 1
涯 1
淆@@ 1
淑 1
淘 1
淦 1
淳@@ 1
淵 1
渤@@ 1
渭@@ 1
渲@@ 1
游@@ 1
湊@@ 1
湘@@ 1
湛@@ 1
準備@@ 1
溝@@ 1
溱@@ 1
溺@@ 1
滯@@ 1
滲@@ 1
滴 1
漆@@ 1
漏洞 1
漲@@ 1
潁 1
潁@@ 1
潑@@ 1
潔@@ 1
潢@@ 1
潤 1
潭@@ 1
澂 1
澄 1
澆@@ 1
澳 1
濤 1
濫@@ 1
濰 1
濱@@ 1
濾 1
瀕@@ 1
瀧@@ 1
瀰@@ 1
灝 1
炒@@ 1
炘 1
炬@@ 1
炭 1
烏 1
烘 1
烜 1
烤 1
烹 1
無端 1
無論@@ 1
無論是 1
無論系 1
焦 1
煉 1
煎@@ 1
煙 1
煩 1
熄 1
熔@@ 1
熙 1
燙@@ 1
營業員 1
燦 1
燭 1
爛 1
爭規 1
父@@ 1
牀@@ 1
牛 1
特殊@@ 1
狂@@ 1
狐@@ 1
狠 1
狠@@ 1
狡@@ 1
狩 1
狸@@ 1
狽 1
猝@@ 1
猥@@ 1
猴@@ 1
獄 1
獸@@ 1
王國@@ 1
王奕@@ 1
玖@@ 1
玴@@ 1
珉@@ 1
理事@@ 1
理人 1
琇@@ 1
琍@@ 1
琬@@ 1
琮 1
琳@@ 1
琴@@ 1
瑄@@ 1
瑕 1
瑜@@ 1
瑟 1
瑟@@ 1
瑣 1
瑱 1
璜@@ 1
璟 1
璧@@ 1
璨 1
環球 1
璿 1
瓛 1
瓷@@ 1
甘冒@@ 1
甘冒僞證 1
甦 1
畇@@ 1
畑 1
番 1
疇@@ 1
疋@@ 1
疏漏 1
疚 1
疪@@ 1
疲勞 1
疵 1
疽 1
病變 1
瘓 1
瘤@@ 1
癡@@ 1
癱 1
癱@@ 1
發科 1
皓@@ 1
皖 1
皺 1
皺@@ 1
監察@@ 1
監視@@ 1
盯 1
盱@@ 1
盼 1
盾 1
盾@@ 1
省@@ 1
眉 1
眶 1
眷 1
睡@@ 1
睫 1
瞄 1
瞌睡 1
瞞@@ 1
瞧 1
瞬@@ 1
瞭@@ 1
矛@@ 1
矢 1
砂 1
碇 1
磷@@ 1
礎@@ 1
礙@@ 1
礦 1
禍@@ 1
福委會 1
福財 1
禧 1
禹 1
禹@@ 1
秀玲 1
秋節 1
秒@@ 1
稅局 1
稟@@ 1
稿@@ 1
穆@@ 1
穗 1
穢 1
穢@@ 1
窒@@ 1
竈 1
立者 1
竭@@ 1
笑@@ 1
第17873 1
第180 1
第212 1
第218@@ 1
第230 1
第240 1
第264 1
第270 1
第310 1
第查 1
筒 1
管控 1
簽約金 1
簾 1
籌 1
粒 1
粗 1
粥 1
粲@@ 1
精神@@ 1
糉 1
糟@@ 1
紊 1
紓@@ 1
紫 1
紮@@ 1
紳@@ 1
絀 1
絨@@ 1
絮 1
統制權 1
綱@@ 1
綻@@ 1
綿@@ 1
緊縮@@ 1
線路 1
編輯 1
縐@@ 1
縷@@ 1
總務室 1
繞@@ 1
繹 1
纈@@ 1
纖 1
纜@@ 1
缸@@ 1
罄 1
罕@@ 1
羚@@ 1
翁 1
翊 1
耿@@ 1
聯性 1
聳@@ 1
職等 1
肖 1
肘 1
肺 1
胎 1
胞 1
胤 1
胥 1
胱 1
胴 1
胸 1
脆 1
脹 1
腎 1
腎@@ 1
腓@@ 1
腩@@ 1
腰椎@@ 1
腳@@ 1
腳踏@@ 1
腺 1
膀 1
膀@@ 1
膚 1
膠 1
膳 1
臟@@ 1
臧 1
自無@@ 1
自述 1
臭@@ 1
臺中市 1
舉措 1
舒 1
航機 1
舷 1
芸@@ 1
芽 1
苓@@ 1
苗@@ 1
苙@@ 1
茁 1
茗 1
茹@@ 1
荃 1
荷 1
菌 1
萊 1
萌@@ 1
萎 1
萩@@ 1
萱@@ 1
著作@@ 1
葛 1
葛@@ 1
葡 1
蒨@@ 1
蒼@@ 1
蓄@@ 1
蔆@@ 1
蔑@@ 1
蔡明@@ 1
蔦@@ 1
蕩 1
蕩@@ 1
蕭淑@@ 1
薄@@ 1
薈 1
薈@@ 1
薑 1
薰 1
藤@@ 1
蘋 1
虎 1
虐 1
蜘@@ 1
螺 1
蟲 1
蠟@@ 1
蠲@@ 1
血壓 1
行者 1
被告臺 1
裨 1
裴@@ 1
裸@@ 1
裹 1
複 1
褔@@ 1
褚@@ 1
褫@@ 1
褶@@ 1
褻 1
襲@@ 1
視力 1
觀察@@ 1
觀看 1
解免 1
訓練者 1
訢 1
評論 1
詮@@ 1
語綦詳 1
誹謗@@ 1
誼 1
談判 1
諜 1
諳 1
諷@@ 1
謀職 1
謔 1
謙 1
謝志@@ 1
謢 1
謨 1
謬 1
譁 1
譙 1
警告信 1
警局 1
譬@@ 1
讀@@ 1
讀生 1
谷@@ 1
豊@@ 1
豚@@ 1
豫@@ 1
豬@@ 1
豹@@ 1
貓 1
財富 1
貢獻@@ 1
貯@@ 1
貲 1
貶 1
貽 1
賀 1
賀@@ 1
賃 1
資本@@ 1
賈 1
賊 1
賤@@ 1
賦@@ 1
賭博 1
賴建@@ 1
賸@@ 1
賺 1
贈@@ 1
赴@@ 1
趁@@ 1
超市 1
超越 1
趟次 1
足參 1
趴@@ 1
趾@@ 1
跨@@ 1
踊@@ 1
踏 1
蹈 1
蹈@@ 1
蹋@@ 1
蹠 1
蹤@@ 1
蹶 1
躁 1
躍@@ 1
躬@@ 1
軒@@ 1
輩 1
輯 1
輿@@ 1
轍 1
辜 1
辦人 1
辨@@ 1
辭去 1
辰 1
農業 1
迂@@ 1
迅@@ 1
迥@@ 1
迨@@ 1
迺 1
透 1
逮@@ 1
遁 1
遊覽@@ 1
遍@@ 1
遏 1
遏@@ 1
達成@@ 1
遙 1
遜 1
遠東 1
適法性 1
選定 1
遼@@ 1
遽採 1
避@@ 1
邀@@ 1
邕@@ 1
邵@@ 1
鄙@@ 1
鄰@@ 1
配股 1
醜@@ 1
醬@@ 1
醮 1
釁 1
重疊 1
野 1
野@@ 1
釦 1
鈊@@ 1
鈍 1
鈑@@ 1
鈔@@ 1
鉗@@ 1
銅 1
銳 1
鋪 1
錐 1
錙@@ 1
錫@@ 1
鍊@@ 1
鍛 1
鍵 1
鎧@@ 1
鏈 1
鏽@@ 1
鑷@@ 1
鑽 1
閃 1
開支 1
開聘 1
閎 1
閥 1
閭 1
闌@@ 1
阮文@@ 1
陋 1
陌@@ 1
陡 1
陡@@ 1
除去@@ 1
陰@@ 1
陳宜@@ 1
陳柏@@ 1
陳癸@@ 1
陳碧@@ 1
陳秋@@ 1
陳美玲 1
陳逸@@ 1
陵@@ 1
陶 1
隊@@ 1
隴 1
隸@@ 1
雀 1
雕@@ 1
雛@@ 1
雞 1
離職守 1
難予 1
雲林 1
零售業 1
電阻 1
霞@@ 1
霧 1
靆 1
靈@@ 1
青人 1
靖 1
非虛 1
韓 1
韞 1
響@@ 1
頌@@ 1
頤 1
頹@@ 1
顎@@ 1
顗 1
餅@@ 1
餐飲店 1
餜@@ 1
餽 1
饌 1
饒@@ 1
馬費 1
駱@@ 1
騏 1
騚 1
驊@@ 1
魁 1
魏 1
魔@@ 1
魯@@ 1
鮮 1
鳥@@ 1
鴨@@ 1
鵑 1
鵠 1
鸘 1
鹼 1
鹿@@ 1
麗琴 1
麗美 1
麻 1
黃季鈺 1
黃文@@ 1
鼓 1
 1
@@ 1
@@ 1
@@ 1
@@ 1
@@ 1
@@ 1
 1
 1
@@ 1
 1
@@ 1
 1
 1
@@ 1
 1
@@ 1
@@ 1
︰@@ 1
﹍@@ 1
﹖@@ 1
﹙@@ 1
﹚ 1
﹣ 1
﹨@@ 1
＃@@ 1
６ 1
６@@ 1
８ 1
＜ 1
＞ 1
Ｋ 1
Ｌ@@ 1
Ｎ 1
Ｎ@@ 1
Ｘ 1
Ｘ@@ 1
ｘ@@ 1
madeupword0000 0
madeupword0001 0
madeupword0002 0
madeupword0003 0
